#version: 0.2
e r
e n
c h
i n
Ġ t
Ġ d
Ġ a
Ġ s
Ġ w
Ġ .
h e
Ġ *
i e
s t
Ġ i
a n
Ġ m
Ġ h
o n
a s
Ġ b
o u
a t
Ġ ,
r e
l l
Ġt he
n d
Ġ g
Ġ n
e s
Ġ I
Ġ S
i ch
e in
i t
a r
o r
Ġ f
Ġ D
Ġ W
in g
Ġt h
Ġ o
i s
Ġ l
i r
O T
M OT
C H
Ġ u
e d
Ġ c
e t
CH I
Ġ A
Ġ in
Ġ M
Ġt o
o m
Ġ p
Ġ y
Ġ k
Ã ¼
a l
Ġ ?
t e
Ġy ou
Ġa nd
i g
Ġ H
Ġ T
l e
Ġ v
a u
Ġh a
Ġ B
ich t
Ġo f
Ġ ein
Ġ E
e l
Ġ !
o t
u t
Ã ¤
c k
er e
o w
Ġ G
Ġd ie
Ġb e
u r
' s
u n
a m
e h
u s
Ġi st
Ġd as
Ġ z
Ġn icht
ĠI ch
Ġ K
i d
a ch
. .
a y
Ġ F
Ġ "
Ġ N
Ġi ch
Ġi t
Ġw as
e m
a g
Ġ L
Ġ on
v e
Ã ¶
Ġ he
s e
i m
an d
i l
ĠS ie
b er
en t
Ġ P
Ġd u
Ġth at
Ġ e
Ġw e
Ġu nd
Ġ J
Ġw h
t er
a d
r o
Ġa n
Ġs o
an n
a h
Ġ re
Ġi s
Ġd er
Ġ j
o o
b en
k e
i er
Ġa u
l d
in d
Ġ C
u m
t h
Ġ R
Ġd o
i on
Ġ r
Ġ er
i c
a ll
i ll
Ġs ch
Ġs t
h t
b e
Ã Ł
s ch
A R
Ġ O
' t
Ġv er
Ġw ir
t en
Ġ es
g en
Ġd en
Ġz u
g e
Ã¼ r
Ġ U
v er
Ġf or
Ġ V
G E
d er
L D
T AR
Ġu n
CHI LD
GE T
TAR GET
i st
h r
Ġa ll
E R
Ġ. ..
om m
it h
Ġs ie
Ġs e
ĠS ch
s en
A T
l ich
o l
h n
e ll
ein e
Ġn o
c e
un g
I N
ou t
Ġau f
Ġa l
Ġg e
ĠD as
H ER
Ġw ar
en n
ig ht
Ġm it
Ġw ith
Ġm e
l y
IN V
d e
o s
om e
f f
r a
Ġh at
u ch
Ġa s
p p
h at
Ġ -
Ġg o
Ġ Y
x x
Ġ [
an t
ĠT he
Ġw ie
c t
Ġh er
Ġ '
u nd
u st
Ġn e
a b
Ġa t
d en
MOT HER
Ġf r
h er
Ġ Z
Ġm ir
Ġ (
Ġd a
Ġn ot
Ġ 1
ou ld
o p
o ll
Ġl i
ĠS t
Ġi m
ĠE r
w e
Ġha ve
f t
et z
Ġth is
Ġk n
ch en
Ġa b
ĠD u
Ġm ich
ĠW as
ĠH e
oo k
Ġs p
Ġa re
a st
o h
m er
ĠD ie
Ġs h
Ġein e
Ã¶ n
Ġl e
Ġh is
Ġm an
ar t
es s
eh r
eh en
r au
er s
Ġthe y
Ġv on
a p
Ġw ill
Ġf Ã¼r
Ġs ich
Ġun s
u l
ĠU nd
Ġon e
Ġdas s
a ck
o re
i b
Ġs ind
Ġkn ow
i ÃŁ
ĠW ir
s o
in k
a in
er n
Ġu p
Ġa us
r en
ĠE s
Ġ ch
a k
e ah
Ġno ch
Ġc an
ou r
Ġth ere
.. .
Ġyou r
or t
Ġd ich
Ġha d
Ġh ier
at ion
i ck
Ġd on
Ġs he
Ġg et
Ġwh at
Ġm ein
Ġau ch
en d
etz t
e st
Ġm y
Ġ 2
Ġha ben
Ġs a
ie l
r y
ar d
Ġd em
g h
F AT
ĠJ a
ĠL e
S T
Ġp l
Ġw er
ach t
oo d
z e
Ġd e
Ġ out
h m
Ġm al
as s
an g
Ġk ann
Ġli ke
Ġh im
ĠI t
ĠT h
in e
am e
q u
ĠI n
a ke
O R
Ġd ir
r ie
Ġs ein
r i
Ġ or
ĠW e
Ġfr om
' re
f en
ĠA n
Ġ )
Ġb ut
u re
Ã¼ ber
Ġb in
it t
I G
Ã¼ ck
Ġu m
on e
n o
Ġha be
E ST
l au
an k
AT OR
Ġn ur
EST IG
ESTIG ATOR
INV ESTIGATOR
i k
ou nd
Ġm us
Ġi hr
on g
Ġein en
is ch
u te
Ġg eh
xx x
Ġb y
Ġw ere
ĠS o
a re
Ġs ag
ch t
ĠV er
Ġv or
n e
ow n
w hat
st e
Ġd id
ĠY ou
f e
. "
Ġthe m
y ou
Ġg es
' m
k ay
u g
Ġw or
au s
Ġi hn
Ġm ach
m en
o d
ĠA l
ĠW ie
Ġk omm
ĠA ber
Ġb r
re s
Ġa ber
n t
all y
Ġj a
Ġg ot
Ġsch on
Ġso ll
n en
Ġs ome
Ġ Ã¼ber
u h
Ġab out
i ve
e p
Ġg ut
at e
ag e
0 0
Ġl ook
er t
ĠB e
Ġth ink
Ã¶ r
an z
Ġdo ch
u ck
ĠE in
' ll
Ġe x
ĠG e
Ġa r
Ġt r
Ġc on
id e
w h
Ġh ere
au se
ĠO h
Ġal s
Ġw ant
Ġsa id
Ġn ach
l o
ie s
w o
Ġj ust
at er
Ġj etzt
v en
o st
ĠS p
y eah
Ġwir d
Ġp ro
] .
Ġha st
Ġse e
Ã¤ t
Ġw enn
Ġw ould
w as
Ġa m
ĠU n
ĠN ein
ad e
Ġd es
im e
k t
it e
ic e
Ġk Ã¶n
Ġwh o
ĠA r
Ġi f
ĠD er
ou gh
Ġu s
on n
, "
ig en
Ġ1 9
ll e
Ġwe iÃŁ
Ġwh en
ot her
Ġd ann
Ġth en
i en
Ġan y
ou s
ĠS e
t o
it te
im m
o ch
ĠA nd
ĠR e
Ġn ow
Ġw oll
ĠA u
Ġm ehr
Ġb o
Ġs ay
i re
s el
Ġr ight
h ing
Ġwie der
Ġc om
Ã¼ s
i p
itt le
i v
Ġb ist
j a
Ġo der
is s
ĠC h
u b
Ġk l
Ġg r
u e
el t
n g
Ġl ie
Ġha b
Ġs te
th at
i a
ĠF r
u d
s er
Ġd own
s p
w ay
Ġh as
' ve
Ġb ack
Ġm eine
Ġa g
Ġf e
ĠB r
is e
Ġbe en
Ġ ro
ĠW h
il d
Ġl ittle
Ġz ur
ch e
o b
Ġp ut
l a
th er
Ġd ar
- -
Ġwer den
Ġgo ing
ĠH er
p t
Ġof f
ĠW ar
p er
Ġd ein
Ġmus s
it y
ier t
ib t
ah r
Ġt ime
ĠI hr
ig e
i f
Ġ et
ĠW enn
Ġc ould
m al
Ġthe ir
ĠD a
Ġm ore
Ġo ver
Ġ xxx
h re
i an
ing s
b r
Ġk ein
m e
Ġd r
Ġim mer
Ġden n
Ġg ood
omm en
Ġp e
Ġb l
Ġwh ich
o se
es ch
re e
sch en
ag en
ĠZ e
Ġ qu
o v
Ġn ie
Ġto o
ĠM r
Ġall es
Ġver y
i z
t he
g ht
w w
c ause
Ġgeh t
or n
Ġbe i
ĠW hat
l ie
o g
Ġg en
ot t
a ce
as sen
in n
is h
ĠM ar
y es
Ġ ent
ĠF re
ur ch
al k
h l
Ġt wo
Ġf ind
Ġnicht s
Ġk eine
or d
Ġ2 0
as e
Ġt e
Ġpl ay
ĠW o
z en
Ġz um
f ter
st en
Ġal so
ur n
ar s
i le
Ġe ver
Ġ en
et t
re i
re at
Ġh in
om et
al t
ĠM ann
Ġb et
Ġein em
a c
Ġmach en
ĠF rau
g er
Ġo ther
an ge
ĠK omm
Ġet was
Ġ Ã
Ġc l
an ce
Ġin to
g t
y s
Ġw Ã¤
Ġc ome
Ġg anz
o ld
Ġv iel
ĠB ut
p l
it er
op le
Ġs ehr
on d
ir st
hn en
ier en
ou ght
ĠA ll
h en
ĠN o
w er
Ġein er
onn a
ro ÃŁ
ĠG r
a v
Ġag ain
ĠS he
Ġall e
Ã¤ nd
an ke
Ġw ay
Ġg ibt
s h
ĠM us
Ġm Ã¼s
u ll
an s
ĠT e
Ġw o
e ct
er en
is sen
Ġh ow
Ġwh ere
ĠZe it
Ġhe l
Ġi hm
ĠP ro
ou nt
b le
b t
Ġpe ople
ĠkÃ¶n nen
am p
Ġv ie
Ġm ake
ĠN e
Ġw Ã¼r
Ġg onna
Ġwor k
i ff
a ve
Ġs u
Ġbe f
ah ren
Ġge f
ar k
? "
Ġc all
m y
b st
Ġb is
Ġdo es
Ġh and
g el
Ġwe ll
Ġd ay
ĠI st
un gen
d o
Ġs omet
Ġl os
ar y
Ġhat te
Ġw ur
Ġf irst
ĠK ind
Ġge w
oo l
a ff
ĠThe y
Ġt ake
ĠM en
Ġ 3
l and
l es
ag t
o ck
at her
k ommen
Ġt ell
ĠY eah
ĠM an
Ġp r
res s
st er
Ġe uch
Ġg lau
Ġp art
Ġs ehen
is chen
g es
Ġa fter
Ġsag en
o kay
he it
Ġb rau
m ent
l ing
or gen
o ve
Ġne ed
lle icht
k en
us s
i al
t y
u p
ĠLe ben
ter n
a ir
w n
Ġd urch
p h
Ġzur Ã¼ck
Ġp re
Ġs c
ĠD ann
sel f
Ġth r
el y
ĠT hat
ĠI hnen
oh l
m an
Ã¤ r
gen d
Ġc ar
Ġon ly
te st
ĠHe y
g et
ĠB l
em ber
be it
at h
am m
Ġ our
Ġt un
Ã¤ n
Ġbe g
ĠmÃ¼s sen
Ġdie s
ĠD e
ad y
ĠAu f
Ã¼ n
ĠF l
at ch
ab y
o in
ach en
ab le
Ġy e
ou se
Ġg ehen
n er
Ġl et
pp en
le ich
c c
i x
Ġsh ould
Ġever y
Ġz we
Ġo b
Ġun ter
wh ere
a ft
or y
icht ig
ĠO r
FAT HER
Ġw on
Ġd am
Ġa d
Ġm uch
al ten
Ġm ade
ĠG ut
ir l
k lich
Ġh Ã¤t
or s
ing en
al s
ĠW er
Ã¶r t
Ġsch Ã¶n
ĠN icht
ĠN a
ĠWar um
Ġdid n
on t
f ach
on s
at ed
Ġs uch
Ġkomm t
Ġp ass
ĠT r
ĠL ie
er st
Ġthe se
ĠM ein
au t
Ġd is
o ff
Ġth an
f er
Ġg roÃŁ
th ere
Ġbe st
ĠMus ik
Ġf l
ic t
u ld
o c
Ġs m
Ġwe g
d u
p en
Ġb itte
ĠTh is
Ġb ig
Ġsomet hing
au f
ĠFre und
el d
ĠwÃ¼r de
th ing
Ġg em
ĠD anke
Ġd eine
Ġm Ã¶
z u
or m
am a
Ġp er
ĠH ier
ch te
Ġt ra
Ġdie se
Ġl ong
ĠK l
l t
isch e
! "
Ġre ally
Ġg u
Ġj ed
am il
Ġin s
d ay
ion s
ĠW ell
Ġa way
ut ter
ĠH a
Ġg er
ann a
' d
d y
Ġver l
ÃŁ en
Ġg ar
Ġbef ore
f l
Ġw ent
s s
an gen
Ã¤ ch
Ġwur de
Ġbe cause
w ard
d a
g r
he d
od y
Ġein fach
ĠJ o
p r
ĠO kay
Ġhe ute
ĠT ag
r ight
Ġges ch
Ġg irl
Ġt alk
o ot
Ġme an
re d
ig h
Ġb ed
Ġs el
ig n
ĠG ott
ist er
Ġr un
Ġre m
Ġo ld
Ġwer de
Ġs on
ĠAl so
i ver
Ġse c
ist en
Ġ end
Ġg l
at en
hn e
ĠS te
E N
Ġwoll te
ĠW ill
i ous
t ing
ĠP r
ĠA b
z t
iÃŁ t
ak es
rie d
Ġst ill
ĠTh ere
ĠP l
os s
an c
Ġa pp
l er
a il
el n
t s
p s
Ġc ame
und en
ĠS h
eh men
all o
r u
Ġb it
P AR
f ul
l ook
b ar
ĠHer r
Ġa ct
Ġb le
Ġdo ing
Ġb es
m m
ww w
ak ing
ke it
al d
Ġsp e
ĠkÃ¶n n
Ġne ver
Ġas k
Ġth ought
m p
at t
Ġk enn
ĠV ater
Ã¼ hr
Ã¶ ren
Ġh ome
Ġre p
Ġhe ad
x t
a ct
Ġth ree
Ġ20 1
Ġwe iter
ĠSch l
at z
ung s
Ġkomm en
w ar
Ġm ay
Ġo kay
ein g
ĠM it
Ġt urn
Ġw r
Ã¤ ng
ĠJ etzt
Ġzwe i
Ġi hre
w ell
Ġwar en
Ġi r
Ġm acht
Ã¤ d
Ġth ose
id en
Ġges agt
Ġwir klich
o k
Ġthr ough
ig er
c l
st ell
imm t
u er
Ã¤ hl
Ġman y
sch e
Ġne w
v ed
Ġwoll en
ĠM e
ĠwÃ¤ re
ĠE nt
Ġb ook
Ġl ang
Ġ el
Ġst art
ĠG es
Ġth ings
em and
Ġth ing
Ġs it
A N
Ġb el
Ġcom p
Ġr aus
Ġe ven
Ġw anna
ĠI hre
Ġm ust
eh t
Ġg leich
Ã¼ t
v ing
Ġ 4
ĠV or
Ġdam it
ĠV ie
ĠM a
ent s
Ġcon t
be i
Ġk e
ĠD o
Ġkann st
et e
Ġh ouse
Ġw issen
ĠG l
d as
e k
ĠY es
Ġ 5
Ġan other
Ã¤ hr
u f
en s
ah l
at es
ĠA us
Ġver s
ot h
Ġcall ed
b l
Ġc r
c an
am men
ess er
n ell
ĠMen schen
o ver
Ġe at
g st
Ġf ound
it ion
ĠM utter
le ase
Ġg reat
Ġhel p
Ġwe il
ul t
Ġst r
Ġl ast
ĠG en
Ġch ild
a w
a it
Ġs eine
b ut
om ent
Ġc omm
T he
Ġg ive
Ġs er
ie d
ĠH allo
ĠW elt
ĠH ow
Ġbr ing
Ġl au
ĠE ine
Ġm ov
Ġmein en
lau gh
d ie
Ġdon e
ben d
Ġbo y
o y
Ġb u
h ere
c ome
ĠI s
ig t
Ġwill st
lich e
Ġkl ein
Ġha ppen
ĠLe ute
h a
ĠH aus
Ġm in
ach te
ĠD r
i o
ĠG esch
Ġm ight
al e
Ġw ohl
us ammen
ĠK Ã¶n
l et
am en
um p
Ġit s
f all
ĠN ach
Ġsh ow
y e
in s
Ġn ight
sch aft
Ġg el
ĠD ad
m hm
ĠG eld
Ġdie ser
Ġt ry
ĠSch e
u ally
i end
um my
Ġ2 00
ĠI m
v es
Ġn ame
ĠA mer
ĠhÃ¤t te
Ġd iff
n ow
Ġle id
ic al
Ġfr iend
Ġh al
Ġs l
m a
Ġl ot
ĠSch w
ou th
Ġb re
Ġar ound
k l
ĠG er
at s
ĠK r
Ġm ost
Ġo wn
Ġgem acht
ach e
Ġk ind
Ġc are
ĠB itte
p e
i ke
Ã¼ hl
ĠM al
Ġre in
Ġ Q
ĠKind er
Ġand eren
d s
. ]
Ġre c
Ġre t
Ġsch l
Ġj emand
Ġb aby
one y
Ġver st
im es
Ġw en
ers on
op e
ĠH ast
el s
Ġuns ere
I S
Ġis n
in a
ĠE l
Ġer st
Ġw ater
an e
f Ã¼r
Ġus ed
et er
it s
Ġc ount
ĠH and
Ġb eing
Ġf un
Ġbe h
Ġsich er
Ġglau be
ah re
ĠO n
Ġvie le
Ġuns er
ĠI f
it ed
ur t
Ġgen au
n a
Ġ em
ĠM eine
" .
ĠF e
Ġz usammen
ĠB er
h uh
m s
Ġye ars
b ody
Ġpl ace
Ġbet ter
Ġf re
Ġm ag
ĠA s
ĠJ un
Ġo pen
ent lich
or en
it z
Ġmus st
re chen
ĠL os
ut en
ĠAll es
sch uld
at ter
ĠM iss
Ġm other
Ġt re
Ġst and
ĠE ng
z Ã¤hl
uch t
ĠÃ ľ
u ft
ĠA t
e ver
l ed
E X
ĠA ch
und er
ct ion
Ġsel bst
Ã¶ t
id ent
way s
Ġf in
Ġkein en
Ġp a
ie f
Ġl assen
ĠL and
Ġg ern
v or
Ġfe el
es en
im mer
Ġger ade
in ce
Ġp ol
ĠC hr
i ent
e w
Ġir gend
ĠVie lleicht
or ry
ĠN acht
Ġwh ile
te l
Ġges ehen
g s
n is
h st
ll t
and er
Ġv om
Ġim p
Ġli fe
Ġt ut
Ġc our
Ġm en
Ġke ep
oll e
ĠA ut
Ġf ar
re t
Ġe ar
f ort
Ġs ure
Ã¤ s
o le
Ġsp r
Ġand ere
Ġf our
op f
Ġb esser
s am
Ġwh y
i pp
Ġs ame
e e
ĠA m
n ung
ation s
A D
Ġel se
Ġf all
EX P
d em
Ġn ein
ĠD en
ĠD on
t r
Ġsu pp
ĠP ol
Ġlook s
ĠM in
ck en
Ġer m
ib le
Ġe le
Ġvie lleicht
ĠM Ã¤d
th is
ĠP ap
Ġd rau
Ġge b
Ġto t
iel en
Ġsag te
Ġl ove
00 0
Ġund er
laugh s
Ġl ange
Ġany thing
i ze
Ġver sch
ĠmÃ¶ chte
Ġsch ool
or k
Ġdoes n
Ġ1 8
ĠÃ Ħ
Ġse em
or th
ĠGe f
Ġro om
ĠU m
ap t
Ġsch nell
Ġd re
ĠD ar
Ġgeh Ã¶rt
B R
Ġsa w
Ġsch w
are d
b o
Ġge st
Ġge gen
au m
um ber
g lich
Ġy eah
id er
Ġsag t
v on
Ġu h
o pp
Ġn ice
Ġmein er
Ġne xt
Ġre g
z ie
r ow
f orm
F F
the y
Ġm on
Ġs ing
it en
Ġle ft
ĠM on
ĠS ir
ah n
ĠM ama
Ġb us
Ġto ld
ĠF Ã¼r
ch er
b all
ĠAl s
der n
Ġver d
ĠkÃ¶nn te
ĠN ur
and en
p ut
ow er
et s
as st
at Ã¼r
ou n
i ben
Ġo hne
ation al
Ġk onn
ĠNe w
ff en
Ġz e
ic an
Ġal ways
c ed
Ġ 6
ĠJo hn
ĠI nd
re ich
l os
ĠS on
ĠSche iÃŁ
Ġc le
ĠA bend
ĠTh en
s he
ĠN ot
atÃ¼r lich
ĠC ar
ĠAr beit
Ġan s
u ÃŁ
Ã ©
ĠF or
Ġf ast
Ġch e
Ġmein em
t il
" ,
der s
Ġ #
h al
ĠWh en
le ep
c es
Ġin ter
k omm
lo ck
u ff
Ġc ol
Ġw atch
ad t
¿ ½
ï ¿½
as se
Ġf ather
ge ben
ĠL ass
Ġdie sen
t on
un k
Ġw om
Ġz ie
Ġsoll te
ad en
ge st
ĠH ause
Ġtoo k
Ġg re
au pt
Ġkl ar
Ġ _
omm y
ĠMr s
ĠA h
u pp
au fen
ĠÃľ ber
v el
Ġu se
Ġex p
ĠMÃ¤d chen
an ze
g ar
Ġh old
Ġre ad
ĠP ar
ro ss
ĠF amil
ow s
et h
ie t
Ġp oin
a z
g o
und e
ra w
Ġs ur
Ġin t
Ġh ol
Ġdies em
il m
ÃŁ e
n y
ĠN ow
Ġg one
u le
Ġt w
ĠP h
ĠE nd
i ere
i ft
ble m
Ġk rie
Ġdo or
t a
ing e
Ġre al
il y
ĠJ ahr
ll en
Ġl etz
ĠH ar
Ġp h
is hed
lich en
o f
ÃŁ er
Ġd rei
Ġa cc
ge b
ĠweiÃŁ t
Ġd ort
ĠAn gst
Ġth ough
he s
ir d
Ġd achte
Ġpass iert
as ed
Ġw alk
T E
ou p
Ġne ar
ĠWh y
ĠUn ter
Ġd ire
ĠAu gen
il en
b y
n et
uch en
) ,
Ġbo x
ĠJ ack
ĠK ann
ĠWas ser
ub l
orn ing
Ġn umber
) .
ĠT H
Ġen ough
ĠE x
g esch
Ġm oney
Ġcom ing
ĠM y
Ġihn en
ct or
Ġw ait
Ġh ard
Ġat t
ĠK eine
ĠChr ist
am es
Ġs w
ĠWe g
a pp
Ġm ar
ĠZ u
Ġp res
Ġdies es
Ġsay s
ĠC l
Ġhe ar
Ġs ide
as h
Ġe yes
Ġ 7
Ġein mal
Ġer zÃ¤hl
Ġre den
Ġgo es
Ġa c
r Ã¼ck
au en
Ġo h
Ã¼ nd
g al
ĠJ ahre
wh o
get her
ĠG eh
er ent
v ent
Ġwir st
Ġask ed
um mer
Ġpa ar
Ġun til
n ess
Ġbel ie
Ġsie ht
Ġr ichtig
ĠM Ã¤n
Ġf ace
ig keit
ck t
ĠH Ã¶r
in es
i fe
Ġ 8
Ġre s
Ġs k
ire d
ĠB ar
Ġ20 2
Ġne u
c le
ĠK ar
Ġhe iÃŁt
b ab
Ġk ill
w ie
ĠQ u
Ġre cht
um m
Ġste ht
Ġwor ld
M A
ick s
Ġd ist
Ġp lease
we en
enn en
Ã¤ um
Ġre d
ed er
Ã¼ h
sch l
Ġ â
Ġsm all
Ġb all
te m
Ġer f
Ġmach st
Ġse en
Ġdein en
ur ing
Ġqu ite
Ġdar f
Ġf ive
Ġrem ember
Ġein es
Ã¤ ter
p iel
ĠB es
il t
or ge
Ġyou ng
Ġp ie
Ġm orning
Ġm il
ĠGl Ã¼ck
Ġdiff erent
ure s
ĠM orgen
Ġw ahr
er r
ĠJ ahren
ĠA d
Ġb ere
m and
ich te
Ġknow n
Ġso l
Ġm ind
Ġda von
Ġlook ing
Ã¤ us
ĠW or
ank en
Ġsec ond
ĠE ur
Ġcour se
Ġge he
ert ig
Ġye ar
us h
ten d
Ġr ound
ĠM ay
ge f
ze it
Ġw el
s on
Ġfind en
Ġl ight
ĠT Ã¼r
Ġy es
Ġm orgen
Ġdo g
z z
Ġfe w
ĠM ach
Ġto gether
u de
oll ow
h ow
Ġf amil
Ã¤ lt
Ġf ell
ges sen
ic s
w ischen
ĠB o
ĠC ome
Ġnot hing
w a
ĠS c
d on
Ġc o
g ed
Ġb esch
Ġse i
Ġw ind
ur z
Ġ1 0
Ġhand s
wh y
ul ar
Ġb ro
Ġs ound
ol og
Ġwe it
Ġb oth
as on
is en
Ġn un
Ġe ach
ap s
Ġsoll en
em ent
Ġst ay
ĠCh ar
j ect
it ten
Ġse it
ĠGe b
ĠEnt schuld
Ġbet ween
at ing
Ġwe ek
st r
ig ung
Ġ :
Ġon ce
Ġv oll
ap e
Ġge ben
Ġchild ren
Ġg anze
o ber
Ġall ein
Ġhe ard
Ġsh all
E L
Ġs ix
Ġlie be
Ġble iben
Ġhel fen
ĠT o
Ġ19 9
in ter
ĠR u
Ġso on
Ġup on
Ã¤ h
Ġch ar
y p
Ġk am
Ġy et
n ein
Ġf ire
ĠLie be
ĠL et
at ur
ĠM oment
Ġar beit
Ġs leep
Ġp o
ĠSt adt
rie s
m lich
ĠH il
r icht
Ġhim self
Ġget ting
c y
p ro
Ġcon s
Ġkonn te
ĠI r
p f
a f
Ġst ud
au l
Ġb ad
ĠS ag
in nen
Ġhal f
ĠC an
ing er
Ġl ar
ann t
Ġex c
s ide
h alten
Ġbe c
Ġre st
i um
O N
ig entlich
ĠG od
Ġsch le
Ġm er
ĠKÃ¶n ig
Ġwith out
hal b
ou ch
ĠB ett
Ġlook ed
ĠK opf
Ġda fÃ¼r
ant s
ĠSo hn
Ġde ar
Ġein z
ĠO der
ĠB en
Ġde c
Ġp ar
ĠWie so
Ġwar um
Ġp erson
Ġs y
a x
Ġ 9
Ġto day
Ġf lo
Ã¤ llt
f r
ĠFamil ie
ĠDie se
Ġd ri
inn er
Ġtra in
m us
Ġb en
Ġge k
S IS
hn ung
ne e
Ġle ave
d id
ĠN un
etz en
ĠTh ank
ĠF all
Ġp ict
Ġha ft
Ġf oot
ter s
Ġwant ed
f te
ick en
Ġhaft a
ĠSp iel
Ġst ar
ill ion
pp y
Ġver ste
g an
v is
iver s
n ot
Ã¤ ft
Ġha ving
m ost
Ġhappen ed
ĠBr u
ĠJ ust
Ġf est
Ġbe im
ĠSch we
ĠV ers
aff en
Y ou
Ġda bei
ĠUn ited
u al
ge w
apt ain
ich er
ak en
ing t
Ġl ater
Ġp ap
ill y
m in
g uck
Ġhat ten
an y
Ġbis schen
Ġf ollow
Ġsein en
Ġs ort
ĠAmer ican
ar n
ĠJun ge
Ġre l
G MA
os ed
Ġh igh
g y
ĠPap a
ĠEnd e
ĠFrau en
o on
Ġa ir
Ġkn ew
am er
ĠP e
ĠD och
lo se
p art
as ch
Ġi de
ĠOr d
ĠT od
ĠB ob
Ġto p
E S
Ġan im
Ġd au
Ġal ong
Ġb er
ut h
Ġbrau chen
ĠGut en
er al
ĠMÃ¤n ner
Ġpre t
Ġc ity
Ġs orry
Ġst ory
ĠT om
Ġv o
ĠK rie
Ġh och
Ġg ab
ĠL u
Ġf ro
Ġm iss
Ġw us
Ġn ehmen
Ġl and
ĠT ut
Ġhe art
Ġas s
Ġm atter
c i
ĠA lle
ĠSch Ã¶n
Ġer w
ro p
ĠH at
Ġha ven
r at
ĠM ir
ĠFr ank
ĠO k
Ġkenn en
et en
ĠAr t
Ġgen ug
Ġ1 5
et te
Ġf ertig
Ġson st
g ie
re am
on y
Ġs we
ert ain
Ġhab t
oll en
Ġagain st
Ġle ben
Ġtalk ing
it al
ĠWe il
ast er
Ġst op
m ann
Ġli ve
ĠScheiÃŁ e
ĠJ u
om as
ĠC he
ĠG roÃŁ
la fen
st em
i am
Ġg ave
Ġse id
ce pt
v ol
ĠOrd nung
re ady
Ġf ahren
es e
Ġs et
ct ed
ent ly
ink en
c ial
eh n
ĠM m
un t
e y
O U
Ġp op
Ġhin ter
ĠB ist
Ġday s
Ġh or
Ã¼n f
ĠH el
ein en
Ġsoll ten
Ġrun ter
ĠM ich
Ġver k
se e
Ġs ub
Ġin cl
ot en
Ġsch re
ith er
Ġh our
ra ft
ĠHer z
erst and
f or
Ã¤ mp
in ess
ie ld
re w
ein t
ust r
rei ben
ver y
ĠE d
Ġm aking
Ġd ad
Ġre ady
ind en
ĠHa ben
ĠS am
ull y
ra b
Ġc ent
g ehen
u ary
Ġpret ty
is on
Ġbo ys
Ġdie d
Ġwon der
le f
l ess
ag es
le gen
O h
ĠH is
Ġre ach
Ġwe gen
Ġfamil y
Ġevery thing
Ġb ir
Ġm oment
Ġfor m
ar m
Ġe ben
Ã¼ b
ch ten
Ġwen ig
Ġdis c
Ġbre ak
f ess
br acht
ĠSt r
amm t
Ġjed en
Ġs ah
ĠSt ra
Ġt ri
Ġkl eine
ĠBe i
Ġans wer
Ġo ben
Ġt able
Ġ19 8
as k
ĠAut o
ward s
Ġad d
ĠWe iÃŁt
Ġe igen
Ã¶ ff
ere st
ĠWh o
ĠZ we
enn t
ĠV on
Ġstart ed
ĠD es
Ġen g
Ġes sen
b ur
a ÃŁ
Ġsp rechen
-- --
ĠU hr
ell e
Ġkomm e
Ġsein er
TE A
ag er
Ġn Ã¤ch
ĠDad dy
Ġret urn
Ġlie ber
Ġwas n
ĠH ol
Ġso fort
ain t
Ġda zu
Ġp ick
Ġbl ack
Ġlau gh
u es
ĠB est
ĠB aby
ĠP er
Ġsay ing
kt ion
I t
ut z
Ġl ov
Ġg uck
Ġd el
Ġbelie ve
i ven
Ġand er
ĠP art
Ġsch wer
ic a
Ġw he
Ġto ll
Ġwho le
Ġdr ink
Ġk r
ĠN ie
ent y
ĠO ne
le y
Ġe igentlich
ĠTH E
Ġno ise
is st
g angen
Ġh und
ĠWh ere
Ġb orn
Ġbr ingen
ĠB is
Ġmach e
ot s
Ġf ood
ang er
Ġihr en
ut sch
ĠD ank
ĠM ummy
m mer
ar a
Ġh Ã¶ren
Ġto wn
ĠGe w
Ġs ince
Ġn or
ĠSe e
k er
ĠH ab
iv es
ĠSp r
ĠH alt
l in
Ġbec ame
Ġdrau f
ĠK ein
Ġk id
ĠM ad
ĠS y
Ġth ank
le x
L A
o gen
Ġh Ã¶r
Ġs ign
k el
Ġre sp
ĠWill st
ra in
bab ly
Ġste hen
Ġdein em
ĠY ork
un ter
1 9
Ġc ut
at or
hn t
Ġdein er
n ing
Ġdo ll
ï¿½ ï¿½
Ġwh ite
Ã¶ s
Ġb ald
Ġj e
Ġg ed
ĠBru der
Ġcount ry
ĠRe g
Ġdr in
Ġs ir
ĠB Ã¼
Ġ1 2
b ed
ĠN amen
G R
ĠK n
Ġbeg an
is es
ĠS ind
ĠEng l
ĠSt ates
ĠS u
Ġact ually
Ġver gessen
Ġg ing
Ġt en
É Ļ
Â ł
Ġse he
ĠW est
c ess
Ġtry ing
Ġm et
y ing
Ġch air
g eh
ll ig
Ġg ame
Ġ CHI
ĠR ed
ĠE uch
Ġme et
is ed
ĠgroÃŁ e
Ġin d
he im
Ġhe iÃŁ
Ġha ir
w ort
Ġcom es
ill e
Ġwor d
| |
i h
Ġte am
ĠI de
Ġbr other
Ġs ong
or row
Ġ eh
Ġ19 7
Ġfe et
Ġflo or
Ġlie gt
ut ion
ach ten
ĠD am
oc al
Ġapp e
Ġs ent
sh ip
ĠA re
lau b
Ġpoin t
Ġsp Ã¤ter
rau m
it ies
ch mal
Ġf lie
Ġqu est
Ġget an
Ġint erest
ĠG ar
ĠH o
Ã¤s st
A nd
Ġk urz
Ġwur den
ver s
Ġp oss
Ġda ÃŁ
Ġal most
ĠMen sch
Ġl Ã¤
Ġw ichtig
au ght
Ġer sch
st Ã¤nd
au r
Ġg ute
ne y
BR O
Ġund erstand
ĠPro blem
Ġwould n
ĠM Ã¶
o es
Ġdr an
ĠK ing
Ġver b
Ġar t
id es
uh ig
ĠJ e
ĠM ag
ĠA uch
ĠG ood
Ġsp ielen
o ke
an a
Ġw under
ĠFreund e
g a
ĠF ilm
Ġe cht
ĠG ib
Ġbrau che
ĠR om
Ġc ur
Ġf ur
Ã¤ l
Ġh m
Ġpro du
Ġli k
ĠHil fe
Ġden ke
Ġs ter
we g
Ġwr ong
at ive
ĠM om
in z
on es
I T
Ġal ready
Ġwom an
Ġt imes
Ġbe k
Ġh off
Ġet wa
ĠH i
Ġal t
Ġj ob
us e
ich en
ĠJ an
Ġwar st
Ġe as
Ġv ier
ent r
Ġbu ild
ll o
ahl en
ĠK at
am ed
Ġfriend s
ĠL ook
Ġf act
Ġs qu
â Į
Ġle ad
U N
Ġd uring
d r
ĠTh omas
w ir
Ġbed e
rÃ¼ck t
Ġbeh ind
Ġplay ed
Ġp ull
Ġbl ue
ch es
Ġplay ing
Ġ X
U R
or den
Ġbe ide
ĠZ immer
Ġp ay
Ġex pl
Ġl ost
lie d
ĠR ight
ĠC om
Ġfor t
Ġ3 0
w ill
we gen
ck s
ĠD ein
Ġr an
Ġmin ute
Ġwus ste
im p
Ġ1 7
Ġdar an
Ġe v
ze ug
Ġjed er
ou d
un e
ĠG o
Ġh alten
en ce
IN G
Ġof t
ard s
le id
Ġr u
all en
ĠO K
ol k
och ter
Ġc up
ĠN och
Ġc lose
ern en
ĠP at
Ġfr ont
a i
Ġn Ã¤
iel t
ĠW el
Ġer sten
Ġ ~
Ġganz en
Ġf al
ĠK on
Ġne ue
Ġv is
Ġide a
re ad
es sen
Ġpict ure
Ġf ull
ĠA fter
f in
Ġab le
ĠS ehr
Ġ ed
g l
Ġpap er
g ood
Ġbe z
Ġsein em
is k
m it
g n
ch st
h ol
Ġcont in
icht en
au er
s y
ck e
Ġgirl s
Ġand ers
ĠDie s
Ġm ove
d i
ĠD id
Ġs n
Ġver m
ĠM il
Ġhund red
t re
f ri
er v
Ġbr ought
id ed
f Ã¼hr
j ust
eh l
sch ein
Ġein s
ĠS oll
Ġm ember
ell ow
Ġor der
air s
n ehmen
Ġgern e
Ġgu ess
Ġturn ed
Ġs at
Ġm a
ĠG anz
ĠGesch ichte
m ore
n st
Ã ł
h aupt
Ġp le
oll y
ĠS el
Ġm ed
Ġwar ten
ĠwÃ¤ r
ut es
L O
ĠC ol
ĠGr und
Ġpro bably
ak t
Ġm akes
Ġme ans
Ġbrau cht
Ġha ppy
Ġgre en
h y
Ġh Ã¶
g ot
ĠRu he
ĠH und
pp ed
ar ch
Ġseem ed
Ġn atÃ¼rlich
itt ing
Ġgot ta
Ġ19 6
ein ander
er ed
Ġc ertain
en e
Ġz wischen
Ġsag e
mal s
Ġd Ã¼r
Ġgef unden
Ġof ten
ĠT ochter
st and
ot z
Ġqu ick
A L
ap an
Ġvor bei
Ġmus ic
kt or
Ġde ad
Ġst uff
te il
ur s
ĠB uch
Ġh um
ĠH Ã¶
sp r
Ġpart y
Ġpr om
Ġnie mand
Ġpol it
ĠC on
Ġgr Ã¶
ĠL au
ĠLe o
Ġklein en
ĠS ome
os ition
b s
ĠH och
ĠG et
Ġso gar
ĠVer d
Ġcol or
Ġmon th
Ġoff ic
Ġd ro
Ġson dern
stell en
ig es
Ġ Â
if ic
est er
Ġf ine
ĠN atÃ¼rlich
Ã¼ck lich
Ġimp ort
Ġm outh
d le
ri v
ĠU r
isch er
Ġdar Ã¼ber
ĠS ache
W hat
ĠRe cht
ĠFe uer
if ul
iz ed
Ġd raw
ĠF ahr
OT HER
Ġc at
ĠT re
h aps
ĠPh il
ure d
ĠM acht
Ġdar auf
ĠUn s
im men
ac es
it Ã¤t
ou ble
ain s
Ġh ope
ĠD inge
ĠWar te
we ise
ĠGen au
ra ct
ain ed
ro om
ist s
zie hen
he ad
Ġverl oren
Ġde ath
Ġf Ã¼hr
Ġcom pl
Ġout side
ĠG ute
Ġbe vor
ĠC aptain
ĠB le
rie ben
he y
h in
be cause
W e
Ġmov ie
Ġf Ã¼nf
Ġd anke
Ġh uh
Ġl isten
ĠG ed
Ġt aken
Ġr um
ĠEs sen
M CH
Ġpo or
Ġa ren
Ġvo ice
ch n
ver n
ĠKomm t
ĠMin uten
Ġbe ar
Ġf ight
ĠT age
ĠS k
ĠW ort
Ġf ore
W ell
l ike
ri ff
Ġglau ben
Ġab s
ĠNicht s
Ġb ott
ĠD or
Ġe ff
ut t
Ġ1 6
Ġs un
h i
Ġst re
ry ing
Ġt er
Ġon es
og ra
ĠAn t
Ġc ook
ĠW ahr
Ġn eh
b and
Ġar m
Ġf Ã¼hl
ĠK er
Ġin c
m achen
Ġwant s
f ol
ĠSch on
ĠS Ã¼
Ġversch w
Ġsh ort
Ġsp Ã¤t
Ġc over
ut et
Ġer inn
ĠP fer
Ġst immt
ĠW issen
ur y
ĠSch atz
Ġcould n
ĠS icher
ir at
N D
Ġwor ds
ĠGer man
itte l
ĠD an
Ġyour self
amp f
Ġpie ce
fall en
Ã¼ her
Ġper fe
lef on
ĠE n
o e
BR OTHER
z ug
Ġg ra
ĠN ame
un ch
Ġbe kommen
ell en
Ġk om
ĠP re
f ully
ie den
R E
ĠW ith
Ġschle cht
ĠSch ule
en de
s ehen
au ber
Ġl ass
Ġser v
st ag
ĠD re
k a
et ter
ĠEl tern
Ġsie hst
Ġmus ste
Ġle arn
ĠJ ungs
ĠG old
ch s
ĠGes icht
ĠP f
th ank
Ġa w
Ġf air
ĠD eine
aut iful
Ġgew esen
Ġge kommen
a ber
ĠH Ã¤nd
t rau
ĠwÃ¼r den
N AN
Ġlar ge
h aft
Ġl ine
sel ves
k un
at ely
ĠO b
ick t
ĠM ed
art et
au ft
Ġun ten
ĠDas s
ĠMar k
Ġfind e
Ġarbeit en
Ġspe ak
ĠJ ul
ĠP eter
th ers
ern t
och e
ĠD enn
Ġden ken
Ġverste he
Ġe ight
Ġkenn e
rie f
ĠJ apan
Ġt aking
Ġd ress
Ġall em
Ġmy self
Ġf elt
sch t
Ġl ess
y n
ĠR ep
Ġw ife
ĠkÃ¶nn ten
ĠSe ite
Ġte le
ĠgroÃŁ en
Ġr ather
ent ion
ĠM ot
ien ce
Ġster ben
ĠL uft
ver al
ĠJo e
ĠIde e
Ġbus iness
ĠHe ute
Ġt ouch
k st
Ġsu per
Ġro ad
Ġmay be
g em
Ġins ide
ĠSie h
ĠÃ¼ber haupt
is m
Ġver w
ĠPl atz
s k
ĠTe il
Ġl a
Ġmin utes
Ġm id
Ġbe iden
M ummy
ĠY our
Ġihr er
ĠAr sch
Ġm ark
b ye
ĠMa j
id ge
Ġt ill
n ah
Ġhor se
Ġgr and
ĠLie b
ĠUn ivers
ian s
r ib
ĠMa x
T h
ĠB au
ĠG eht
Ġbere it
Ġb lo
Ã¤ ren
D S
Ġt ree
ĠM c
Ġher aus
Ã¤ng er
Ġm ine
Ġinter ess
Ġp ower
ĠG u
Ġh ung
te en
Ġr uhig
ĠS al
ĠDie ser
upp e
c o
Ġh ot
Ġden en
it ch
ĠM art
ĠK ommen
B ut
Ġre f
Ġst ate
Ġt Ã¶
Ġch ang
ĠBr it
ur m
ĠBe f
Ġb ag
ĠSchwe ster
ren ch
Ġg iven
or g
Ġsh ip
Ġe gal
gel n
Ġp ubl
sch w
t et
z lich
ĠWir klich
Ġc old
la im
Ġb ody
Ġ1 4
ĠPol ize
ĠK ir
ĠGr and
Ġpres ent
Ġver rÃ¼ckt
in c
Ġincl ud
ĠP res
v ie
Ġc ir
ĠLeben s
Ġan ge
I E
b orn
ĠP aul
Ġa ge
v o
Ġall en
ol f
Ġte ach
Ġin st
ke y
l assen
Ġl Ã¤sst
is piel
Ġp at
Ġc ase
Ġof fen
Ġ MOT
Y es
ĠEin en
ĠWo chen
Ġo cc
Ġbest immt
h aus
Ġbir th
Ġgl Ã¼cklich
Ġl ady
ier te
ĠU S
ĠSch iff
Ġm o
ĠG re
Ġletz ten
r ic
I I
Ġc ool
v id
Ġan t
lie ÃŁ
T ER
Ġl ate
ĠWe i
aff e
ĠPl an
Ġsch lafen
Ġer ste
Ġag o
Ġgu y
ĠhÃ¤t ten
ĠSp aÃŁ
p ar
Ġgo vern
ĠlÃ¤ uft
Ġo thers
Ġch ange
ĠZ um
Ġs ow
ĠKrie g
Ġst ick
Ġgr ound
Ġh urt
Ġl ad
Ġbe autiful
Ġdrau ÃŁen
Ġpl an
Ġn orth
Ġb ar
Ġimport ant
Ġf ree
ĠH ere
stell t
Ġp age
Ġdar k
at ure
Ġall er
Ġe ither
ĠF ot
Ġal one
Ġto ys
Ġcl ass
Ã¼ mmer
Ġander es
iv ing
Ġf rei
Ġkomm st
sh all
ĠJ ob
ious ly
S I
ĠSt Ã¼ck
ĠVer st
ĠG ehen
ĠE m
AD U
N o
Ġ1 1
in o
Ġp ast
ach sen
Ġble ibt
ĠEngl ish
Ġend lich
Ã¤ cht
ĠSt re
Ġstr ong
br ingen
ier ung
Ġwe ar
a is
Ġ19 5
ĠP ass
ĠSp e
ĠS achen
Ġse ven
Ġbo at
ĠH imm
Ġnor mal
ĠG lau
ĠR o
ent le
hr en
Ġunser er
Ġ19 4
th en
anc es
Ġc reat
ĠC ount
ĠR Ã¼ck
Ġac ross
ĠFl ug
Ġtr ue
ow ing
ĠGe orge
Ġer kl
Ġw Ã¼n
us ch
Ġverst ehen
D AD
ar beit
lich er
Ġear ly
Ġcle ar
Ġm ain
Ġa ff
ĠFr ance
ĠerzÃ¤hl t
Ġswe et
Ġin de
Ġsome one
Ġsomet imes
ĠK e
ig in
Ġrec ord
it ing
Ġfun ny
Ġze igen
Ġle g
ĠA hnung
U h
r on
Ġh ur
ĠW ind
ro chen
le ben
ond on
ĠR icht
komm t
Ã¶ l
Ġle ast
ĠEng land
ĠH en
Ġk ap
ion al
Ġle av
ĠA ug
Ġn a
Ġare a
Y eah
Ġletz te
Ġl ay
Ġse veral
Ġlie b
Ġf av
aff t
Ġj oin
ĠD em
Ġgr oup
Ġanim als
Ġs il
ĠÃ ĸ
Ġh ole
Ġwar m
ĠW oche
Ġc ap
ĠS outh
Ġ Ã¤
Ġmil k
ĠN or
Ġt rau
ĠSe it
Ġsuch en
Ġf Ã¤hr
Ã¼h le
anz en
ĠZ ug
Ġget s
er in
Ġp ur
Ġwoll ten
Ġc ried
a el
ĠK re
Ġc ra
ist ory
Ġgo ld
j e
ĠZ ie
ĠIt al
Ġtw enty
op s
Ġs ug
Ġpro p
ep t
ĠSch n
ab el
Ġbe w
Ġle icht
ur en
ĠF ar
ĠSu per
ĠN orth
Ġto m
kun ft
ĠB ed
ber t
u en
Ġ1 00
ĠmÃ¶ glich
ĠB y
Ġa f
Ġ {
Ġ1 3
Ġc amp
ĠFr age
Ġw ish
ĠL ondon
am s
Ã¤nd ern
le gt
ĠW Ã¼r
M AR
qu e
ĠOr t
AT E
Ġer k
um b
Ġwork ing
ĠSch r
Ġs ister
Ã¼ gen
Ġfr agen
Ġh Ã¤lt
it ter
h ier
v oll
h alt
Ġb ra
ĠR uss
Ġcon f
T hat
Ġn ett
Ġverl assen
Ġf uck
ĠR ob
w ohl
ĠPr inz
Ġf ish
Ġgew orden
rie den
Ġl aw
Ġver sp
Ġquest ion
Ã¶r per
ĠS er
Ġwom en
Ã¼ ÃŁ
s c
ĠG ra
uch e
Ġst ra
Ġsag st
ĠK om
Ġ202 0
ell o
ĠBl ut
ĠIhr en
ĠDar f
ĠG em
Ġg un
ĠSt a
p a
Ġre ce
Ġd ah
Ġihre m
form ation
do es
Ġw all
R I
Ã¤ng t
ĠS w
Ġre le
Ġtr inken
Ġbu y
Ġkein er
Ġmein st
ink s
pr il
ĠL icht
as che
Ġt ried
ĠBe ispiel
ĠdÃ¼r fen
an te
h ave
Ġqu iet
k ehr
k r
j etzt
ĠF rench
L E
b um
ik an
r t
Ġcl ot
ĠSel bst
ĠF ern
oh in
de st
ĠW al
part ment
Ġcle an
b el
c il
ĠThe se
ĠSt unden
ud den
Ġh on
d ing
b re
Ġm ess
ĠM or
Ġneu en
Ġcons ider
Ġn ah
ad a
2 0
sten s
ik a
ro ll
ir t
ib st
ĠDa vid
ĠDe utsch
Ġbl ood
Ġhe ld
ĠH aupt
A S
Ġe ure
f ahren
Ġtot al
z ogen
ĠPar is
Ġ2 5
ĠP ark
Ġp ers
uh huh
M ama
ĠMar y
Ġb ur
ĠA lex
Ġhol en
ĠS m
Ġpart ic
los sen
u zz
ĠC al
ĠB et
Ġf ig
Ġso ld
m Ã¶
Ġam ong
g as
Ġher self
re st
Ġo pp
ing ing
Ġj ump
Ġse a
] ?
imm e
à ¤
P AT
Ġau ÃŁer
Ġh o
Ġl o
ĠAug ust
u k
ĠPolize i
Ġgu ys
ĠWor ld
ĠEntschuld igung
Ġro ll
u ed
ĠE very
iv ed
Ġt err
al th
ĠSe i
ir aten
ĠPart y
ĠJ ed
Ġy ellow
Ġsy stem
ic es
ound s
Ġfr Ã¼her
Ġcomp any
ĠC omm
Ġde al
ĠSch uld
Ġde p
ĠN ov
tem ber
un ge
ow ed
st ern
Ġre ason
Ġ }
Ġro ck
un kt
Ġ $
Ġexp ect
S t
Ġkill ed
Ġbring t
Ġzie mlich
Ġf ol
ĠN imm
ĠW ann
f ahr
ĠEr m
ie ÃŁ
ĠK ap
f ang
Ġv ill
ĠB all
ĠA g
Ġfin ished
H e
Ġdau gh
Ġbe come
ab b
id ing
ĠB ill
ort s
ĠL ou
Ġhoff e
Ġgl ad
h and
Ġp en
Ġc or
Ġc oll
ĠM illion
ĠO f
Ġwar te
ul ation
wh en
Ġp ack
s ie
FF FF
ous and
ĠA pp
av y
ĠM at
Ġh alt
Ġthink ing
Ġcon c
P LA
ĠTe uf
m on
Ġs en
u ation
Ã¤nd er
Ġal te
Ġe g
Ġt akes
Ġte a
Ġ5 0
Ġ \
Ġlang u
z er
Ġto y
Ġst opp
ĠD ing
ĠK Ã¼
ic ally
im a
Ġli ved
t wo
m as
ĠHar ry
ĠSch au
ĠTe lefon
Ġs end
os p
ĠM el
ĠM ist
Ã ¡
Ġd est
ĠK ont
Ġver g
Ġk Ã¤mp
il der
Ã ĥ
ve st
Ġw ood
ĠMar ch
Ġneh me
Ġal ten
l ung
Ġd inner
fri end
Ġan g
Ġli ving
ĠDam it
EN T
ĠB ro
ĠGen eral
ck er
r ig
Ġc ann
u ge
ĠgrÃ¶ ÃŁ
ir m
ĠB ild
ĠVer ze
Ġbet r
Ġk ept
ĠR est
ĠEr de
ĠBe cause
Ġc atch
ĠS an
ĠS and
Ġatt ack
ĠSch nell
Ġjemand en
Ã¤ re
Ġbede utet
ĠJun e
Ġlie ben
ra id
Ġt em
Ġpro v
Ã¼s sel
ĠR ad
Ġ19 3
t ra
Ġc H
o x
Ġor gan
Ġus ually
fall s
ĠA pril
ĠJ es
Ġbook s
inn ing
r ing
Ġ- -
Ġpro blem
ĠIn ter
ĠEin s
ĠInd ian
ro l
Ġfr ag
Ġwr ite
ĠS ep
Ġs itting
ĠKann st
olle ge
s inn
is se
Ġre icht
i or
Ġst ood
Ġrun ning
Y M
Ġi ce
h Ã¶ren
Ġme isten
ĠJan uary
ag ed
Ġad v
Ġb and
Ġth ousand
us st
ien en
o de
Ġsur pr
Ġh it
ĠW agen
Ġviel en
la f
Ġf ix
amer a
i us
ow ers
ĠF uÃŁ
ay s
ĠGe gen
Ġwind ow
Ġk aum
r ad
ĠWahr heit
eh m
Ġged acht
Ġl aut
g ang
Ġblo ÃŁ
ĠP erson
u fen
ste ad
Ġf ly
att le
vel op
at ten
ĠS orgen
Ġfoot ball
Ġch ance
am b
Ġm ot
Ġh ar
he l
ĠtÃ¶ ten
Ġb lock
ĠWei hn
Ġc orn
b ere
ĠT y
Ġtr ouble
ĠSch re
om b
Ġher um
vis ion
C DS
ĠB el
Ġh il
Ġob ject
ĠFreund in
ĠE t
Ġtr ans
ĠB ra
isch es
ĠAu ÃŁer
Ġ Ã¼
Ġr icht
f ten
pro chen
A P
Ġgeh st
ĠHimm el
Ġbe sten
Ġan f
t ed
Ġ ehr
Ġgovern ment
ĠKl ar
Ġm om
Ġn amed
Ġno se
Ã¼s s
Ġtr uck
g ing
au sen
Ġuns eren
ĠS en
LO I
ĠR ober
Ġj ung
Ġk ing
Ġbirth day
ĠD urch
Ġbes on
r ag
ill er
ĠH al
or ies
cc ess
Ġs and
enn y
Ġlet ter
pp e
ĠLe id
ĠN ational
z y
il ity
ze ich
ĠH m
YM ATE
Ġkrie gen
PLA YMATE
is ion
Ġm ount
ind e
Ġs ett
Ġdo ctor
Ġrep lied
ĠE le
ĠL ord
Ġdes c
Ġsome body
AN D
c er
Ġgest ern
Ġwer d
Ġph one
or der
. '
ĠI N
ĠM er
ĠSe k
h am
ast e
Ġp ost
V E
ĠKÃ¶n nen
Ġaf raid
Ġspe c
oll ar
Ġz war
th ough
Ġs outh
om in
Ġdar ling
Ġtre ffen
Ġanswer ed
Ã¤ gt
otz dem
Å Ĵ
Ġsoll test
Ã¶ se
ĠSp an
ĠSep tember
Ġhe ll
ĠIn tern
ĠE he
bl ick
ĠTeuf el
Ġspr icht
Ġcl im
ĠY OU
Ġc ross
ĠAr m
ĠS ar
ĠBrit ish
Ġrele ased
r as
oo se
it ze
ĠEur ope
Ã¤s ident
Ġhour s
ĠSt ud
e x
ĠH off
Ã¼ g
ĠW ow
p oin
Ġ. .
Ġs udden
al right
Ġthem selves
ĠCh ance
al ity
Ġglau b
ĠR ich
um ent
ch ter
Ġst ark
ĠS ol
Ġo per
ĠNov ember
irat et
Ġk iss
O M
lich es
Ġgef Ã¤llt
ders ehen
Ã¼ ll
Ġdaugh ter
c on
Ġz ehn
Ġp ain
e le
ist e
ĠT yp
Ġspe cial
un ny
w el
ore d
w ick
w or
ĠKer l
Ġmar ried
ĠE ure
Ġpoin ts
fess or
ĠwÃ¤ hr
ĠAl ter
Ġfr Ã¼h
op h
Ã¤ u
Ġlang sam
on nen
ĠZwe i
ĠIhr er
ĠNie mand
Ġv ar
ĠB ur
ĠÃĦ r
ll ustr
ad dy
ie ÃŁen
Ġfall en
Ġse x
Ã¼t zen
Ġchar ac
Ġf it
ĠGeb urt
ĠnÃ¤ch sten
ĠwÃ¤ ren
Ġ CH
Ġd ou
Ġwith in
ĠGef Ã¼hl
Ġgut en
Ġcl os
ĠBo den
h o
Ġclot hes
we il
eren ce
Ġklein er
ĠW under
Ġal right
ĠWie dersehen
ĠE ar
gen ommen
Ġl ock
ĠP lease
u it
Ġc ow
Ġser ies
f ord
ien st
c om
m akes
k ann
Ġv Ã¶
ĠSch ul
ĠO ct
Ġt ired
u c
ĠK la
b les
ĠK Ã¶rper
re cht
Ġk Ã¼mmer
ĠE v
Ġj u
ĠWe iÃŁ
ĠIr gend
Ġm uÃŁ
r ict
p le
ge bracht
ĠV ielen
d ann
Ġn ational
ĠwÃ¤hr end
ĠF en
oo p
ĠVer b
i ol
Ġso ft
ĠF le
st it
Ġli ves
Ġd iv
ĠJ ames
bur g
ag ue
en ed
ĠL asst
Ġh Ã¼b
Ġw ann
ĠC r
ĠV olk
te ll
Ġh us
an ch
ĠF est
ĠVerd ammt
ie b
y a
Ġseem s
F CH
Ġw ild
ĠJ im
ĠT or
Ġp ig
er ing
ĠT raum
Ã¶t et
am mer
ĠR ock
Ġn ine
as ure
aff ee
ĠW ollen
Ġr a
ĠCount y
os sen
m ay
Ġo k
ĠHer ren
ip s
ard on
ĠAn n
Ġpass ed
or ben
un ken
Ã¼ cht
L L
ĠDe c
Ġf ield
Ġh ors
schein lich
w Ã¼r
Ã¤nd ert
Ġr ain
ĠH ave
ĠK ampf
Ġknow s
ĠAr me
ĠKl ein
ĠFe br
sche id
oo ps
Ġeas y
Ġmov ed
u gen
ĠC ity
Ġper haps
Ã¤um e
S ch
Ġa h
ĠHÃ¤nd e
f ast
ĠMe er
Ġmonth s
ĠMich ael
Ġan n
Ġd et
ar r
Ġmein es
un ic
Ġde ep
z a
Ġwel che
ĠM und
l agen
pl ay
Ġp ot
Ġal bum
ĠNach richt
Ġsupp ose
Ġposs ible
ogra ph
Ġse chs
Ġwhe ther
E T
ilen ce
Ġwork ed
ĠerzÃ¤hl en
Ġstra ight
ĠStra ÃŁe
k te
il ed
Ġl ed
ĠN ummer
v in
Ġc al
sch Ã¶n
Ġgut er
Ġche ck
Ġfal sch
Ġget r
Ġe ye
g th
Ġsing le
ĠS im
im ent
Ġr iver
eh st
Ġtom orrow
ĠWo her
ĠI di
st on
ĠIm mer
Ġp ress
Ġgef allen
am ent
Ġcann ot
w Ã¤r
ou l
Ġhow ever
act ly
Ġeat ing
Ġsu ccess
ĠO ff
Ġin v
g le
Ġele ct
ĠJ er
ĠA ustr
Ġge geben
e il
Ġf le
he llo
Ġb ath
ĠP al
oo h
Ġkid s
Ġf and
Ġein ige
Ġa ut
Ġex per
im in
Ġc oup
ĠU h
Ġsch e
Ġgen er
Ġgar den
Ġkr ank
ĠSt unde
Ġor igin
Ġgef Ã¤hr
ĠOct ober
z ial
ind er
Ġcomm on
Ġge be
ah lt
ĠZu kunft
Ġl ernen
Ġdam als
Ġvers uchen
Ġdiff ic
Ġl ow
Ġl ust
Ġreach ed
laim ed
ĠDeutsch land
Ġab ove
zie h
ill s
Ãĥ ÅĴ
ĠS ehen
m ar
en den
our n
Ġwait ing
Ġdar um
Ġhier her
ĠJ eder
ĠN Ã¤
Ġfun ktion
Ġyour s
it et
Ġw eh
Ġs imp
mus ik
ĠKr anken
Ġhe iraten
ĠBl ack
ĠO hne
Ġapp ro
Ġto wards
ĠV ors
Ġst ol
Ġde velop
j oy
Ġman chmal
ier s
Ġt on
ĠG el
ĠkÃ¶n nt
Ġeinz ige
ĠH ung
ĠM o
Ġt est
ĠD ollar
ĠS orge
Ġf res
Ġz er
Ġeigen en
Ġ2 4
Ġsh ot
ĠCh amp
m itt
ĠH Ã¼
eh ler
Ġfor ward
wh ich
Ġc os
Ġsl ow
k s
l ang
Ġhus band
Ġdad dy
ĠJu ly
Ġkap utt
ĠAustr al
st airs
Ġ Ã¶ff
Ġto ward
ĠP ost
ĠR os
Ġar ms
Ġy a
ĠM ond
E D
ĠS eine
amp le
Ġe qu
ĠTag es
Ġklein es
ĠAn y
Ġno ises
Ġlot s
w ork
um en
he t
Ġd anger
Ġgr ow
Ġhum an
ĠK affee
Ġs now
ĠH ello
Ġsound s
ĠDes halb
R O
ĠSe x
Ġk aufen
Ġsh oes
ĠEr st
Ġun g
it zen
Ġd at
Ġput s
ul a
ĠL assen
is per
olog y
ĠS agen
ĠW il
ĠZ ur
Ã¤n gen
Ġsch au
Ġsit zen
Ġt ro
Ġr ad
Ġk it
Ġwoll t
Ġst at
Ġm illion
Ġsp ielt
le bt
iv il
ĠF in
Ġe st
Ġlov ely
ĠDec ember
au ch
Ġsch war
Ġlong er
sch ied
Ġde partment
Ġall eine
Ġb reat
Ġabs ol
ĠS orry
em y
ĠH all
ĠWill iam
b or
Ġput ting
ĠSo ld
Ġbrau chst
ide o
Ġwen iger
ĠB illy
Ġs ight
ĠPfer d
ĠAn gel
Ġnie mals
ment s
ĠO ber
ĠDies es
Ġgem ein
Ġsch affen
Ġ2 1
ĠE is
ĠR es
w ood
Ġt reat
igkeit en
s icht
Ġfav or
ĠGe heim
ĠB rau
m b
Ġeff ect
ĠM ommy
Ġg ro
Ġne ben
ĠÃ¼ber all
Ġreturn ed
lich keit
Ġc ry
Ġg entle
us p
ber g
Ġver lie
Ġfor got
ĠVer l
ĠHo tel
ĠT isch
ĠO l
ĠT sch
Ġsch eint
Ġb as
Ġvers ucht
ĠPro ble
ĠS ein
Ġcoup le
ĠhÃ¤t test
Ġbeg in
bo x
Ġfor mer
Ġcir c
al a
Ġquick ly
in y
ĠRober t
Ã¼r ger
vie w
Ġh Ã¶rt
it a
ĠK an
ĠOn kel
z immer
and a
Ã¤n ge
Ġb ird
Ġbo ard
Ġpol ice
er y
ĠMillion en
ĠGesch Ã¤ft
Ġsu ff
Ġbro ken
re l
Ġst ri
ĠUnivers ity
Ġc aught
ĠB us
ĠnÃ¤ mlich
ĠD ort
ie ur
le g
j or
ĠFebr uary
at ers
Ġth ird
Ġrep ort
ĠChrist mas
Ġl uck
Ġm ist
Ġh ang
Ġthr ow
ail s
Ġreg ion
sy ch
en a
m ed
k n
Ġschl imm
ro te
Ġfeel ing
ĠT ell
Ġf Ã¤llt
um e
ĠV iel
Ã¶t zlich
ĠF ein
ĠJes us
Ġes c
Ġnoch mal
ĠB and
ĠRom an
ut zen
Ġse at
Ġz erst
Ġbuild ing
Ġevery body
ĠT O
ĠF il
id s
d es
Ġm atch
Ġneed s
ĠFr agen
ĠB ank
id a
Ġr ing
Ġvis it
Ġst ation
Ġl acht
Ġeng ine
ph one
ir ty
og el
Ġtre es
ĠL ehr
ĠVer g
Ġirgend wie
Ã ľ
Ġkn ock
ri ft
Ġis land
Ġa in
Ġb lau
ann te
ĠP fl
Ġeven ing
Ġtele vision
Ġp riv
eh lt
ill a
Ġoff ice
w ith
Ġsch reiben
Ġz w
Ġpl aces
Ġdri ve
Ġs ad
a be
i ant
Ġ4 0
ĠfÃ¤hr t
f ore
ar f
Ġverst anden
Ġsug gest
Ġzie hen
Ã Ń
Ġunsere m
d om
ĠSon st
ĠMay be
ĠDo ktor
Ġnew s
ĠPr Ã¤sident
ĠFr om
A n
in en
Ġc re
Ġch urch
ac ed
Ġvill age
Ġdisc over
Ġbu ilt
Ã¼ck e
Ġpubl ic
ĠSicher heit
us ed
y our
Ġs ick
Ġm ommy
ĠAn na
ĠT er
Ġauf s
Ġvie w
ant wort
ĠAr zt
Ġn erv
Ġsch uld
c ent
Ġh Ã¤
Ġbe ste
Ġfind et
ĠWo hnung
Ġh op
Ġf ing
---- ----
un ity
ann e
GR A
y l
Ġp ark
vol ution
rei fen
ind et
Ġhin ten
ch ed
ĠB in
Ġnear ly
Ã¼hr t
Ġa head
ich e
Ã¼ ben
g u
v ocal
no ch
ĠVerze ih
Ġfro g
ĠG leich
ed dy
Ġer nst
Ġopen ed
Ġs al
Ġfor get
p re
ĠSt immt
Ġpro gr
Ã¶ p
Ġwr itten
ĠvÃ¶ llig
end et
Ġfe ar
Ġsh out
Ġn imm
Ġstand ing
Ġle bt
ag s
am i
ĠMaj est
ser v
Ġc aus
Ġgl ass
Ġstopp ed
Ġbl Ã¶
z ent
ĠB aum
Ġplay er
b es
ĠÂ ¶
Ġen joy
it ik
Ġfollow ed
Ġchang ed
ĠHe il
ĠSon ne
Ã¼n st
Ġlie gen
ri an
ĠBr own
as es
ĠÃĦ h
Ġcl ub
ĠG est
b in
ie ty
Ġton ight
A M
ĠS il
in t
st ehen
al ent
ro ffen
Ġhe y
Ġany way
Ġh ig
ĠP ort
Ġdire ct
are t
Ġju ice
Ġdec ided
Ġin stead
anc y
Ġverd ammt
Ġk ost
I n
ester day
ĠChar lie
ĠUns ere
Ġdou bt
Ġt y
ag on
ĠW ald
Ġst ir
s ay
d ent
' .
ĠF ehler
I D
s ome
au lt
Ġt ust
Ġf ill
Ġwer t
ĠL i
Ġme ant
ĠFen ster
ab t
Ġtell ing
ĠFr anc
ern e
ĠK enn
Ġde ut
un sch
Ġflie gen
Ġcr ay
ĠJ ungen
dr uck
ĠT on
Ġl ist
b ahn
ĠMart in
Ġd i
ĠHen ry
Ġc ost
Ġhung ry
Ġb ow
Ġsupp osed
C K
Ġre qu
Ġwh om
ĠT agen
L e
Ġsa il
ĠL a
Ġbro ke
as en
Ġsp l
U S
acht s
ip e
Ġsol che
ĠSie hst
Ġsh oot
ind est
Ġste llen
Ġjed e
ĠE ast
Ġem pf
um s
Ġus ing
ĠT ier
ce ed
k rie
Ġauf ge
Ġwor den
pt ion
osp ital
Ġret ten
Ġfollow ing
ci ally
am in
ĠH inter
ĠB eh
Ġwhat ever
ĠL ang
ic o
Ġcare er
Ġdis app
b are
st ein
ĠAn fang
iÃŁ en
we is
an sp
Ġlau fen
ĠA cht
Ġp osition
ĠThank s
Ġr ide
un st
Ġsoll st
Ġkenn t
ĠschÃ¶n e
Ġinde ed
Ġpartic ular
ĠM hm
ĠSch laf
Ġse ason
m other
Ġvor her
Ġp upp
no on
Ġmach te
Ġfell ow
Ġlangu age
n icht
ĠD ir
Ġb ank
Ġan ger
Ġsupp ort
Ġkit chen
Ġc oun
u he
ĠC or
Ġsp iel
Ġcar ry
ahn sinn
Ġtr agen
b ie
au st
Ã¤t z
ift y
Ġp asst
Ġpr ison
ere i
Ġs im
ĠH u
ĠSchl uss
Ġbe we
Ĥ ¬
ar en
Ġeh er
g eht
as er
ĠM ehr
Ġbreak fast
Ġadd ed
Ġver p
Ġcare ful
ĠM other
Ã¤um en
ĠPres ident
Ġex tra
ĠIhre m
h of
Ġl oc
Ġex ample
iden ce
Ġwork s
i ar
Ġh ous
ĠT u
ĠEin z
ĠProble me
Ã¤ m
Ġwor ry
reich en
Ġver trau
ell schaft
Ġpro te
Ġde cl
Ġsa ve
Ã Ħ
et y
Ġaus ge
bl ed
re g
Ġst att
Ġpie ces
look s
Ġmid dle
r agt
Ġ2 2
an ten
et ten
it es
Ġâ Ĥ¬
Ġinclud ing
ĠW ahl
u z
hol en
i as
art ig
ĠQ ue
ĠUn ser
ĠB rief
Ġst ore
Ġt u
bo ard
Ġ2 3
ĠwÃ¼rde st
Ġbott om
may be
f Ã¤
ĠHe im
Ġhe avy
Ġappe ar
ak er
Ġu r
Ġle gs
ĠÃ¼ br
itt y
Ġw rote
Ġany one
pp er
ohl en
id ay
ĠS T
Ġturn s
ĠPro fessor
m ach
Ġbeson ders
Ġn ennen
Ġhe im
os h
ĠE mp
ĠT ja
Ġn ennt
Ġf ilm
Ã¶ hn
ĠP a
Ġw in
og n
wer k
Ġmil es
ĠT ra
Ġafter noon
Ġear th
ĠD ick
Ġst ren
v olle
Ġn ich
Ġs illy
re en
Ġge gangen
im al
os it
Ġa uth
iss ion
I R
Ġp ract
us hed
, '
Ġc ake
ĠMe ister
i hen
Ã¤t ze
ĠRe ise
Ġverl ieren
Ġstr ange
isch t
ĠM ons
Ġ 0
U D
Ġm ad
ĠFr anz
Ġn in
Ġl inks
ĠHow ever
ĠM os
v ier
Ġsh ut
Ġor ange
Ġem p
w ig
Ġperfe ct
n ight
ch test
ĠHer zen
ĠL ike
Ġbre ad
ĠS a
Ã¶ st
is mus
Ã¤ch lich
m et
Ġa cht
res ent
ĠB oot
Ġbere its
Ġqu ar
stell ung
Ġweek s
Ġdes halb
ĠT wo
all e
Ġha m
is c
Ġwoll test
Ġk alt
ĠL o
ĠBle ib
ĠF irst
Ġvor stellen
Ġex cept
Ġgen eral
ĠH in
Ġex actly
ĠA k
ĠM et
Ġtr otzdem
i od
ĠMen ge
as p
ĠEur op
Ġs ummer
il es
Ġsa fe
h old
Ġgesch afft
ic ian
ack en
Ġwho se
Ġh istory
Ġsch me
ing ly
ĠBÃ¼ ro
is hing
ĠAmer ica
ut er
ĠTe am
Ġhappen s
ll a
Ġper form
ĠT em
ĠBer lin
ir n
ĠCh i
AT I
Ã¼ st
ch sel
Ġcharac ter
ĠT iere
Ġfro h
Ġb urn
ĠS omm
Ġ... "
Ġbel ong
S o
Ġsp ace
ĠMin ister
Ġzu erst
ĠBe weg
Ġm el
u ppen
ĠSch m
Ġc ast
Ġma jor
l ine
Ġv al
ĠSt imme
Ġw id
ĠZ iel
ĠnÃ¤ch ste
Ġt ape
Ġver h
ĠT ake
ĠW affen
ĠMad ame
Ġbut ter
Ġb ought
ier ten
on der
Ġsh op
Ġversch ieden
ask et
C h
ĠSt ein
e c
w ould
ĠhÃ¼b sch
Ġsp ir
rie b
Ġexc laimed
ĠF ol
Ã¤r t
Ġt ick
Ġden kst
Ġg iving
if ied
ĠK raft
ch ild
y le
ĠRep ubl
ĠF ort
Ġtr ad
Ġs etzen
ĠK leid
ĠB ig
Ġ19 2
and y
Ġ Ã¤h
Ġver he
i be
off ee
Ġdire kt
ah a
s ichtig
s it
Ġpop ulation
ĠGeburt stag
tem pt
ĠM ont
ĠEr nst
al en
Ġb ab
Ġsec ret
ress ion
Ġbr ight
ĠMan chmal
ro y
ĠAn g
e f
Ġtr uth
R A
ĠSte lle
ier ig
ĠRich ard
Ã¤ng st
ĠG reat
kt iv
Ã¶ re
ĠCar ol
Ġy esterday
ĠChe f
Ġcertain ly
Ã¼ de
Ġhold ing
und ert
ĠWill kommen
s inging
ĠO p
ar p
Ġserv ice
if orn
Ġwatch ing
w agen
Ġl Ã¤nger
Ã¶ hnt
ĠgroÃŁ er
er k
Ġent f
ĠF inger
w ich
Ġwor th
Ġfig ure
ĠF isch
Ġgesch rieben
ly mp
Ġfall s
Ġstre et
ru ct
ĠF el
Ġb ase
at o
ĠHel en
om p
Ġanim al
Ġch o
gr ound
ĠR aum
Ġc ause
ĠL ust
ĠH Ã¶ren
Ġis s
Ġbr own
schl ag
ic le
Ã¼ck en
Ġin tern
Ġge bracht
z we
ĠJ ane
w and
ĠGes etz
Ġsow ie
in os
Ġrece ived
ĠL ady
Ġr isk
ĠCh ina
Ġget Ã¶tet
Ġcent ury
b ild
Ġfar m
Ã¼ ge
wo hn
ĠSchl Ã¼ssel
ag o
ĠDor f
Ġsp o
is ing
Ġhas n
Ġl esen
un n
W hy
k i
w ow
Ġpre tend
ĠR ie
Ġ =
u el
ĠB Ã¼rger
d d
ĠA fr
Ġleid er
Ġt ief
Ġcur r
ro du
Ġse ll
ĠJ imm
ĠkÃ¤mp fen
ĠAuÃŁer dem
Ġc aptain
Ġpar ents
ph ant
Ġar ri
ĠGes chen
Ġi ll
ĠHerr n
Ġcont rol
he m
ĠSe c
ĠR at
ro gen
Ġmember s
Ġcar ried
Ġh art
Ġbe ll
ĠK ell
Ġst uck
I CH
t ime
Ġd an
ĠF orm
ĠChrist ian
ĠMe x
tr ag
Ġdist rict
w ann
re m
ĠFre i
mÃ¶ glich
Ġdiffic ult
ĠS ter
ĠO F
Ġdr Ã¼ben
ĠE uer
ĠJ emand
ĠLe uten
ĠnÃ¤ her
Ġde v
Ġar r
ater ial
ĠS omet
z us
am ous
me ister
is a
Ġex ist
ĠB ud
Ġal ter
Ġne ck
ĠMons ieur
g ive
ĠFre d
laub lich
ĠV ogel
ĠHab t
ĠS zen
Ã¶ sen
Ġn atur
Ġsit zt
Ġlust ig
Ġsome where
ĠW inter
ĠVerzeih ung
Ġp aint
ress ed
ĠS ant
Ġguck en
b uch
ĠVie le
ĠM achen
Ġcomp an
Ġn et
Ġli ft
ie le
Ġent schuld
Ġk amen
Ġag re
Ġde fin
Ġden kt
T here
Ġm ur
Ġpl Ã¶tzlich
Ġe vent
r Ã¤
Ġleav ing
ĠheiÃŁ en
AP TER
p ort
b a
Ġze ig
Ġd ig
ĠBob by
Ġer led
ĠF ro
ĠKÃ¶n n
Ġmov ing
Ġappe ared
ĠGe ist
ĠW ait
ot te
ĠW en
Ġe ast
ĠN in
llustr ation
ĠAn w
s a
Ã¶r der
Ġp assen
ab l
ĠW ein
ĠA ND
iz ation
ink t
ĠS it
c use
it el
Ġwar tet
Ġbring e
C E
ĠBr Ã¼
Ġ201 8
ad es
ĠM ac
Ġdu ck
Ġv ol
ĠS inn
Ġp ink
ĠGott es
pe cially
, --
t urn
ĠSch war
Ġcontin ued
i i
y d
5 0
Ġsel ber
enn e
Ã¼ ng
1 8
ĠK Ã¤
ĠSar ah
Ġpict ures
ĠMar ia
Ġs etz
er d
ĠO lymp
Ġl asse
Ġne igh
ĠDa fÃ¼r
Ġdre am
Ġn immt
ĠA p
Ġr ul
Ġpop ular
oc ol
ĠF rieden
Ġ ought
Ġf ail
Ġevery one
Ġlie bt
Ġdah in
Ġcompl et
Ġsp end
Ġcoll ect
lau s
U T
Ġkenn st
Ġsp oke
heit en
Ġim ag
ĠM ike
Ġfl owers
Ġbus y
Ġgen ommen
Ġverd amm
ĠHand y
Ġpro fess
Ġwe st
Ã¼s se
Ġjed es
Ġte eth
ĠCH APTER
ĠT rau
ĠBer g
ĠE ven
Ġp ort
wÃ¤r ts
ĠR a
ist or
n ame
is p
ĠA ust
ĠHoch zeit
Ġf ifty
uh l
Ã¼s sen
Ġirgend wo
f ield
Ã¤ng nis
ĠN atur
Ġfur ther
Ã¤nd ig
ĠM um
ĠB und
ĠVer schw
ĠM itt
at sch
Ġwe e
Ġkonn ten
Ġrecht s
Ġsudden ly
ĠSh ow
Ġt ue
D on
h ouse
Ġm ass
ĠH Ã¶rt
ĠSch mer
iv ely
Ġk on
ĠIdi ot
Ġfin ish
Ġall owed
I ch
Ġb auen
ĠTe x
Ġfunktion iert
Ġcomm une
g ere
b ack
ĠG ibt
Ġm ix
ic ed
ut zt
ĠM ittel
uck er
ĠJ ose
b aby
Ġs usp
Ġh ospital
gem acht
ĠWor te
Ġwalk ed
g in
Ġâ Ĩ
ĠChar les
we gs
ipp ed
Ġp uzz
ĠB ere
ĠAugen blick
Ġm m
Ġtr ust
Ġdan ach
k ar
lo ch
Ġr ot
Ġwunder schÃ¶n
1 2
il s
Ġany more
Ġ Ã¤ndern
Ġlaugh s
Ġt yp
ĠP an
la ce
ĠA unt
ĠEnt scheid
ĠG ren
Ã¼ te
Ġdarf st
Ġb ased
ĠS us
Ġein ge
ĠKir che
Ġbeg inning
Ã¤hl t
Ã¼ ÃŁe
Ġ202 1
Ġin vest
Ġehr lich
Ġac cept
u hr
lie ÃŁen
1 0
Ġcreat ed
Ã¶t ig
ĠN ick
ĠD ire
Ġsen se
Ġjed em
ĠmÃ¼s st
ĠAn ne
Ġl unch
ĠBett y
Ġcap ital
il ar
Ġper iod
ĠD el
nah me
Ġty pe
poin ts
Ġcom fort
Ġt au
ĠSt op
ĠHung er
Ġj unge
ĠV ier
ĠBr ing
Ġg ames
Ġcomp et
g hed
c ing
ĠJ ung
ff e
Ġkrie gt
ĠPrinz ess
s m
l i
Ġerkl Ã¤ren
ĠGed anken
r al
Ġal though
Ġgr ass
Ġlie ÃŁ
Ġu t
Ġc ars
Ġl ose
Ġany body
pp ing
Ġm aster
ĠPe ople
ann er
p or
Ġstol z
Ġl en
ad s
Ġauth or
ĠK unst
ĠSt ar
ĠD ame
ĠB ad
ier st
oun ced
ĠLu c
ump el
Ġgef ragt
Ġr ie
I llustration
Ġf at
Ġwer en
o der
Ġc ard
ist an
ĠAu ft
ord ing
D addy
ack t
Ġgeh abt
or gt
age gen
Ġste ll
Ġf Ã¼hle
Ġth irty
Ġv ict
w en
Ġs ingen
Ġl ocal
ĠT im
on el
O L
s w
al es
Ġsch m
Ġfe ed
ig g
ï¿½ï¿½ ï¿½ï¿½
ĠO ma
ĠMon ate
ĠD rei
Ġhors es
b te
Ġc offee
Ġlik es
Ġh oney
Ġ2 6
ges ehen
ĠEt was
Ġbit ten
Ġcon st
Ġer h
Ġr ub
ĠgefÃ¤hr lich
ĠL at
ĠD amen
i res
Ġschre ck
Ġkl ingt
ĠR aus
w ant
gas ps
Ġt all
ĠZe ug
ver stÃ¤nd
Ġrel ig
Ġbott le
Ġd ry
iz es
iv al
Ġinteress iert
Ġerf ahren
ĠGerman y
Ġgr ad
Ġm Ã¼de
Ġab ge
Ġ2 7
f rau
Ġerw artet
ĠMajest Ã¤t
ĠH am
a ith
Ġrem ark
ĠN ord
Ġc rying
Ġse eing
d re
Ġf inger
ult ur
ĠSt and
ab or
ĠAu ge
Ġr ace
Ġt ail
ĠH igh
ĠC ent
Ġp ounds
ĠR ay
Ġplay s
à ²
ĠSt an
ĠWie der
Ġcon vers
Ġwalk ing
Ġcorn er
im it
ĠP o
ĠGl as
Ġm oon
Ġit self
Ġj ack
ĠT ur
H ow
Ã ĸ
as ant
Ġin vol
ĠSt immen
s ings
Ġf ut
el te
Ġges prochen
Ġsel f
Ġinc re
i os
Ġin formation
ĠR og
Ġnah m
ĠM asch
ĠUn cle
Ġdes ign
ĠF ir
ĠJ ud
Ġdro pped
ĠfÃ¼hr en
Ġacc ount
Ġsie ben
ĠT ante
ĠIn sel
ed y
Ġpart s
Ġent ire
Ġneu es
ĠS eht
ĠIs land
sp iel
Ã¼ llt
ĠS CH
ĠEntschuld igen
ĠVors icht
ĠBl ue
ier n
lieÃŁ lich
Ġqu e
ri age
ĠP et
Ġf amous
sch n
gr und
ĠEr zÃ¤hl
ĠWe iter
ĠhÃ¶ re
Ġm is
Ġlet ters
u ert
at a
Ġget roffen
Ġpl ant
ĠR iver
Ġa te
Ġfuck ing
Ġp ush
Ġdist ance
no ise
Ġlau ghed
Ġgenau so
Ġirgend was
Ġl achen
Ġdu mm
fol g
ett et
Ġl oud
ant ast
Ġgeb oren
Ġh ing
ĠRe gen
z w
Ġm od
ol a
c lock
e ar
Ġsk y
Ġr Ã¼ber
Ġmil it
Ġw em
Ã¤ ÃŁ
Ġhold s
Ġth ou
Ã¼ ÃŁen
oo f
itz er
I f
Ġt ap
r ound
b ing
ĠCl ub
c ul
Ġt ie
GR AND
ats Ã¤chlich
ĠR oy
Ġsh ape
sche iden
Ġw et
Ġresp ect
unic ip
ri k
Ġatt ention
be iter
Ġche ese
ga be
f re
r or
Ġm em
Ġpers Ã¶n
Ġpl ate
Ġverk aufen
A l
ĠCar l
ĠT ony
so ci
ĠC o
ĠLe e
Ġmeet ing
The y
ĠSc ott
Ġsh are
ĠH ouse
ĠBes uch
ib ly
ĠDar um
Ġâ Į
y r
Ġcount y
Ġc ab
Ġb at
hing ton
ĠZ auber
Ġf ehlt
Ġgre w
Ġp icks
v ille
Ġhe alth
Ġne cess
Ġsm ell
ĠH Ã¤t
Ġgest orben
ru fen
Ã¤ ger
ĠSch ne
m ine
Ġc op
Ġste p
in ing
ĠEntschuld ige
Ġr id
Ġerinn ern
Ġl ch
Ġd anc
Ġverd ient
Ġpres ident
ik o
Ġp ock
m ir
ous in
icht et
Ġer war
Ġhin ein
Ġte chn
ge kommen
ĠEr d
Ġbek annt
ĠLieb ling
wÃ¼r d
f st
Ġmur der
g ra
d own
Ġcount ries
z entr
Ġwr iting
ĠB ier
ĠN ase
Ġd ance
Ġvor ne
or a
Ġrec ogn
ĠWeihn achten
ĠK le
re che
p unkt
ĠR uf
ol t
au n
Ġr abb
ĠB esch
ĠBl ick
ST ER
c el
ĠÃ¤ hn
Ġwunder bar
g ut
Ġgeh Ã¶ren
Ġschre it
Ã¤ ul
ĠMÃ¶ glich
Ġs ilence
Ġpro per
sch te
Ġpass ieren
ĠGef Ã¤ngnis
Ġfor ce
ĠMein ung
Ġver r
Ã¤ che
Ġ ï¿½
Ġdel ight
ĠT V
ug s
ap er
Ġ201 9
ĠL Ã¶
Ġd agegen
ĠR olle
om en
Ġha ll
Ġleav es
Ġar my
ĠKind ern
1 1
Ġch icken
J a
Ġlik ed
ĠBest e
Ġn en
Ġbe kommt
sch ieden
Ã¼ hm
ĠhÃ¶r te
Ġl Ã¤ch
Ġspec ies
Ġ2 8
t schaft
ĠPro du
Ġ Ã¼b
Ġin fl
ĠKÃ¶nig in
all ey
ĠH aut
Ġher r
ĠH or
l Ã¤
Ġvor sichtig
ĠSomm er
Ġcomm and
Ġvoll er
Ġc ell
Ġ201 7
Ġteach er
y ep
st adt
Ġe ars
Ġb Ã¶se
ze pt
ĠNÃ¤ he
ĠGeheim nis
ĠLie d
l ight
ĠH on
ĠL ittle
ann y
Ġun bed
Ġn ames
âĮ ĭ
Ġat tempt
ĠLou is
b ald
iz en
it or
Ġst ars
ĠPrinzess in
ĠReg ierung
on a
" )
con om
Ġsil ver
ie g
Ġle vel
Ġn on
ĠSte ll
Ġhatte st
. _
B e
ĠB ern
b is
h res
s es
Ġconc ern
ĠWas hington
ĠD ich
Ġ( "
âĮ ī
Ġm ention
Ġbl ow
ic ro
Ġfavor ite
ĠW ohin
ĠMÃ¤n n
it ar
ĠFlug zeug
ĠMan y
Ġbez ahlen
Ġbe ge
Ġv an
ut s
Ġj ud
Ġbir ds
b on
O W
Ġeg gs
Ġgew innen
Ġf em
ĠD is
v a
b ig
Ġb ull
Ġan x
ĠP ers
Ġph ot
ĠD ach
Ġwas h
Ã¶ h
Ġc ream
Ġincl ude
Ġbe komm
C AR
Ġshow ed
UD ENT
ĠSchw ein
is f
Ġdu e
Ġsch ick
ĠB u
ĠGes ellschaft
ĠCom put
ĠK umpel
Ã¼nd en
Ġf if
Ġtrau rig
ĠA ct
Ġwie so
ĠR ing
pt y
p lease
ĠFr aser
lie gen
Ġschnell er
ĠRe ich
Ġtra ck
Ġneed ed
ĠA my
ĠK ling
Ġwonder ful
ĠW affe
Ġcon d
ĠVers uch
unk el
ĠWe gen
ĠS her
ro lle
Ġse arch
Ġverlie bt
Ġl ag
ĠW oll
Ġg ell
ĠK ur
m el
ĠGlau ben
ĠK ais
em ents
ree k
as c
ĠE ll
Ġ /
ST UDENT
a a
Ġpol ic
y m
Ġal ive
ik er
Ġr ich
a ven
l en
ĠB E
Ġvers uch
ar l
te id
y y
es se
h ab
ĠBl umen
ĠL achen
in ed
Ġor d
ĠBe g
an or
Ġfut ure
Ġc apt
ĠV oll
ĠkÃ¼mmer n
it ions
aus piel
Ġfin ally
o te
Ġglau bst
Ġt it
Ġse par
Ġfol gen
ĠN Ã¤ch
f ern
ĠB ert
Ġgew onnen
Ġsub ject
ĠS au
Ġt anzen
Ġg ib
Ġke y
Ġpa id
ĠF Ã¼hr
war um
ar i
end ed
ĠSe id
g leich
Ġv iol
us ion
ĠAr ch
ĠschÃ¶n en
Ġquest ions
ĠWel che
Ġe p
ĠInd ia
b an
ĠNe u
Ġinterest ing
uh ige
Ġcon ne
Ġinterest ed
ĠJ on
b oy
ĠAnt wort
ĠL aden
over n
y er
Ġkom pl
I A
ad ed
b our
w enn
ĠI I
Ġi dent
Ġv ideo
Ġb ill
ĠD onn
Ġshould n
Ġwenig stens
be ll
ble ms
ĠN ehmen
ĠHa be
ha ben
Ġtw el
c ious
r asch
Ġcray on
Ġcr ow
Ġsc r
ĠMot or
ĠL in
inos aur
Ġl ying
ĠHÃ¶ lle
sch er
Ġhas se
iz za
ĠSp ort
Ġcra zy
Ġchar ge
ĠSee le
Ġs ens
AT T
Ġa ch
ru pt
Ġhat e
ĠUS A
am at
ation en
Ġbel ow
b ook
ĠA ir
ĠD et
Ġfur cht
v iously
in i
ĠMon at
om es
ĠFot os
Ġwerd et
Ġh ost
ĠO ld
uten ant
p ardon
Ġver n
ust om
Ġre de
z ig
ĠS l
w anna
uh oh
Ġex tre
ĠM ost
Ġg lo
ion ship
ed s
ĠA rab
iv id
be ite
ĠP il
ĠT est
Ġed uc
sch r
ĠmÃ¶ gen
ocol ate
ent en
se y
Ġser ious
Ġn one
ĠB ull
ĠGer icht
Ġs la
Ġg ives
Ġthe e
ĠKl eine
Ġact iv
Ġlov ed
ap ed
st es
M ommy
Ġst ub
Ġes pecially
ĠF ather
ĠSie ht
lau bt
ĠG al
Ġstart s
ĠHa are
Ġh ide
Ġver br
Ã ¨
Ġn Ã¶tig
ten s
Ġshe ep
w art
Ġbl ind
Ġl og
Ġst Ã¤ndig
ĠV ir
Ġread ing
piel t
Ġk ick
ĠR au
Ġpro blems
Ġcl osed
ĠA ss
Ġd ut
ĠfÃ¼hr t
sch af
ath an
ĠVer ste
Ġh arm
Ġun be
ĠkÃ¶nn test
I L
ĠM ut
ĠV ict
ĠF er
Ġph ys
ĠcH FFFF
Ġsp ot
Ġverhe iratet
ain ing
Ġpr ay
Ġp al
ĠTy pen
re ten
Ġappro ach
med i
ĠT our
Ġbe at
ĠNot hing
ĠFre ude
ĠS ing
ĠBe zieh
ĠRicht ung
ĠE hre
Ġsim ilar
ĠS ign
ab ly
Ġoffic er
ur r
w ait
ĠB ilder
il ing
f inden
ĠT oll
Ġsm ile
a e
ĠMil ch
Ġricht ige
Ġde f
l age
Ġsu it
Ġglau bt
Ġ201 0
Ġr au
ĠI T
Ġf ool
ĠRe ally
ĠP en
ĠStra ÃŁen
ro h
ĠK il
ĠG ast
Ġbr idge
ĠRÃ¼ck en
ĠSt ock
Ġrep resent
ĠSon nen
Ġsurpr ise
ĠA ha
ĠF uck
ĠK or
ĠSchl ag
ĠâĨ Ĵ
Ġsh arp
Ġhin aus
Ġwhe el
Ġ2 9
Ġp osit
Ġarbeit et
Ġd rop
ch an
Ġfore st
tern ehmen
ĠKl asse
Ġs Ã¼ÃŁ
ie bt
Ġcle ver
Ġkl ing
r ot
j i
st anden
Ġro se
ĠFamil ien
GRAND MOTHER
tend ed
Ġslow ly
l ant
Ġpro cess
Ġwahr scheinlich
Ġhil ft
Ã¤ fte
Ġfing ers
_ ,
as ion
Ġ202 2
ĠFot o
Ġhal te
ĠE ner
pp t
Ġc amera
Ã¼t zt
ĠKranken haus
I M
N ow
ĠSzen e
Ġlar gest
ourn al
ĠPre is
Ġeg g
ess ie
Ġsc ared
up id
Ġpre p
s eh
Ġw ide
ĠEin er
ar ing
ĠCal iforn
ĠD ien
ĠmÃ¼s ste
Ġpe ace
h as
Ġs elt
Ġd ick
Ġbig ger
ansp ort
Ġch ief
ĠVer trau
Ġauf z
Ġbez ahlt
ind ung
ĠW olf
Ġb asket
Ġeigen e
ĠLe g
ĠUn ion
Ġsqu are
Ġan z
Ġcour t
Ġm unicip
Ġwh isper
Ġ6 0
Ġter m
ĠB ahn
ie ten
ĠWir d
ĠD ep
Ġze igt
ĠD uring
ĠW H
Ġsowie so
ĠRe i
hl en
at te
ĠS und
Ġb ang
Ġear n
1 5
D o
ausen d
Ġser ved
Ġp ra
ĠAl ice
lau fen
ĠMaj or
sp e
Ġdire ction
as chen
ĠJu gend
schaf ten
w ise
Ġpro b
e it
ĠR ose
acht et
ĠTe e
r is
je kt
Ġpur p
c ri
Ġ... ?
ĠL aut
e um
ĠF oot
Ġmon key
Ġshow s
Ġgel ernt
R Y
ĠHol z
Ġunbed ingt
Ġs hr
ĠDe ck
is hm
R EL
igen s
Ġut ter
Ġrep e
ĠFrei heit
ĠW itz
ĠT err
ĠSch auspiel
ab eth
ĠH Ã¤us
c oun
1 7
o chen
ĠE ier
ĠC os
ĠWar ten
ĠN ob
ĠG ive
ĠR el
w atch
ĠCaliforn ia
ett ing
F RI
Ġhelp ed
Ġas leep
ur st
ass er
Ġg ather
ĠEr inner
Ã¼ hst
arbeit et
ĠA c
d och
Ġunter wegs
R e
am t
ĠB re
Ġen er
Ġcover ed
Ġw av
v al
Ġan gef
Ġtra vel
h ast
ĠV an
ĠSch icks
Ġkrie gst
ĠL auf
I s
Ġw a
la w
Ġn er
ĠÃĦr ger
Ġconvers ation
Ġam ount
ĠLe ague
m o
ate g
Ġanf angen
ĠV Ã¶
1 4
at ives
1 3
Ġr en
ĠB art
Ġsh ore
Ġjoin ed
Ġsh it
ĠP op
l icht
Ġmo dern
i ally
ĠJe an
Ġby e
ĠÃ¼ber n
p o
Ġterr ible
CH T
ĠVerg iss
Ġ201 6
wor ten
Ġlaugh ing
Ġsing ing
Ã¼ gel
th a
Ġd ra
ĠMag gie
ĠwÃ¤r st
ĠMar ie
Ġcaus ed
gr amm
Ġverl etzt
ĠA N
Ã¼ ler
ĠStre et
s et
ĠGef ahr
v ater
Ġer tr
ĠGe ben
ĠSold aten
ĠSch ool
ge stellt
Ġsp read
Ġbl ank
ĠS ong
Ġvar ious
Ġstud y
ĠWh ite
D E
H E
ĠS etz
h Ã¶r
ĠGeschen k
ĠFl or
ĠAcht ung
M y
h undert
ATI VE
Ġapp le
amp e
ĠZeit en
ct s
Ã¤ul ein
ĠGes pr
Ġdo gs
Ġst age
Ġar beite
ac ing
CH ER
ĠIt s
ĠGem ein
Ġarr ang
ĠB oss
Ġ201 1
Ġthank s
al ter
Ġask ing
Ġsp ent
ĠPfer de
ĠS ue
Ġlik ely
y ond
Ġpick ed
Ġanger ufen
Ġim medi
ĠDen k
Ġw inter
Ġway s
A Y
Ġconsider ed
ĠP fe
k re
Ã¤ ge
Ġele phant
ĠC ollege
Ġle ise
ug g
ĠAmer ika
Ġander er
ĠO ur
ĠG overn
Ġre fer
ĠEr n
ĠO ver
Ġfr ight
gef Ã¤hr
h ood
l or
m ond
ĠE isen
Ġfor th
Ġspe ed
w ind
Ġold er
p es
ĠKar te
ĠH als
Ġnatur al
out s
Ġmach ine
ĠFl uss
Ġre dest
c ient
v an
Ġgut es
ĠFle isch
Ġtwel ve
Ġ %
m utter
v iel
ĠH ut
ĠP ubl
t ake
ir r
ĠFall s
ĠfÃ¼r s
or ter
ĠM Ã¼ll
ĠU N
ĠAn ge
ĠÃľber rasch
Ã¼n ft
Ġs ize
ĠPol itik
Ã »
Ġres ult
schl uss
ĠJapan ese
m ittel
Ġsleep ing
ĠMon aten
el a
Ã¤um t
Ġturn ing
Ġl ower
ann en
REL ATIVE
coun ter
th ree
ik t
ĠW ould
ĠAb s
Ġt at
ant ly
Ġsch n
ra el
is y
Ġent ered
ĠSch le
Ġst ories
Ġpolit ician
ĠGlau bst
Ġlearn ed
pl atz
Ã¶ hnen
Ġger ettet
h Ã¤lt
ĠB esser
Ã¼ gt
ĠFranc is
ĠC le
ĠFrank reich
Ġno body
ĠKat ze
Ġmount ain
ĠQue en
ĠTex as
j o
ĠFr Ã¤ulein
A ll
om an
ĠP riv
ĠH istory
ĠgroÃŁ es
Ġhard ly
Ġkom isch
Ġs le
ĠT anz
Ġtalk ed
Ġg as
ĠB as
ĠK al
ĠSch uhe
S h
st ra
Ã¼t z
k y
Ġent de
ĠBes che
ĠL isten
ut ed
Ġ201 4
Th is
il a
Ġstar b
Ã¤l ter
Ġspr ing
Ġc ro
Ġe uer
d am
Ġabsol ute
Ġfres h
ĠNach bar
ĠE hr
om at
ĠSt ate
Ã¼t ze
Ġa v
Ġst one
ess el
ĠfÃ¼hl en
ĠArme e
Ã¤nd e
ĠBeweg ung
Ġch oo
ĠWo hn
Ġ" '
Ġdecl ared
ĠThe ir
ĠArsch loch
ĠVict or
o is
k an
Ġversp rochen
ĠT hr
Ġin te
ĠS at
ĠSpr ache
on en
Ġe wig
Ġru fen
ĠGar ten
Ġpock et
ĠOn ly
Ġdau ert
Ġbeh alten
ĠC ath
ult ure
f rieden
Ã ³
Ġsch icken
Ġprogr am
ĠC oun
ĠO t
amm a
Ġdir ty
Ġc ru
legen heit
end s
Ġb an
Ġp et
ĠZur Ã¼ck
ĠH Ã¤
em an
ĠS P
aught y
Ġlen gth
ĠSp ann
ĠB oy
ĠheiÃŁ e
ĠAd am
m anden
ist ed
Ġsp oon
ĠIntern ational
Ġme at
r ick
Ġgesch ickt
ak ed
Ġsag ten
Ġro le
ian a
ĠBef ehl
f it
oin t
Ġbeh and
Ġsit uation
aur ant
Ġin sp
ĠT ommy
ĠKein er
Ġco at
ĠAn ton
ĠEurop a
ĠL ad
Ġfr age
ĠTe chn
ĠBl Ã¶
ĠR ot
e ch
us hing
ĠL ast
Ġnie der
Ġber Ã¼hm
ĠLau ra
k in
Ġprom ise
Ġdest roy
Ġtem per
an o
ĠJed en
anc ed
Ġver f
Ġsa f
w r
ĠL es
g ress
ĠM eter
Ġauf hÃ¶ren
ac y
ĠR ichtig
Ġhal b
zeit ig
Ġp ath
ind a
Ġer re
ehr t
res se
ĠH of
ĠBund es
Ġbro ad
ĠB eine
Ġdraw ing
ĠMar c
Ġgesch ehen
Ġspir it
f ace
Ġsat isf
z wischen
lie ben
Ġaff ect
g ers
b au
Ġd ank
ve y
Ġc and
Ġb ud
sch au
Ġan rufen
ĠGre en
Ġf ahre
Ġcir cle
ĠS ure
ĠRad io
L T
Ġacc ident
Ġgeb aut
rib ed
Ã¼ d
Ġb attle
Ġge gessen
Ġbef re
ĠKÃ¼ che
Ġwor se
ru f
ĠJe ff
ĠEur o
Ġth y
d ass
ĠEntscheid ung
Ġverk auft
Ġg ift
imm ing
u gh
ĠT ax
ĠW ohl
Ġâ Ģ
ĠM ill
Ġun cle
ĠL aw
ĠIn formation
r agen
Ġfin al
Ġint rodu
ĠE gal
Ġg ere
Ġsimp le
c ast
Ġwo hnen
ĠB ab
Ġj ungen
Ġd eter
Ġla id
Ġfor ty
Ġsuch e
Ġre ich
ĠJul ia
Ġb ound
ĠB ay
Ġpr in
ĠW and
zeich net
p assen
ri a
el be
ĠAustral ia
ĠCh ines
S O
ĠO per
-- "
. ,
n es
Ġspr ach
Ġver Ã¤ndert
Ġmus sten
Ġzie ht
ĠT ro
Ġw Ã¼
ĠH unde
le m
Ġverst ehst
Ġun mÃ¶glich
Ġle gen
Ġ201 5
Ġf ahr
Ġl ines
Ġer reichen
ĠG Ã¤
ĠL A
pr Ã¼
ĠSm ith
U F
ĠT at
Ġlead er
ĠHoff nung
ĠComput er
Ġnumber s
ÃŁ t
ak a
se qu
Ġcall ing
ĠR en
fÃ¼hr en
Ġdire cted
S he
ĠB ell
ab les
Ġdisc uss
ĠSt ill
ĠSy stem
Ġdiscover ed
etz te
ĠT urn
Ġle be
iÃŁ e
Ġagre ed
k o
Ġs oul
Ġgu ard
c iety
i que
ĠLehr er
ĠRie sen
l ass
Ġ201 3
ĠC up
Ġr om
k ins
Ġent scheiden
Ġgo d
ĠN er
Ġwe iss
Ġgel esen
ĠBef ore
T UR
Ġgek auft
Ġdri ving
Ġh ill
Ġir on
ĠO ther
ĠDan iel
ĠB ord
Ġsch aff
Ġpl aced
Ġdar in
] !
Ġb ite
Ġperfe kt
ĠP ak
it ung
op en
Ġar g
p rechen
l aden
Ġact ion
Ġr ap
Ġvers uche
Ġmov ies
Ġerinn ere
ous ly
ograph y
ĠMÃ¶glich keit
ĠB onn
ce an
Ġen emy
Ġwel come
r id
Ġbe ein
Ġges pielt
Ġ Å
Ġnie manden
ens us
ehr en
c ar
Ġw ach
Ġ201 2
Ġcr it
Ġresp ons
Ġang ry
ein s
Ġin form
ĠD i
le i
Ġmit einander
Ġne un
ĠT w
ĠChr is
ie gel
iz in
ĠT asche
ĠSit uation
Ġv e
Ġf ehl
Ġbe e
Ġbe yond
oh ol
ĠW Ã¤hr
ĠMus s
ĠM ore
atur day
z ul
Ġcomp uter
the se
ĠCol onel
st a
ĠBÃ¼ cher
and e
ĠS ince
Ġi gn
ĠThe ater
Ġt iny
b it
ĠÃ¼ber ras
Ġste ps
Ġch em
ĠDe ut
om ing
Ġs eh
Ġhe ut
ight s
UR S
w ing
ĠRed e
ĠSek unden
p in
ig aret
opp ing
and ers
Ġfight ing
Ġpriv ate
red it
Ġform ed
ĠEurope an
ĠRog er
ĠgrÃ¶ÃŁ te
Ġk m
ĠSchicks al
f our
ĠB or
end ing
Ġs au
ĠDre h
Ġarri ved
Ġdoll ars
it ude
ut ch
ĠTsch Ã¼ss
r ich
Ġste ckt
c ol
ĠSta at
Ġp an
ĠK ost
Ġsch en
Ġdress ed
F r
ĠOp fer
ĠL ar
ic ious
pe kt
Ġfind est
ĠF Ã¼nf
Ġe conom
ĠZ uh
uck y
3 0
ĠPl ay
uch s
Ġgegen Ã¼ber
I C
ĠW ahnsinn
th ur
Ġschw ierig
ĠDo es
ĠgrÃ¶ ÃŁer
Ġgemein sam
' ?
ion en
ĠWh ile
Ġsold iers
Ġverschw inden
ĠR y
fÃ¼hr er
ĠDa bei
Ġrad io
Ġent sp
Ġ200 0
el ess
2 00
Ġum bringen
ĠVer y
Ġst upid
Ġlie f
Ġent wick
b ung
Ġh i
Ġso cial
ĠEr w
Ġrabb it
Ġru fe
ĠS uch
ĠBesche id
Ġ &
Ġf il
Ġbesch Ã¤ft
ĠH E
as ons
Ġch ocolate
ĠKap it
Ġfrag te
el en
Ã¤tz chen
ĠS E
Ġst orm
Ġpl ane
ov on
ĠH ur
ĠSpan ish
ĠcHFFFF FF
Ġt ax
ĠZe ig
Ġco ast
ĠLie ber
p ol
Ġp ri
ĠH it
ĠWh ich
ĠSund ay
ĠF ig
as ing
Ġth rew
Ġimp ro
ĠMan che
u ern
ĠDo ctor
Ġra ised
ĠTe xt
ut ig
ach el
l am
te ilen
ĠZe ichen
n am
ĠL age
Ġr ough
Ġbes ide
ach er
ĠJ oh
z i
Ġemp lo
ĠO pa
Ġh istor
pp el
Ġup stairs
Ġro b
Ġmark et
Ġg ilt
Ġmed ic
l ier
ĠG uck
ong ress
ĠWe ise
ĠN ic
ĠEar th
Ġw ohin
ĠT rain
Ġdre w
ĠB on
entr al
Ġmiss ing
ĠH au
ĠE igentlich
al y
ĠM itte
iz iert
ist ers
mb ol
Ġst raw
ash ion
Ġfly ing
ĠEr folg
ĠE mm
Ġeas ily
Ġpolit ical
Ġwatch ed
Ġbreat h
ĠCh ic
Ġind ust
ib r
ĠTh ree
our s
sie ht
1 6
ĠG Ã¶t
Ġhappen ing
ĠE cht
Ġreg ular
ĠLieb es
Ġg rau
d rÃ¼ck
ĠB unny
Ġ200 8
P eter
Ġf olk
M um
Ġhous es
L Y
Ġsie h
gel aden
à ¬
ĠK no
Ġch amp
Ġmein t
ĠW ol
ĠM od
Ġn ar
ord s
w elt
Ġc ivil
ĠT al
Ġr ail
Ġdem and
off er
Ġhe il
ĠK amera
Ġth ick
Ġr ies
op fen
Ġgeh Ã¶r
ĠM ass
Ġon to
ĠJ ones
ĠH ans
Ġsand wich
ĠA uss
ĠN ed
we st
s oll
z te
ie gen
land s
ĠschÃ¶n er
Ġcol ors
Ã¼nst ler
in ary
Ã¤ ude
Ġwar t
ste igen
ĠWissen schaft
p ass
al itÃ¤t
Ġdiff erence
Ġf angen
Ã¼ re
as hed
ĠR oll
ĠKla vier
Ġun c
Ġpull ed
Ġorigin al
l ad
Ġp sych
ang t
Ġw Ã¼s
ĠB ot
Ġhand le
Ġdel iver
Ġend ed
Ġc lock
ĠVerst anden
Ġwe ather
Ġpuzz le
Ġschl agen
gy pt
Ġtri p
Ġag ree
ĠR em
ĠV aters
Ġmilit ary
Ġsp ell
ĠB ein
ĠSant a
ĠG ang
Ġesc ape
Ġgeb rau
ĠKais er
ĠBer uf
ĠD ist
ro at
den ken
Ġges und
pf el
Ġc rew
ou ps
Ġj our
Ã¤r m
ing u
ro s
Ġm at
Ã¼nd e
Ġdri ver
Ġbe ob
Ġbes uchen
ĠPro zent
ĠW E
l s
Ġkn e
ĠP unkt
is iert
Ġcrow d
is ation
Ġde fe
Ġsing t
Ġnach her
ĠFre m
Ġfill ed
ĠB ack
S S
s etzen
Ġprofess ional
ir k
ĠAr men
Ġfurcht bar
Ġne e
Ġpl ann
ĠW ien
Ġwe ap
ict ion
gel d
h ang
Ġbab ies
Ġz ahlen
Ġh iding
i ot
A r
Ġpr oud
ĠEr inn
ĠSte ve
ĠJimm y
f el
ie st
Ġschl immer
Ġab gesch
ĠBr ot
ĠFir ma
Ġwear ing
Ġl im
Ġth reat
ve ll
Ġn ature
ĠB om
laugh ing
ĠIs rael
Ġsk in
ĠRe geln
tre ten
ĠKlein er
ain e
ĠÃĦ hm
ĠR us
... ?
t in
al so
Ġr auf
th ose
ĠC ap
ĠHa ar
Ġmean ing
ĠAb out
Ġann ounced
ed en
ĠM id
ĠR ein
ct ions
ur er
Ġzwe ite
Ġr ief
Ġtri ff
ĠL och
Ġbe ach
Ġthink s
sel ben
N ot
Ġreg ard
k ten
on str
ĠSchl oss
Ġg ate
ĠZ usammen
f ive
ĠT au
Ġblock s
ĠEx cuse
Ġwood s
Ġbelie ved
Ġbe wegen
Ġsur v
Ġener gy
f eld
Ġc ollege
Ġfall ing
ot he
om s
ĠH ann
ĠC amp
Ġprote ct
Ġstart ing
Ġple asure
Ġs etzt
Ġ200 9
Ã¤cht ig
Ġw ound
Ġcomplet ely
Ġprodu ced
ĠItal ien
Ġrel ation
Ġhig her
ber ry
ĠP ur
Ġm anner
Ġbek am
Ġs auber
Ġr uf
Ġmov es
Ã¼hst Ã¼ck
ov ed
Ġnot ice
Ġpro ject
Ġpupp et
ĠH Ã¤l
Ġver ab
uh en
Ġbrau ch
Ġno te
ĠJose ph
ges etzt
T hen
Ġob ser
Ġung laublich
act ion
Ã¼ llen
t Ã¤us
SI STER
ber n
ĠF al
Ġthere fore
ig s
Ġsurpr ised
k opf
er weise
Ġdanger ous
uck s
Ġto lle
Ġa mer
Ġh ielt
Ġh uge
u a
ie ben
Ġmiss ed
o ÃŁen
ĠC ont
ĠC our
Ġweit ere
kl Ã¤r
ĠM ount
Ġsch auen
Ġ5 00
Ġfe at
ĠEl iz
Ġtrad ition
Ġsein es
ĠBau ch
ĠJer ry
ĠP ut
Ġher ein
ĠBe im
ter t
ĠWe ile
ĠPart ner
nah men
Ġfr uit
st op
ke ep
u i
Ġc ere
Ġb other
Ġun ver
v ious
Ġst ream
ĠK ore
Ġb ess
ĠM aster
f a
Ġgel iebt
Ġbe mer
Ġst Ã¶hnt
Ġfre und
Ġin n
Ġa part
ĠMar g
vocal izes
Ġl id
ĠS erv
Ġest abl
d og
etzt es
Ġoffic ial
O O
oh en
ĠJa c
Ġsc ene
Ġgo in
f le
u x
Ġspe aking
Ġr ate
Ġany where
ig r
Ġm or
ind ern
Ġshe l
ĠSch Ã¼ler
Ġan st
ru ction
ĠCh urch
ĠEner gie
b ra
z ust
ĠO ut
ĠNe ver
s uch
ikan er
Ġhad n
ĠA cc
Ġaus sehen
Ġmein te
Ġun less
Ġ200 7
nis se
Ġmot or
Ġar ch
Ġt aste
Ġd ate
ĠGe org
Ġ Ã¶
re ct
ĠW ichtig
Ġ8 0
Ġexpect ed
Ġdre hen
ipp er
ĠGew alt
ĠW ild
ĠUn fall
wohn er
M ar
ĠStr om
Ã ±
ĠD ay
inc ip
Ġl ion
ĠEin es
b u
Ġquar ter
Ġto wer
Ġbest eht
Ġad ult
Ġsl ight
ĠfÃ¼hl t
he art
Ġsong s
ĠFar be
led ge
ĠT ri
ĠD ou
Ġsp Ã¼r
Ġsh irt
Ġw and
SI B
ĠSt at
Ġ19 0
Ġsimp ly
ĠÃľberrasch ung
Ġart icle
Ġbegin nt
ĠR oss
c our
ĠH um
ie te
ĠGe gend
ĠwÃ¼n schte
Ġintern ational
in ne
ĠK im
Ġposs ess
ir gend
Ġricht igen
ff ff
ĠSchw ert
ĠD ienst
ĠBe ck
ĠG ot
ĠG lo
ĠB i
if orm
Ġl hr
Ġact or
Ġst Ã¤r
Ġs umm
Ġmost ly
ĠVer k
Ġth us
ur a
end ung
p icks
ĠC am
ĠK en
Ġro of
ĠwÃ¼ tend
s ive
UN G
Ġf ault
Ġde g
Ġ200 6
Ġf antast
Th omas
Ġf ern
Ġneed ta
d ad
ĠN ik
sen ce
Ġm aterial
Ġgef ahren
Ġexper ience
ĠChic ago
Ġw ed
Ġsuch t
ĠZie h
Ġk ont
min ister
Ġimmedi ately
lau f
Ġwo hnt
Ġp un
Ġdu st
Ġne st
ĠWÃ¤hr end
ĠKing dom
Ġsc ar
Ã¤ ck
Ġt ight
Ġkrie ge
Ġr uft
put s
Ġs om
Ġgen annt
h ip
Ġopp ort
ĠR uth
ĠS aturday
Ġble ibe
Ġhon est
Ġw eder
ĠG Ã¼te
ak s
sh ire
ĠBrÃ¼ der
Ġw ake
ĠKr ank
b rechen
m ark
ĠWeihn achts
Ġche ek
or ing
Ġnecess ary
f ather
Ġh au
it zt
ĠHe x
Ġha pp
Ġa k
Ġcab in
Ġfl at
Ġa p
Ġer g
ĠNachricht en
ĠM E
ent al
Ġdass elbe
j Ã¤hr
ĠSer ge
ĠhÃ¤lt st
ir on
p ect
ĠS ummer
ĠEin fach
Ġs an
Ġer n
Ã¼ mm
Ġho tel
Ġm ult
ĠD ER
ast en
ĠAr thur
Ġdu m
ord on
Ġau d
Ġle er
Ġf aith
eh le
Ã¤ hne
ĠCom p
ul en
Ġem pty
ĠmÃ¶ chten
Ġple asant
Ġall ow
lie f
ĠÃĸ ff
ĠHil f
Ġcurr ent
TEA CHER
ĠW unsch
ĠMiss ion
ĠFein d
ann ten
ast ic
st Ã¼ck
Ġtw ice
Ġin j
Ġter ms
h Ã¤ng
ig ger
it i
Ġdut y
m h
ĠCoun cil
ĠT Ã¶
Ġsing er
Ġneh m
z ahl
f ly
m ommy
Ġgr oups
ĠRe volution
ĠAt lant
ĠwÃ¼r d
Ġirgend wann
Ġpubl ished
ĠJ www
Ġexpl ain
Ġple ased
Ġn am
ĠN et
ĠM ord
ĠVer m
ĠPro v
Ġar rest
ĠGr Ã¶
ore s
Ġj oy
Ġbr achte
Ġde ck
ĠA B
Ġsm oke
ĠGr uppe
ĠJohn ny
Ġco ach
Ġun ivers
sch reiben
ĠVer gn
ĠGen er
Ġexc ited
ĠSc ot
ĠR am
Ġam az
ĠP ier
Ġass ist
l ig
he st
Ġble ibst
Ġschl Ã¤ft
ĠHÃ¤l fte
ĠKapit Ã¤n
Ġpl ain
Ġred et
Ġdes sen
ĠCh ild
Ġin f
at ors
Ġed ge
Ġn aughty
ĠAut os
ul ts
br uch
Ġjour ney
Ġc ustom
Ã¤hr t
Ġd inosaur
ĠH y
ĠT un
Ġans ehen
Ġsn ake
Ġoff er
Ġhur ry
ik um
I F
h an
re ut
Ġfl ower
Ġare as
ul f
ur f
em als
A H
ur ity
ĠIntern et
br other
Ġganz es
Ġsel ten
Ã¶s ung
ĠO N
ĠM Ã¤r
Ġus ual
UN K
sam keit
oin ted
Ġsett le
ĠM au
Ġche er
ĠKont akt
Ġb rief
Ġgesch lafen
m acht
Ġb allo
Ġgr own
ĠG entle
Ã¤ch ter
D ie
ĠSÃ¼ d
Ġentschuld igen
ĠSk la
ĠK ug
Ġfe iern
Ġm icro
ĠU p
Ã¼cht ig
Ġw it
ĠH em
ĠJ ag
ĠR ome
Ġp ound
ĠT ot
ot ed
h h
oo per
G r
ĠG ab
Ġm um
Ġh id
Ġst ock
ĠFern sehen
ĠThe ma
t akes
Ġerf ol
Ġw itz
Ġmunicip ality
N T
o hn
z in
ĠB ye
ann el
ĠSt art
a fter
se its
ĠBr Ã¼cke
im s
Ġjed och
Ġn ix
it ation
ĠBr un
ĠH ir
f ar
Ã¤ ten
ĠF ab
Ġentf ernt
ri ffen
Ġverste ckt
ĠWal ter
h or
Ġt eddy
ĠL isa
Ġbeg le
Ġlight s
Ġad vent
m os
ant as
ling e
Ġpurp ose
U M
ĠC ast
stell e
ck te
Ġdein es
Ġind ivid
Ġp it
Ġzu frieden
Ġextre m
Ġt atsÃ¤chlich
Ġsch ne
Ġstren gth
Ã¼ he
Ġtr Ã¤gt
ĠPer haps
ĠT a
ust er
ib ility
Ġha llo
Ġl ake
Ġhead s
ĠK lo
ĠfÃ¼r chte
Ġru in
ĠAfr ica
Ġsch ieÃŁen
s l
ker l
t i
V ER
us hes
Ġj emals
Ġer halten
Ġdis p
Ġe ager
Ġr ank
ĠBe eil
Ġkling elt
b eh
Ġocc ur
it an
ĠCan ada
s ame
is er
Ġocc up
ĠRuss ian
Ġver fol
ĠItal y
ele br
Ġsug ar
Ġle bend
g ent
ga ben
ĠH old
Ġg rab
ĠP sych
ĠEr fahr
Ġver z
Ġaw ful
Ġb i
ist ic
Ġoffic ers
Ġloc ated
ag ement
ĠSch utz
ĠW ood
Ġkost et
Ġte ars
ĠB ib
H T
Ġprom ised
ĠB ald
ĠE cke
Ġtr ick
Ġo w
ĠSchw anz
ĠGrand ma
Ġt ong
ĠJ ew
Ġna he
Ġev idence
in ke
Ġsh oe
av ing
u be
richt en
ch em
c r
Ġear lier
bis schen
ver t
Ġsc ient
ĠSchr itt
Ġsupp er
is hes
ĠM ister
sch re
Ġamer ikan
oss ible
Ġgest ohlen
ĠEinz ige
ĠAuf gabe
ap a
ĠItal ian
ou red
Ġre se
Ġzerst Ã¶rt
Ġt one
Ã¤ ne
ĠDr uck
ĠBezieh ung
Ġfre ue
s omet
y ed
ĠS un
mer k
sch ung
Ġsm art
ĠK ol
Ġstr uck
Ġcho ice
Ġis st
ĠMil it
ĠB al
Ġgr owing
ĠH ose
Ġe he
Ġw icht
Ġdefin it
Ġpl ants
Ġjemand em
c ries
Ġh Ã¤ngen
ĠW ach
ĠN at
ĠO hren
Ġc ensus
Ġschreck lich
ĠC ould
Ã¤t zen
ĠMon ster
wh ile
Ġder en
Ġgun s
Ġopen ing
Ġvor be
Ġs our
ĠE gypt
ĠSch nee
Ġorder ed
Ġgu est
imm ung
ist ics
ĠSon nt
Ġda re
K E
ĠF ur
Ġges ucht
u ell
ĠW Ã¤re
ĠLe on
Ġcon du
ĠBra vo
if y
ĠMin ute
mitt ed
z il
Ġrun s
Ġst ret
Ġnot iced
Ġd ur
Ġsw imming
Ġd un
Ġh inge
al te
ĠO oh
Ġh Ã¤ngt
Ġl iter
au ty
ich st
ĠLu cy
Ã¶p fe
ST E
Ġde fen
Ġmen sch
omet er
ĠM ik
ĠK uh
ad o
ĠHÃ¤nd en
Ġrom ant
ĠBrau t
ĠP ri
Ġmag ic
Ġback ground
Ġgold en
ĠZ uf
ĠF ried
Ġge arbeitet
stÃ¤nd ig
SO A
N A
ad er
Ġspo ken
Ġmy ster
ĠSomet imes
Ġstir bt
ĠT her
Ġse le
Ġ3 5
ĠVer ein
b ten
Ġcare fully
Ġexp and
Ġj en
Ġbr ill
w ater
ĠUr laub
ĠS ay
Ġinvol ved
Ġsc ream
ĠMit g
Ã¼ ch
Ġr ule
w an
Ġpl enty
ĠLand es
ĠSch er
Ġsa ved
al ed
Ġfound ed
ĠSch uss
od es
Ġmit nehmen
Ġ3 00
Ġperson al
Ġerwar ten
Ġnach dem
Ġf ein
ĠFl asche
ĠVer gangen
b rau
Ġne g
ĠCh ief
if er
ĠChines e
Ġvor bere
Ġselt sam
Ġan gel
Ġrep ar
Ġvers ion
z ub
ĠUns inn
fÃ¤ llig
ĠAn geb
Ġfar mer
ĠSta ats
b ro
ĠD rogen
ĠSe iten
ĠPap ier
Le o
m Ã¤ÃŁ
ĠR and
ĠAuft rag
ĠT ob
Ġgood ness
Ġshould er
Ġble ib
ĠGespr Ã¤ch
ĠK offer
z ehn
O S
ĠO hr
Ġluck y
Ġsch we
Ġbest imm
ĠAlex ander
ell y
ast y
Ġc art
look ing
Ġs orgen
Ġse ien
ĠMÃ¤nn ern
Ġbr ush
ĠW etter
ĠGeb Ã¤ude
Ġp air
ĠEng el
w ehr
Ġs auer
Ġverst eht
Ġyou th
Ġdes wegen
Ġlad ies
Ġlisten ing
Ġob wohl
ĠBe w
ĠÃ¼br ig
Ġt aught
r uck
in ation
e g
ĠK olle
ĠhÃ¶r st
ĠÃ¤hn lich
ĠN ar
ah res
s atz
z ing
Ġli ps
Ġcent er
ĠSim on
ĠPar l
Ġun f
pl es
ĠZeit ung
ĠD utch
h ah
ien s
ster reich
ĠVerst ehst
Ġd ise
ĠQu atsch
Ġl angen
ĠschÃ¶n es
z uh
se ll
ri ere
im er
ĠD umm
Ġbeg ann
sch iff
it o
sch rift
Ġher vor
ĠpersÃ¶n lich
c a
ĠF eld
Ġre du
op her
ĠS ur
Ġverw and
Ġcra ck
Ġent lang
ĠF our
Ġan cient
ch ester
ĠKomm st
fl ug
ĠH olly
ill en
Ġsmall er
Ġele ction
Ġsol ange
ĠKla ppe
ĠPar te
ĠGlÃ¼ck w
Ġverd ienen
Ġw isst
ch net
Ġste llt
ĠFr Ã¼hstÃ¼ck
U n
ĠZ ust
ĠVÃ¶ gel
wh oops
and o
Ġex h
Ġopp os
k ing
Ġch ap
Ġs ides
Ġle isten
Ġsp ann
R ight
h ost
Ã¤ nen
ĠV al
rei be
Ġsol chen
ogra f
ĠKont rolle
ed et
ĠBr ad
ĠLie utenant
ĠEd ward
Ġep is
ĠP enn
ĠPr in
ĠKar l
r in
RY A
Ġ( )
ĠChar l
or fen
Ġpl at
Ġb rain
ĠA fri
Ġkn ife
Ġbl ess
g ott
ĠT eddy
son st
Ġkeep ing
Ã¤l te
v y
ra p
ĠDes wegen
Ġtit le
an other
ĠE hren
Ġ199 0
ok ing
Ġcomm unity
et ch
Ġaus sieht
sh ould
Ġmess age
Ġmist ake
ik el
Ġimag ine
ĠOn ce
Ġfem ale
Ġt iger
Ġwatch es
j en
ĠF lie
Ġtell s
ÃĥÅĴ r
ĠGe fallen
ĠDa zu
ĠH as
ĠKar ten
ĠAnw alt
-------- --------
Ġam b
Ġapp ar
ĠK o
fahr t
d ings
Ġsch lieÃŁlich
h allo
Ġo il
Ġverr aten
s ver
ĠTh ose
r r
Ġd ouble
Ġverschieden e
Ġc laim
Ġte il
ĠAng riff
ĠGesch ichten
ĠZuh ause
ie ht
ĠH A
Ġprop ert
f eren
ĠT ed
ĠAnd y
Ġver t
ze igt
Ġb atter
ĠGÃ¤ ste
oph ie
ĠSchmer z
end es
ian o
ĠFlor ida
ĠM ick
Ġfell ows
h is
s n
ĠSchwe iz
Ġchang es
ock ey
Ġunser es
Ġverschw unden
ad ow
gen cy
Ġch oose
Ġsur round
ah am
olog ie
Ġpro test
Ġent er
Ġm ouse
ĠF Ã¤
o ben
ĠHeim at
Ġsh own
ĠgroÃŁ artig
Ġfre uen
get an
m ake
ĠE ben
ĠSek unde
st re
k on
ĠV ER
Ġwalk s
Ã¤h le
ent ed
Ġauf geh
ĠmÃ¶ chtest
s etz
ad emy
ĠTod es
Ġmal e
Ġac qu
ĠSy l
ĠRepubl ic
ĠEliz abeth
Ġf iel
ĠZ ahn
Ġbow l
gew Ã¶hn
ĠH an
Ġun gefÃ¤hr
Ġ200 5
ost a
S e
Ġwe ight
ĠSp ain
ĠKre uz
s ing
ĠP osition
b ly
w eder
ĠO st
Ġbut ton
Ġben utzt
Ġ[ ?
kn own
Ġeduc ation
ĠVergangen heit
ĠMein st
Ġor ders
Ġste he
bl ings
Ġmov ement
Ġem ot
Ġme al
Ġwitz ig
V AL
ĠL ok
in nt
ĠW a
al ing
ĠK ath
on ed
Ġnew sp
ĠVergn Ã¼gen
Ġrem ained
Ġm eth
ĠM ami
ĠE IN
Ġdes p
ĠPr ince
Ġdire ctor
ĠâĮ Ī
C AT
Ġst airs
Ġbed room
Ġl ies
unn el
ĠWer k
Ġerk ennen
Ġtr ade
ĠRes pekt
ĠC at
Ġst Ã¼r
Ġletz ter
Ġhe llo
âĮī .
Ġlau ter
ĠFern seh
bl ue
Ġunter st
ĠChamp ionship
Ġr ange
ĠBe ar
Ġgener ally
at iv
Ġl on
ĠD E
ĠM as
ĠH eld
ĠB rian
ĠSch ok
ĠBau ern
ĠTax i
ĠW all
Ġclos er
ĠWo zu
ĠM ur
Ġsur face
Ġc elebr
ĠSo fort
ĠL ove
Ġrap id
ĠSt opp
ut lich
Ġben utzen
ĠhÃ¶ ch
itte e
ip l
ĠK uchen
oth y
g ern
ir ate
ĠblÃ¶ d
Ġas soci
ĠGef Ã¼hle
Ġmit ten
Ġman aged
ĠTH AT
Ġpr incip
Ġsl ide
um er
ĠHÃ¶r st
J EN
Ġg ingen
Ġun er
qu ar
Ġerw ischt
t es
ĠCh a
ĠR E
go ing
k ind
ĠWest ern
ĠA L
ĠEnd lich
ur b
Ġher o
Ġzwe iten
âĮ Ĭ
are s
Ġgr at
Ġ18 9
Ġem er
Ġhe at
Ġprep ared
Ġcal m
Ġschwar z
Ġf irm
ĠG n
Ġan geb
Ġro cks
Ġav ail
f est
Ã¤us ch
Ġgentle man
ell ent
ĠAl bert
Ġdau er
ĠPat ient
Ġb al
om er
an i
ĠI S
ĠJ enn
Ġse uf
Ġ200 4
ĠBet r
ĠC O
sel be
ieÃŁ t
Ġkl app
Ġcall s
ze ugen
ĠVer antwort
Ġp ause
ĠOr gan
Ġ9 0
ĠBra zil
Ġas h
Ġag ed
Ġ7 0
Ġreach es
ĠJahr hundert
ever y
ĠPol iz
Ġdeter min
Ġwor ried
ĠGroÃŁ vater
ĠAr my
Ã¼hl t
ĠLie blings
Ġw oo
ĠFr iday
her r
ic ated
ĠSt au
schl agen
Ġjump ed
is n
ge gen
ĠJa ke
âĮĭ .
v ia
Ġ18 6
Ġin ner
ach es
Ġben e
ĠB ir
Ġmit gebracht
Ġadd ress
ĠK Ã¤mp
ĠSte ven
Ġ200 1
Ġb uck
Ġdanc ing
Ġsecond s
ged acht
Ġt ries
Ġev ident
ĠC are
Ġste cken
Ġsuggest ed
Ġo x
ĠOl iver
Ġerled igt
Ġc ases
ĠK Ã¼nstler
ĠDann y
i at
oh le
Ã¶l ker
ad el
N in
Ġne ither
Ġfre m
C ome
ishm ent
Ġbeg ins
Ġin qu
Ġtrain ing
Ġprov ince
ĠS ub
ĠW artet
Ġmag st
ĠS tern
te ilt
ĠP au
ĠNe e
Ġbra ve
end ent
verstÃ¤nd lich
Ġev ents
Ġqu al
Ġt our
Ã¼ ste
Ġle iden
Ã¤u fer
w in
ĠA ward
ĠGlÃ¼ckw unsch
am ber
wh isper
Ġwill kommen
Ġlie bst
Ġfix ed
Ġkann te
Ġ4 5
ĠV e
Ġr ow
Ġent tÃ¤us
ĠS qu
ĠL ager
all t
a fen
Ġkind s
Ġl Ã¤ngst
ĠEin ige
Ã¤hl en
Ġverb oten
Ġp il
ĠB a
un ting
ĠR od
ĠSt uhl
iam ent
ig ten
lo gen
gew irr
Ġblood y
ĠK ate
Ġum gebracht
teil ung
ĠM esser
Ġse vent
ĠG rab
ĠSte uer
ĠT iger
enn st
Ġerfol g
v i
il i
p el
he ast
Ġb oo
Ġgew usst
ĠB rie
ge gangen
z um
ĠR Ã¶
ough s
Ġtra il
ĠSt ory
ĠS etzen
ĠS ollen
ĠM Ã¶rder
Ã¼t te
ĠÃ¼b el
Ġp ill
om a
ic er
Ġlead ing
ĠbeschÃ¤ft igt
z o
Ġc ards
ol fen
ĠInformation en
U nd
Ġkrie g
ad ing
Ġdevelop ed
ĠJ ub
Ġ18 8
Ġpr ice
itt ed
Ġp ool
ĠF Ã¼ÃŁe
Ġdown stairs
b ow
Ġv ac
ĠAn other
Ġrese arch
ĠR ick
S CH
Ġz us
p et
ĠC ool
rie st
ver standen
ĠFreund en
ĠPa ar
un s
Ġgleich en
Ġshow ing
Ġpur ple
ĠAngel es
ĠM one
Ġc ousin
Ġrelation ship
ĠB ang
Ġocc asion
az ine
ĠEd die
nd e
Ġ... (
Ġshout ed
Ġtele phone
ĠB ost
ĠG i
Ġex ec
ĠStimmen gewirr
Ġs alt
Ġze ige
ĠL ong
Ġimp ossible
ĠTer min
ceed ed
Ġdr Ã¼ber
s sen
Ġge p
ble iben
Ġ Ã¤lter
no te
Ġapp re
Ġg a
Ġfour th
ĠG as
Ã¶ff net
Ġf aces
ĠfÃ¤hr st
ĠAg ent
Ġnerv Ã¶s
ĠM Ã¼n
Ġcar rying
ĠWochen ende
Ġelect ric
4 0
ĠB ow
ĠNe ues
Ġk re
ĠB ast
Ġtong ue
on se
Ã¼ m
Ġerre icht
L et
ĠT oten
Ġer z
Ġhel fe
Ġinteress ant
ĠStre it
Ġforgot ten
M r
ĠB essie
ĠPlan eten
ĠI ll
ist r
Ġus es
ĠBar bar
w orth
ĠRed en
bab bles
Ġein gesch
ĠBr and
Ġ3 1
Ġir re
Ġbede uten
Ġinvest ig
ĠH ill
ĠK as
Ġne uer
ect ive
Ġ ;
ĠF eder
ĠR ud
ĠW Ã¤
ĠAl f
ĠPhil ipp
Ġinclud ed
w end
Ã¼ hen
i j
Ã¤ glich
ĠSch rift
we chsel
Ġabsolute ly
Ġper cent
b al
ĠBe vor
ent ial
ĠgrÃ¶ÃŁ ten
n ach
EL L
Ġab geh
Ġmedic ine
w are
ĠVir gin
Ġevery where
ĠIn stit
Ġbeg innen
Ġnimm st
Ġtriff t
Ġan sch
Ġniemand em
Ġrul es
Ġst ates
Ġpl ans
Ã¶r ung
Ġmot ion
Ġclim b
Ġwe ak
ret t
Ġf ashion
ic les
Ġlov es
ĠJ ess
Ġdar aus
ĠTr ink
ĠG reek
Ġpo et
ĠOb wohl
Ġdesc ri
er lich
ĠG ordon
ĠW id
Ġin dem
ĠL ake
Ġfind ing
k ung
ien e
Ġcompl ete
Ġc ities
ĠHÃ¼ hn
Ġbit s
ĠSchÃ¶n heit
Ġfif teen
Ġright s
ĠAll ah
ĠR h
Ġschle chte
ot o
ĠK amer
ick et
Ġangef angen
Ġi hres
Ġpract ice
s uchen
ĠE ind
Ġrep la
Ġf Ã¤ngt
ific ation
Ġn achts
Ġspe ech
ete en
Ġopport unity
Ġdr ag
ĠRicht er
ar ily
ĠC all
igh ter
ĠN orden
ĠR on
ĠYou ng
lau t
Ġger edet
ĠSus an
Ġ3 2
Ġh ieÃŁ
Ġwhe els
l ein
p he
ich ert
am as
Ġlangu ages
ĠS n
Ġgr ade
gl Ã¼ck
Ġship s
b out
uss y
Ġschre ibt
ĠSt u
f ig
Ġw ider
ill ed
Ġent schieden
ĠA f
Ġauf re
ĠVer f
Ġgef angen
ia o
Ġgem eint
Ġact ress
n ete
Ġr und
Ġbis her
Ġfre ut
Ġstay ed
igh s
ĠM aul
ot a
Ġschme ckt
Ġgr Ã¼
ĠBo x
Ġmal en
ĠHoff entlich
et a
Ġste h
ĠAl k
ĠGef angen
ĠWahr scheinlich
ĠRei he
ĠK art
iz ing
Ġda vor
Ġgesch lossen
ar ies
ĠTr ans
c ould
ĠG ro
il den
Ġoff ered
Ã¼nd et
ĠD oc
ĠRob in
Ġmount ains
Ġc raw
ĠL ife
wer den
Ġgew artet
Ġt ar
Ġg all
um n
Ġ198 0
ĠKe ep
Ġb omb
be w
' ,
ĠF ahren
Ġbrother s
Ġwe i
Ġo pin
ĠS ow
Ġsc rew
ĠEmp ire
ĠG riff
Ġal arm
Ġst yle
anch ol
f ish
Ġein geladen
ĠSch wer
oc rat
Ġadd ition
Ġges p
Ġlau n
Ġt ent
ĠC orn
hem at
Ġmod el
Ġp in
Ġhil f
Ġcent re
b ast
m ission
em e
Ġ 00
th ink
Ġver antwort
Ġex pen
ĠFr Ã¼her
Ġcond ition
ot ten
Ġst ruct
Ġwall s
ĠÅ ¸
Ġdrink ing
ĠC la
ak i
Ġw einen
ar on
al ie
ĠU ND
res sen
Ġoppos ite
ĠK uss
ĠWÃ¼r de
Ġl asst
Ġk ur
Ġkn ee
Ġlang weil
v iron
ĠH ad
Ġcook ie
Ġa ver
ĠGre g
Ã¶l f
l an
o ÃŁ
ĠG E
anz t
à ¥
Ġdre ht
Ġsh ake
Ġflie gt
Ġcor rect
m ein
ĠK urz
Ġappear ance
ĠHÃ¤t te
Ã¤ st
art s
Ġgehe im
ĠNer ven
k am
Ġd unkel
gen au
D e
ĠF ast
Ġrem ind
Ġgeb lieben
ĠH oll
ĠIn s
Ġbl ieb
alt et
S te
ĠZ ucker
ĠDe b
Ġad op
Ġwel cher
ĠM att
Ġhe aven
Ġs eht
Ġdo c
Ġsuccess ful
Ġe uren
Ġrem ain
ge zogen
anz Ã¶s
Ġstand s
ĠLe ider
ĠSonnt ag
we et
ri f
Ġsm iled
Ġeigen es
is her
Ġcontin ues
lo sen
ĠEvery thing
ĠBonn et
ĠBost on
Ġschw immen
ens ion
if el
Ġrec over
v els
Ġhon or
ĠL en
ĠGeh irn
ADU LT
ĠP ie
Ġn em
Ġk itty
ĠC ra
Ġzu vor
ĠKenn st
Ġstud ents
ĠM and
Ġar me
Ġsu c
Ġpre vent
Ġa ward
he e
ar beiter
ĠAl though
uch ten
ĠEr ic
Ġschw Ã¶re
Ġn omin
Ġcon v
ĠMasch ine
Ġm ud
il de
ĠBes onder
i ber
ir a
Ġmon ster
Ġdo ors
ĠVertrau en
B E
Ġf und
ic ans
Ġdec ision
Ġneigh bor
GE R
ins on
ol s
Ġshe ll
v ere
Ġc ott
ĠEx per
zz z
Ġbes che
r am
Ġp ants
in ct
Ġl ern
Ġide as
Ġdevelop ment
ĠFuÃŁ ball
ĠSie g
ze ichen
ob ile
ĠRoy al
ĠS id
ĠT itel
ĠZ igaret
Ġph il
ĠN E
Ġour selves
ĠR unter
Ġtr ansport
ather ine
Ġquiet ly
Ġmar riage
Ġstud io
ĠStr and
he ben
Ġgel assen
ĠKle ider
ĠM ah
Ġe chte
Ġr oten
W here
an ing
Ġc y
ere cht
um st
ĠHÃ¤us er
Ġb oss
ĠL y
ĠSta aten
ĠEmm a
Ã¤s ent
g gy
ond s
ĠSte h
Ġte ilen
Ġfl ag
Ġcr ime
ĠKrie gs
ĠMus eum
Ġbege g
Ġth roat
et was
ul s
Ġbo ats
Ġte uer
Ġeas ier
Ġauf passen
ĠW in
ĠKomm un
Ġerw Ã¤
ĠJoh ann
Ġgr Ã¼n
pl ant
Ġob viously
Ġcontin ue
Ġl hre
Ġak zept
an st
Ġre ing
ĠTr Ã¤ume
olog ical
Ġcoun cil
er c
ĠP unk
uch te
Ġhig hest
ĠDan ach
! '
Ġro pe
ĠDen ken
Ġsa ke
Ġ200 3
Ġw ahnsinn
B r
Ġb ike
ĠV ern
Ġres c
b ad
Ġp urs
Ġr ang
Ġvor n
Ġverw endet
ĠSe a
Ġbewe isen
Ġbeein druck
Ġnar row
Ġgeb rochen
Ġhelp ing
Ġyoung er
Ġnin ety
e ared
M an
Ġein igen
ĠW ert
ĠC lau
aw a
Ġverdamm te
y stem
st eht
Ġfl ight
Ġcont act
isp ers
hy th
Ġsusp ect
ĠD un
ĠB uck
Ġschool s
ĠWest en
c ream
ic ient
Ġl etztes
ĠBÃ¼ hne
ĠT ar
D as
p ill
Ġto ast
Ġmar ry
Ġm ail
ĠMad am
z ess
Ġe aten
ĠSal z
e ut
Ġl ap
ĠE R
ad d
ĠZu erst
Ġpap ers
ĠFÃ¼hr er
s ure
ĠM ake
Ġknow ledge
Ġwhisper ed
ĠCharl otte
Ġp our
uh uh
b et
ĠD O
ĠB at
ĠF ire
Ġschl Ã¤gt
Ã¤us che
Ġfr anzÃ¶s
Ġte lefon
Ġev il
Ġret ired
ĠSchr itte
Ġsh ook
up s
Ġbig gest
ĠÃ¶ff nen
u its
ĠSher iff
l ittle
Ġz oo
ĠAmer ikaner
Ġre ck
Ġges am
inn ie
ĠTe le
ĠÃ¼br igens
Ġfor ced
r ingen
ĠF OR
Ġnur se
ĠOlymp ics
ĠH mm
Ġ3 6
Ġwus sten
Ġcon cl
ĠRe c
Ġfle w
Ġparticular ly
Ġele ven
c raft
Ġn u
mitt ag
Ġlar ger
Ġverste cken
S p
ell ed
arbeit en
Ġmention ed
ĠW es
Ġl ab
ĠT ok
ĠK am
Ġge g
ĠJa wohl
Ġdirect ly
Ġseuf zt
ĠP ause
Ġgreat est
Ġerinn ert
g anz
ab et
Ġpr im
ĠKÃ¶nn te
2 5
Ġh ug
Ã¤ch st
Ġsett led
orth in
Ġfright ened
f iller
ser y
b aum
ou te
ra k
st ers
ĠAc ademy
m ack
ĠVer trag
Ġsit s
Ġstud ied
ĠD IE
Ġlos s
ĠD iv
Ã¶ pf
ĠÃ¼ber w
Ġsc ience
Ġexpl ained
ĠI mp
Ġv ocal
ipp ing
ĠMc C
ĠVerb indung
ĠwÃ¼n schen
Ġb ub
ehm t
ro ck
ing end
is ieren
ĠF ore
ĠZ w
Ġmehr ere
ĠPre m
Ġmet al
ĠCon f
Ġb au
gar ten
EN D
ĠD aten
ĠM aus
ĠP ot
Ġso ciety
ĠHa ppy
v ely
w alt
ov es
Ġposs ibly
ĠL Ã¤ch
no ds
Ġsome what
ĠDre ck
C hi
ĠS itz
kehr en
l ungen
Ġben ef
Ġz og
Ġschw anger
w asser
Ġp or
ĠWe ib
Ġge zeigt
qu es
bur ger
Ġinter rupt
Ġbetr unken
Ġbewe gt
ren ce
Ġrep ly
ag ger
ĠC entral
Ġwer fen
ĠMex ico
um ents
y ellow
ir ing
Ġkeep s
in er
ĠMar kt
Ġpre d
act ually
ĠL Ã¶sung
Ġa bend
ĠSt Ã¤d
Ġw ine
un ehmen
ĠUn ternehmen
Ġa unt
Ã¤d chen
ĠG irl
pl ane
Ġplay ers
19 9
an ie
ĠGe legenheit
ĠDr achen
wie sen
p ed
ĠSo gar
Ġ200 2
Ġdo zen
Ġres ol
ir affe
Ġsah en
g reen
ĠBr ingt
ĠA ben
Ġto wel
ĠGroÃŁ mutter
k wÃ¼rd
ĠW ay
ĠK a
ĠEr f
Ġdes ert
Ġsix ty
f ung
Ġg ibst
ĠO x
Ġbe auty
Ġtr ou
ĠwÃ¼n sche
ic y
sch ule
Ġim m
Ġdr amat
ĠT ab
ĠF ox
Ġexc use
ct ure
ĠSomet hing
Ġwill ing
Ġwind ows
s orry
us ik
ĠU k
we isen
ĠJack son
ĠJ ournal
E r
Ġfr agt
ĠKno chen
le hr
ĠUn g
Ġwait ed
ĠT ime
ĠApp laus
Ġrel ated
Ġanx ious
ĠEar ly
Ġp ages
Ġt ask
ĠH uh
ĠEhr lich
ed om
ĠZ wischen
Ġhol iday
Ġerkl Ã¤rt
s an
Ġfres sen
inn st
Ġgesch lagen
Ġbring ing
ĠAt t
Ġwr iter
s ilence
ul ous
ze uge
Ġzerst Ã¶ren
B ER
ĠV is
Ã¼ck t
at i
ĠH ard
Ġatt ra
ĠDa ve
u ly
ĠSch atten
Ġcomfort able
Ġb are
Ġgeh alten
B l
zeug t
ĠSÃ¼ den
ĠL E
ic ate
ĠPer fe
ĠFil me
ĠH ind
ĠA ye
Ġzu fÃ¤llig
Ġsp ort
wer fen
Ġavail able
erst ood
b us
Ġw eint
ie ll
Ġfor ces
Ġpat ient
â Ģ
ĠWÃ¼r den
schn itt
M ay
c ut
ĠPro f
viron ment
s ucht
OT H
Ġjung er
Ġinfl u
ĠVerantwort ung
Ã¼hr en
op ft
Ã¼ lt
Ġblau en
Ġhol t
Ġball s
Ġin vent
e kt
Ġm ill
ĠA bst
Ġerw achsen
bur y
und heit
ĠAnd ere
Ġsy mbol
asch ine
Ġmiss ion
ĠHo heit
Ġref le
Ġrepe ated
p ull
ĠS uche
ĠCarol ine
re ht
Ġpower ful
Ġcont ain
Ġmem ory
S E
Ġh om
we it
Ġerst mal
Ġ197 0
p ress
ack e
ĠVer stand
d ienst
ĠJ enny
Ġfair ly
r Ã¤n
ĠSt urm
ok rat
Ġballo on
Ġcl own
ĠW Ã¤r
Ġzie h
Ġb ark
Ġp ump
ag ner
str ument
Ġabsol ut
Ġsa v
ĠLe iden
Ġat tend
ank s
zus ehen
I LL
ed e
ĠC a
Ġafter wards
st off
ĠTo il
Ġdec ide
ch o
uck en
" ?
Ġb unny
Ġgeh olfen
ĠSold at
G ood
ĠF unk
Ġge fe
ĠhÃ¶ her
Ġsign ed
ig an
Ġteam s
Ġs ang
z es
Ġre ichen
Ġw aste
Ġb ump
Ġp itch
Ġgetr unken
ĠFl ugh
zu kommen
k es
ing ham
Ġdise ase
Ġsh opping
ĠÃ¼ber leben
k ling
Ġc it
ĠE lef
Ġserv ices
Ġver ze
ha ppy
ĠPak istan
Ġf urn
ĠGren ze
c ely
ĠSerge ant
ĠW ett
ĠH alten
all ed
Ġdist rib
h Ã¶
ĠB an
Ġsa ÃŁ
ĠRuss ia
ĠPort ug
im ate
ĠAn ruf
pl an
ĠT en
ump f
v iet
Ġb arn
ĠS ix
Ġf uhr
Ġc e
Ġsch Ã¼tzen
ĠFahr t
ĠI re
Ġver wir
ye ar
Ġbath room
ĠS aint
Ġtr unk
c ont
ct ors
Ġtr ib
ĠSec ret
Ġdo in
if ers
ĠEle anor
I V
ĠDr ink
Ġr ust
Ġab sch
ĠSchw ier
ĠBle iben
ĠN ancy
Ġkein em
Ġwed ding
ĠF air
ĠN etz
Ġperfect ly
Ġto il
Ġsil ent
ĠMilit Ã¤r
Ġw achsen
Ġdr um
Ġtra f
Ġb order
ĠK ino
Ġj Ã¼ng
um ps
i fen
r itt
Ġse es
ĠSch ild
Ġve get
Ġhal be
Ġa vo
ĠF ische
ĠC onn
Ġnin eteen
ĠB oth
ĠL iste
Ġr ings
Ġdes k
Ġdam n
will st
Ġwahnsinn ig
iz ier
Ġ à¤
Ġe igh
ĠÃĸ sterreich
ĠAlk ohol
Ġaller dings
ĠEngl isch
Ġf ought
Ġup set
mp ath
rie gt
Ġele cted
ĠS ally
ĠEins atz
Ġsp reche
Ġdies mal
ĠM i
Ġch est
ĠÃ¤ hm
Ġme ist
a ign
h ard
Ġst ro
Ġproper ly
ĠUnter schied
Ġsaf ety
ĠSchauspiel er
Ġpl us
Ġ18 7
Ġber uh
ĠPubl ikum
m es
Ġnur sery
ĠTre ffen
ater pill
l ic
ig te
ĠZ ahl
ĠBr ust
Ġdah er
y o
ĠK unden
Ġer lebt
Ġstr ing
Ġkont roll
Ġbis c
r ist
ad ian
ĠAl i
Ġw ow
ĠEr ste
Ġpro ve
if le
ĠAngeb ot
ĠwÃ¼s ste
ĠAnd re
E le
Ġt v
ul ty
ĠD ah
Ġvo te
ĠSp iegel
Ã¤ llig
Ġwar n
F AD
ĠSÃ¼ ÃŁe
Ġremark ed
as y
Ġcom b
ĠHow ard
ĠPfl icht
? '
iver se
ĠSte p
ĠDire ktor
Ġver fl
Ġacc ording
Ġd orthin
ĠWar en
ĠMann es
Ã¤n n
Ġwo hn
ly n
umm ie
Ġin no
ĠSchmer zen
e ilt
o cht
Ġgleich e
Ġr iding
Ġspr ang
t au
Ġhang ing
Ġglass es
Ġmeth od
Ġf ence
fl uss
ĠJu den
ĠS agt
Ã¤ chen
Ġb od
Ġab h
ĠVerste he
ĠAbs ol
u ar
ĠH ein
Ġbut t
ĠTr otzdem
av al
Ġjeden falls
Ġnam ens
fort un
Ġfal sche
ĠJ am
Ġknow ing
ĠR unde
ĠPr ime
ĠGut es
iet et
ĠR achel
Ġauf halten
Ġthought s
Ġsw im
W ho
it sch
ub a
ĠSchl imm
Ġvertrau en
le ge
krie g
Ġf oc
ĠM un
eh ow
Ġbeson der
Ġm och
ĠD ol
ĠGr ad
Ġsch ien
Ġbeg r
ĠCh in
Ġw ander
Ġm ate
Ġver Ã¶ff
Ġer laubt
ĠFre it
ĠMed izin
Ġt im
ĠRest aurant
Ġman ager
s ag
au nt
am an
ĠWho a
Ġnorth ern
Ġlaw yer
Ġd anken
ĠF ertig
Ġval ue
Ġauf w
Ġthe ory
ol ic
Ġcast le
ĠAfr ican
ĠFoot ball
ch ing
ĠLe gen
Ġ196 0
ĠPriv at
Ġent r
Ġfav our
el st
eh me
str on
Ġbekomm e
ĠR ak
Ġtro ops
mos ph
ĠB enn
Ġm ut
Ġn ation
ĠEx pl
ĠHÃ¶ he
ĠhÃ¤ ss
ĠCour t
d is
k Ã¶n
Ġd achten
Ġver teid
Ġman age
per or
Ġmag n
as hing
Ġn irgend
Ġsch lieÃŁen
th row
Ġcent ral
Ġresp onse
Ġhur ried
Ġwh ist
Ġblank et
Ġcl oth
Ġl atter
Ġremember ed
Ġpain ting
m ing
ĠE ink
Ġcan cer
ĠJ en
Ġn ap
ĠK ennen
Ġpre c
ĠS ara
ack s
ĠAnd rew
ak u
eld et
ĠB Ã¤r
ĠZ Ã¤hne
ond ere
Ġh orn
ĠAnn ie
l ers
Ġc ute
AN T
p lace
Ġ Ã¤r
Ġex am
yn am
Ġre ag
ĠC oll
ab il
ĠKre is
ĠSte llen
ĠNie mals
Ġh y
ĠS Ã¤
Ġwor st
anz ig
Ġeight y
ar te
ĠSt one
ĠFr ag
ĠErinner ung
ĠN an
ĠSo viet
Ġpre fer
Ġdefinit ely
Ġn ative
ĠN ap
Ġsch la
ol i
Ġsh ock
ag n
ro ad
Ġfe els
Ġbesch Ã¼tzen
a bend
ist isch
Ġaver age
ack er
ang el
ĠKe vin
ĠMond ay
Ġer ster
Ġpe as
Ġcont ract
Ġser ve
ĠArbeit s
Ġgentle men
Ġw ings
ĠD own
ick ed
Ġpass ing
ĠInd ians
ĠIre land
ol n
ĠSp Ã¤ter
ĠInter esse
Ġp ushed
ĠR is
ĠSo bald
kar te
c at
ĠJohn son
Ġtyp es
ĠT op
gel assen
Ġeff ort
Ġconcern ed
id i
Ġappre ci
IG HT
Ġgeb eten
Ġne at
Ġbur st
ĠKell er
Ġgre ater
Ġhear ing
Ġsold ier
ĠHit ler
ĠBr ingen
ĠP ac
Ġh ook
ot er
ol en
ant age
_ .
Ġs ite
Ã¤ te
ĠAl right
Ġinclud es
Ġthr own
Ġmo der
sh ow
ĠBahn hof
m aking
Ġt ip
ĠV en
ĠAcc ording
ĠÃ¼ber legen
ĠGes undheit
ĠAbend essen
Ġschaff st
Ġi lle
Ġle gal
ĠEin mal
Ġpen cil
ĠP ete
Ġwir kt
Ġpre sence
ĠAl t
ĠGr as
ĠA T
ĠkÃ¼mmer t
ans as
Ġg ay
Ġk ochen
te ile
ant on
ri pt
Ġinter view
Ġdurch einander
Ġdisapp eared
Ġs amm
os ion
Ġpress ure
l ow
Ġt or
Ġr are
ĠV om
Ġwo her
Ġdesc ribed
Ġt id
ep ing
ĠN ight
ĠIde en
Ġwas hing
J ES
d raw
i ents
ĠS ab
ĠE ing
ĠAfri ka
Ġdu mp
Ġsch afft
Ġmag net
Ġfail ed
Ġth er
Ġth in
ĠSt reich
j u
ch nung
Ġde but
bast ian
ro g
Ġverm isst
ĠE ach
ĠSchw eine
ĠEv a
m orrow
tell igen
Ġp ein
ĠNe ben
lie der
ĠDon ald
ĠDor othy
r ison
ĠFl oren
ĠPfl anzen
klÃ¤r ung
re ise
Ġversp reche
Ġan ziehen
Ġmatter s
ĠTerr or
Ġfre qu
Ġwel chem
ĠKrank heit
d addy
e at
Ġreal ize
Ġkne es
ĠPat rick
uck t
Ġste lle
Ã© e
Ġdes er
h il
Ġf ired
ra ine
Ġein sam
ĠO s
Ġfeel ings
Ġreport ed
zwe if
at ory
re ck
ĠW ater
Ġs em
ĠTh or
Ġdr ingend
fr om
Ġsche iÃŁe
Ġkn app
ĠF ine
Ġein st
ĠP olly
ah le
Ġpropert y
ang ers
Ġsm iling
Ġw ished
Ġsch rieb
Ġbit ter
ff ic
ĠDar auf
Ġm hm
os se
ĠGra ce
ĠJed es
Ġknock ed
or f
ur al
Ġm ile
s ache
Ġm ummy
Ġfor ms
se it
ĠTod ay
Ã¤ ub
ĠG rie
Ġro te
ĠNie der
Ġf ully
sch ool
ĠSch ade
ĠM Ã¤us
ĠK auf
Ġf ancy
wel che
us es
ĠG ep
ĠG il
ĠIs n
Ġobject s
ik en
Ġschre ien
Ġdank bar
sch rau
Ġjud ge
ĠErfahr ung
ĠKl opfen
w alk
ĠWoll t
y up
Ã¼s st
Ġentde ckt
p ret
Ġp izza
Ġign or
Ġbre chen
ĠGef Ã¤llt
Ġverantwort lich
ĠS om
dre hen
ĠIs lam
lieÃŁ t
Ġopin ion
s ix
Ġerfolg reich
Ġunter halten
ĠDen kst
ĠKn ie
Ġge stellt
rei ft
h ar
Ã¤ me
ĠKat zen
ĠRel ig
Ġst Ã¶ren
Ġbring st
ĠRo sen
ĠE llen
ĠN ice
c od
Ġc ats
Ġman che
Ġvor aus
ĠM A
Ġv essel
Ġre lease
ĠAustral ian
ĠE i
ĠRe be
Ġerled igen
Ġscr atch
ĠL ater
ob by
ĠLu ke
Ġf ishing
ĠÃ¼ber nehmen
ĠBe at
tel n
ĠBe z
ĠerzÃ¤hl te
ĠMÃ¶ chten
st ru
b ling
ĠB eth
w ollen
Ġmicro phone
s ein
Ġw an
ang le
od ie
ag ing
Ġte xt
ĠP ra
au fe
Ã¤ gst
ĠFrancis co
ĠL ab
ĠMein en
Ġdra wn
" ]
ĠW isst
ĠL inda
Ġr uss
Ġpre vious
ĠÃ¼berras cht
ĠKug el
iss a
Ġaff ord
Ġg Ã¤
opp er
Ġt ied
ĠJ ahres
ĠBesonder es
à ®
ĠH ot
Ġz Ã¤hlt
ĠMÃ¤d els
Ġg ross
ĠL og
Ã¶ m
Ġexp ress
Ġkost en
er o
ĠS O
ĠGra f
ĠSt ich
ap es
B C
et wegen
Ġwe chsel
ĠWir tschaft
ĠSchok ol
N E
at oes
ĠEle kt
Ġd icht
re y
ĠS em
et ing
Ġwonder ing
C hr
ĠL etzte
Ġkind a
Ġbeh av
U ST
Ã¼ ten
Ġgesch ieht
Ġsouth ern
ust en
k or
Ġmit kommen
oot h
Ġestabl ished
d el
ĠB lau
ĠO sten
ĠVie t
ĠBro ok
z usch
2 3
ĠH aufen
Ġshould ers
ou ds
Ġst aff
ĠGer ade
Ġclear ly
Ġcharac ters
ĠLe w
ild et
ĠÃ¤ uÃŁ
ĠA ffen
Ġdro ve
ĠBarbar a
ro se
ĠVerschw inde
ĠAl an
Ġthrough out
Ġ199 9
Ġbec oming
ĠMax e
Ġo cean
Ġaus ges
ĠMasch inen
Ġbekomm st
ĠH ER
Ġfreund lich
ĠW alk
Ġart ist
p fl
Ġfamil ies
rop ical
t ry
am ing
ĠJag d
C T
ĠE th
Ġreal ized
inc oln
ĠRy an
Ġvoll kommen
Ġ202 3
ĠNob ody
we iÃŁ
ĠA kt
ĠPro jekt
Ã¼mm ere
ar zt
ĠAr beiter
ĠIr an
ĠDeut schen
Ġbe ast
ĠR ett
ian ce
r om
ĠPur die
ĠK ent
ĠAl te
Ġact ing
ĠE p
Ġvor hin
ĠMÃ¶ chtest
Ġli ber
ĠNach mittag
ĠPres se
ĠSt off
ĠHinter grund
ck st
ff er
Ġlang er
Ġrequ est
b ot
ĠN ag
ĠHin tern
P apa
ĠKl Ã¤nge
ĠScot land
Ġdetermin ed
Ġdre ad
Ġdeut lich
Ġauf gew
ĠZ ehn
r ible
Ġfig ures
Ġsoft ly
ad or
bar en
e i
Ġo bt
ĠAut or
k raft
n ie
Ġmel den
Ġwe ird
Ġother wise
re ally
CH EN
Ġhe av
ut o
mar kt
Ġque en
Ġwe stern
Ġkl ug
ĠBut ter
ĠB Ã¤ume
ĠVer r
ĠDam als
ĠPrÃ¤sident en
ĠFlugh afen
st est
Ġverst eh
Ġbur ied
p ie
Ġsw ing
Ġbew usst
en ken
ul ations
Ġbo ots
ar ten
ig ent
eh re
ĠT unnel
se ite
ĠweiÃŁ en
Ġmach ten
Ġdr innen
Ġs inn
it ory
Ġet c
ĠSchl acht
Ġinde p
à °
l as
au d
Ã¼t ter
ach ed
ĠL ock
ultur al
Ġphil os
Ã¼ p
ĠF ass
ĠN est
Ġfr Ã¶h
Ġfriend ly
ocrat ic
b auen
Ġa ft
I ER
ĠBr other
ĠIdi oten
ĠJeden falls
ĠAben te
Ġso bald
ĠZ oo
ĠSt Ã¤r
W E
Ġw ise
Ġcook ing
ĠHa w
Ġk Ã¼mmere
Ġno vel
op ter
ha fte
ĠFreit ag
Ġf anden
Ġk Ã¼ssen
Ġend s
Ġexp ression
Ġg n
Ġfal schen
uck les
Ġentire ly
ĠK urs
ĠP or
Ġtra vell
Ġv eh
Ġsch na
ats y
Ġk auf
ĠBud d
lo ÃŁ
Ġf ac
Ġgar age
Ġj oke
Ġsp osta
Ġfore ver
ĠRo ad
z el
ign ed
ĠHalt et
Ġdoll y
ĠRicht ige
Ġste hst
Ġposit ive
Ġd ying
ĠZ wer
ie ber
Ġobser ved
ĠGentle men
ĠH ammer
ĠUng laublich
A B
Ġtouch ed
ĠLat in
Ġun w
Ġli br
ĠstÃ¤r ker
Ġt ummy
Ġs ink
ĠPerson al
ĠVer kehr
ĠEinz el
Ġunivers ity
GE N
Ġepis ode
Ġschuld ig
2 2
not hing
ĠX X
Ġ[ $
bre cher
k aufen
ĠA sh
Ġb ein
ĠA ri
ol o
Ġwo anders
Ġsc reen
ĠEhe mann
Ġsp iele
Ġgehe iratet
p ert
ĠA pfel
Ġeinz el
Ġtre m
ĠSpr ing
re den
Ġgo al
P ro
chen kt
ett s
ĠPe ggy
ĠFl ucht
Ġtalk s
s ung
ĠM Ã¼he
ĠA le
Ġthr owing
Ġfast er
Ġd iam
ut sche
ĠP ip
ĠAd resse
Ġsign al
Ġwit ness
ab out
re me
Ġdis k
orm ally
halt ung
erd ings
Ġmix ed
n ungen
it Ã¤ten
sp ect
Ġad mir
Ãľ R
Ġha mmer
Ġpre par
b itte
ĠK itty
Ġt ur
Ġein f
ge he
r ige
IN E
r it
Ġre asons
Ġb ug
Ġverp asst
Ġpr ot
Ġresp ond
Ġwichtig er
ĠDonn er
ĠP ist
ĠJon athan
h ÉĻ
ĠBÃ¼rger meister
z ed
Ġn ick
Ġprodu ction
ab hÃ¤ng
ĠF ord
ĠL incoln
Ġklapp t
Ġfr ied
Ġst ones
ĠKar riere
Ġdeut schen
ay ed
ĠPro gramm
Ġterr or
Ġpra kt
Ġme as
ĠA ld
ĠG O
Ġcamp aign
ĠO pen
Ġsp orts
ĠÃĸ l
ĠJub el
Ġex erc
Ġdam age
Ġsw itch
ĠTre ppe
ĠM eth
Ġplan et
ĠF ive
who a
ĠlÃ¤ch erlich
ĠS ack
ĠA men
ĠSch Ã¤tzchen
Ġeben falls
U G
Ġso zial
ĠSch rei
ĠArt ikel
ĠL Ã¤ndern
ĠCan adian
ĠH ub
on ly
Ã¼ chte
ĠVerd amm
Ġinst ant
Ġstren g
bild ung
n el
p asst
Ġw eht
Ġan zu
z ert
and al
the w
ĠIndian er
ĠVirgin ia
ĠGovern or
Ã¼ hre
ĠT ay
ĠWill en
Ġpoint ed
l ings
ha ften
Ġexc it
Ġeng l
gef ahren
ĠÂ ·
ĠfÃ¼hl te
Ġb ast
Ġp fe
ĠL iter
stit ution
Ġg host
ĠW ork
ĠV ideo
gh an
ĠFel ix
en der
Ġein ander
Ġbrill iant
er ie
st ant
ish op
ict ed
Ġgel aufen
ĠHel p
Ġdark ness
Ġw ahre
ĠD isk
Ġy ard
ĠSchwier igkeiten
b Ã¼
ĠJ ason
Ġat met
ĠDa von
J ohn
ĠW itze
ĠL ara
Ġer le
Ġfamil iar
ĠBel g
Ġr ise
Ġopen s
Ġconf irm
ĠMarg aret
ĠH ay
ĠHel den
Ġform ula
Ġke ys
Ġb unch
ĠDist rict
Ġs oup
Ġi di
ĠS ophie
Ġwen ige
ĠLi ppen
Ġbox es
Ġdeg ree
Ġs att
ĠM em
Ġmir ror
AN N
Ã¤h ig
ĠLang sam
Ġb oun
Ġcomm unic
Ġp riest
Ġund erstood
ott y
il ig
ĠBru ce
ĠSÃ¼ ÃŁ
Ġpolic y
f lich
ĠâĢ ¢
Ġin hab
Ġacc omp
ĠJed e
ĠFranz Ã¶s
Ġg iant
Ġlock er
ĠH ass
k eln
ĠN ehmt
etz ung
Ġfe ather
Ġpoin ting
ĠSam stag
ĠLou ise
Ġf ond
ĠRuss land
Ġbr anch
Ġsepar ate
ĠAll erdings
ĠSol ange
d et
ra ben
Ġgather ed
ar ian
Ġent ertain
ĠW omen
ĠL abor
Ġcr own
ĠHol t
Ġpull ing
Ġdiv ided
ĠNe xt
Ġ199 2
Ġmain ly
Ġwav es
ab oo
Ġh unt
Ġr at
ad em
Ġex amin
Ġpart ner
Ġvo ices
mÃ¶ gen
ĠKÃ¶nig s
Ġme chan
ĠFahr rad
Ġb or
ĠK ultur
ĠAg ain
Ã §
Ġre ink
ĠLe iche
ĠSe ien
ĠMus l
ĠWil hel
Ġeffect s
ĠG anze
ĠBab ys
k le
Ġw ore
ĠE st
ĠZ ahlen
tr agen
Ġsign ific
ĠCla ire
D id
ĠM olly
Ġtre ten
Ġcar riage
Ġcr ash
ĠH ong
id ents
Ġdro ps
ob il
ĠweiÃŁ e
Ġen vironment
Ġbest Ã¤t
ĠPier re
Ã¤t ter
aterpill ar
âĮ Ī
ĠW ovon
ed ing
ĠY et
guck en
ĠErinn erst
au to
Ġpl astic
kehr t
Ġshoot ing
m iss
n itten
ĠW AS
ĠGegen teil
ĠFloren ce
g elt
ur ies
ber ries
Ġmorgen s
uf ig
Ġstay ing
ĠW ich
Ġth umb
Ġc a
ĠH art
Ġbuild ings
AL L
ĠHolly wood
ĠS ah
Ġacc ess
igs aw
Ġa partment
Ġh opp
Ġj etz
ĠBar on
Ġc oin
ĠA ff
ĠDe cke
fÃ¼hr t
rie ster
play ing
u elle
ov ing
ĠBrit ain
Ġwicht ige
Ġan ges
ge fallen
Ġ ere
Ġpro gress
Ġsec urity
Ġactiv ity
Ġent h
ĠAmer icans
Ġcirc umst
Ġinflu ence
lau ben
Ġ199 6
Ġr Ã¼ck
ten ds
Ġzw Ã¶lf
am my
Ġbr and
ĠKÃ¤ se
Ġand ern
ur op
ĠK ohle
ĠTe ile
ĠWil son
Ġw elt
Ġ199 8
Ġpull s
Ġstr anger
Ġdestroy ed
b i
ir o
ĠL iz
ĠBeck y
p ick
Ġo pt
ĠIn n
stell er
st ar
ĠC ow
Ġeinz igen
ĠScher z
8 0
en te
ĠTh ink
Ġste igen
Ġrece ive
ĠG ift
ag het
Ġr ib
Ġmag azine
Ġtra ctor
Ġhund ert
Ġlangweil ig
ĠSt ad
Ġverl angt
ĠGes ang
w ert
wh ispers
ost er
Ġkennen l
Ġtrans l
Ġperform ed
. )
O n
ie v
B I
B ahn
Ġbes orgt
ds inn
ĠGest ern
ĠZust and
a ah
Ġden k
sp er
ar nt
Ġf old
Ġas ide
Ġbrau chte
ĠR un
ĠTr Ã¤nen
igg les
anchol ische
W hen
p her
ĠT alent
ow der
Ġmind est
Ġadv ice
ĠK id
Ġl ack
are st
ĠPhil ip
Ġdat a
om ach
be wer
Ġdes ire
H ere
ph y
Ġtra ins
g liche
Ġver bringen
ĠBere it
n ers
ĠO sc
ĠF ang
Ġle gt
ĠSh it
ĠComm ander
Ġcurr ently
ĠP uppe
ĠUm stÃ¤nd
an ches
ĠMont ag
Ġfeat ures
el ten
ast ed
Ã¼ l
Ġact ive
ĠSpann ende
Ġ[ .
Ġge Ã¤ndert
Ġrecord ed
ĠPerson en
Ġgleich zeitig
riff t
ark s
se x
be y
ĠSe bastian
Ġcop y
Ġpay ing
ĠDis ney
Ġnewsp aper
al i
Ġfolk s
ĠCh air
RO Z
Ġw ave
ĠW esen
akt ion
Ġsow as
cc a
Ġcompan ion
ĠKÃ¶nn ten
2 1
g ert
ĠW ed
ĠB ase
Ġso cks
Ġlaw s
A mer
Ġf assen
ĠH ell
ĠSt ief
Ġ4 00
Ġsle pt
Ġw rest
ĠMar s
Ġaus einander
ĠGr oup
Ġc ock
Ġslight ly
ĠB ade
sch utz
iÃŁ chen
ĠBe ide
ist ent
Ġto es
Ġverschieden en
Ġhid den
Ġexcit ement
Ġcomm un
Ġb um
ol z
Ġum s
Ġandere m
Ã¤mp ft
h um
ĠN ina
Ã¼hl en
ĠVerb rechen
ĠB ook
Ġfair y
Ġd ish
ich i
Ġhinter her
Ġt ough
Ġl oose
Ġkill ing
Ġy o
ĠZuf all
M e
ĠMus ic
Ġmed ical
ĠT enn
ĠC as
Ġtr ug
ee ch
Ġgra ve
Ġirgend ein
ĠErw achsen
ink y
Ġ199 5
ĠWilliam s
v oc
Ġy ards
ĠSh ut
Ġzie he
Ġiss ue
ĠMe ilen
Ġmer ken
Ġsw ord
for der
Ġw ag
ĠE re
ĠL ot
l Ã¶
ĠC ongress
Ġsch arf
ell t
ĠVer wand
Ġbr ennt
anc ing
ĠBer ge
Ġpein lich
Ġges chenkt
Ġwonder ed
Ġcup s
fÃ¼hr ung
Ġre inge
Ġmit t
Ġown ed
A G
ĠT own
Ġsch lau
Ġum sonst
per rt
ĠSchnell er
G e
om pl
ĠVer teid
Ġ199 4
ĠBur g
zwe i
g ly
Ġcre ate
Ġdad urch
kann st
Ġv ir
j ahr
Ġappar ently
Ġhand elt
A K
ĠInd ust
az ieren
ent h
ateg ory
Ġuse ful
en z
Ġnach gedacht
Ġaw are
Ġbehand elt
4 5
ar at
am me
ĠFl Ã¼gel
Ġan al
Ġme asure
ĠSp ur
Ġad min
ĠM oo
Ġ x
Ġsch reibe
Ġpro ved
ĠS H
Ġdes per
ord an
Ġcour age
Ġatt ract
Ġlad der
Ġmatch es
m uss
n ic
Ġspiel te
ĠMitt ag
ĠLar ry
T e
Ġrec ently
Ġlock ed
Ġschwar ze
it ive
Ġf ier
Ġsch ade
sp rechen
pt on
Ġen cour
Ġsure ly
t alk
ĠM ess
Ã¤ ss
lock e
Ġwoo den
Ġschw ach
Ġc ulture
Ġgek riegt
ĠSter ne
eh mer
ĠEisen bahn
Ġm amma
Ġp ic
Ġown er
II I
ĠSec ond
Ġvern Ã¼nft
Ġcompan ies
k iss
Ġsag test
schrau ber
Ġmindest ens
P er
ĠNa z
Ġdre ams
c ow
or ia
ĠT urm
Ġspec ific
d at
ĠW atch
al and
Ġvorbere itet
ĠD omin
ĠUn glÃ¼ck
an che
ĠVer lo
ĠAs ia
ĠInter ess
ch oo
Ġg le
ĠD Ã¤
ĠKling t
ĠR ap
Ġstre ets
Ġre iten
ĠWe ge
Ġ199 7
L I
Ġauf machen
Ġstub s
ĠAs soci
ĠGeb iet
Ġcray ons
j an
Ġbe leid
Ġcol our
st one
el ine
ĠFreund schaft
Ġtot ally
Ġverdamm ten
be f
erst in
m il
Ġrem oved
Ġrie cht
ĠT ank
Ġbess ere
Ġg ently
ĠWal es
Ġamaz ing
vocal ize
IN D
ĠKolle gen
Ġn utzen
ĠSt ation
ott ed
Ġbod ies
Ġhol es
ĠDid n
ĠLe ib
O f
ĠVor wÃ¤rts
O P
Ġsh ame
ak ter
Ġar men
Ġburn ing
ĠEr k
Ġent gegen
he il
ĠKom p
Ġperform ance
ĠA br
ĠR ennen
Ġsch ickt
Ġbec omes
ĠGrÃ¶ ÃŁe
Ġt Ã¤glich
Ġzwe imal
Ġcut ting
Ġdest o
n ice
Ġver Ã¤ndern
Ġ3 3
Ġle bte
an en
au a
ĠD iana
ĠF inn
ill ing
ĠB omb
Ġauf geben
Ġch allen
ĠPf arr
Ġjump ing
c ase
Ġso re
ven ue
ĠI II
ĠÃ¼ber s
ĠâĮ Ĭ
Ġg rie
Ġc ash
ĠEr geb
alt y
komm st
Ġlisten ed
Ġge zogen
Ġdau ern
ĠVier tel
Ġcl oud
ĠCl ark
rem ember
Ġlift ed
Ġbit ch
itzer land
ĠKil ometer
ĠVor stellung
Ġstop s
Ġste pped
ig ator
Ġzu recht
wo hnt
Ġb iÃŁchen
Ã¼r zt
ĠUn i
haft et
Ġsch ief
Ġhor rible
ĠGÃ¶t ter
n ope
ĠH ug
ĠUnd er
Ġgew alt
Ġgew innt
Ġt a
ĠI hres
ĠN O
Ġ199 1
D er
Ġfield s
ĠP in
Ġfehl en
ot tel
Ġz ahl
Ġstat istics
ĠGeschÃ¤ft s
e chen
Ġu pper
Ġk or
ien ces
Ġgr ay
Ã¤m t
Ġp ure
Ġre view
sen se
Ġsp ite
Ġresp ekt
Ġcur ious
Ġindivid ual
em on
ri en
Ġcl ouds
s ind
w ere
Ġair plane
m ut
on ders
Ġv ent
ĠK och
av a
Ġc urt
ĠBer icht
gef Ã¼hrt
Ġrelig ion
ar ren
ist ry
ĠÃ¼ber legt
ok ed
erne ath
geb ung
Ġmer kwÃ¼rd
F ras
Ã ´
Ġw ette
ĠÃ¶ fter
Ġc raft
urt le
Ele anor
Ġan gesch
Ġre ve
ĠPr ot
ĠZwe ifel
Ġfore ign
Ġequ al
ĠBlÃ¶ dsinn
on ne
ĠSp ielen
Ġo dd
Ġzum indest
Ġhel ps
icht er
ĠBed eut
b oo
Ġsy mpath
ĠGovern ment
Ġz Ã¤hlen
Ġst omach
komm e
ĠSw itzerland
b ird
Ġent kommen
Ġweek end
Ġschwar zen
Ġweap ons
ĠG laub
Ġun schuld
ĠBe weise
um ed
mÃ¤ÃŁ ig
al o
Ã¤ hm
laub nis
ĠL im
ĠZ usch
... "
Ġpap a
gl as
ĠDu ke
Ġbef indet
Ġcreat ure
Ġs isters
ues day
Ġindep endent
ĠA y
Ġer r
Ġoff iz
Ġprison ers
Ġrelig ious
b ank
ĠA wards
um ph
ask a
tr itt
Ġenjoy ed
Fras er
ĠW Ã¼ste
ĠCl ar
ĠSen ator
Ġf aint
ĠK Ã¶
Ġtr ink
n ur
Ġexpl od
ĠD ra
ĠW he
Ġnerv ous
m outh
ur ance
ĠAn zug
ub s
Ġge Ã¶ffnet
ĠZ entr
qu is
Ġverh indern
ĠBot schaft
ĠB ird
Ġam Ã¼s
sh ine
Ġstud ent
Ġc ouch
Ġsqu e
asp ed
Ã¼ch tern
k ampf
ou ver
or te
ĠA z
Ġto oth
Ġlieb te
ĠBle ibt
Ġstri ke
ĠSch auen
ĠKom pl
aghet ti
Ġl ord
v Ã¶lker
Ġgew Ã¶hn
Ġdre ck
Ġwel ches
Ġindust ry
ĠU s
Ġse ction
Ġwound ed
Ġl at
ag ne
ĠComp any
ĠUnter st
Ġschle chter
Ġintrodu ced
ĠL Ã¤nder
Ġob lig
ch air
ĠS icht
we iÃŁt
rie t
Ġsch Ã¤tze
be g
ch ange
Ġfr isch
Ġcom bin
d lich
ĠFre ut
Ġgrad u
Ġque er
ĠOr igin
Ġj agen
Ġkon zentr
ĠSo zial
Ġpr ima
Ġlearn ing
Ġersch ossen
Ġlead ers
us ing
Ġauf zu
Ġpick ing
m i
w ers
Ġel imin
unt ary
ĠMor gan
ĠT aschen
ĠSt amm
Ġsort s
etz ten
Ġdr ama
j emand
den ce
gew alt
f ire
Ġ ï¿½ï¿½ï¿½ï¿½
ĠÃľ br
ĠR ub
Ġnet work
zust ellen
ĠSch ande
ost en
ĠSchwar z
ĠO w
Ġ1 000
ĠFall e
ĠLÃ¤ch eln
ĠN ett
ast rop
ĠCol umb
o sen
Ġo ber
ĠC ass
amm lung
Ġfro gs
Ġinv ited
ĠEind ruck
ĠS um
os es
Ġclos ely
Ġsom ehow
2 4
ĠW Ã¼n
Ġher unter
ĠSt eine
so ft
Ġbr anches
I ON
ot es
ĠL Ã¼g
Ġcon fess
Ġrapid ly
H R
ĠG ames
Ġland ed
Ġaut o
l ast
ĠBar ry
Ġinte llig
Ġersch re
m ans
ĠD ate
Ġg az
ĠA ren
ur ren
Ġbre aking
ĠPar ad
Ġres ist
Ġf ox
ĠB lock
Ġtra ffic
Ġ15 0
Ġrepla ced
Ġh unting
Ġdiffic ulty
Ġm ort
ĠkÃ¶n ne
Ġgebrau cht
ĠVer halten
ĠFein de
Ġrespons ible
Ġtar get
T r
ĠN ahr
ĠR al
Ġleicht er
A I
Z T
Ġend et
Ġres ults
gl Ã¼cklich
f ind
eh old
ile y
ĠE xt
Ġj igsaw
Ġorigin ally
Ġrequ ired
Ġgeg laubt
ĠF an
Ġgreat ly
ĠFe ier
iz ieren
Ġb ieten
at ic
ĠP ack
Ġge z
ĠPro st
Ġpupp y
de ck
Ġch ick
Ġpartic ip
Ġt ausend
Ġh ills
Ġgo at
Ġstand en
ĠIr ish
urs day
Ġbene ath
Ġexc ellent
ane ben
ĠHann ah
g roÃŁ
Ġd Ã¼n
oll o
rau t
Ġde part
to gether
ĠWÃ¼r dest
ĠTsch Ã¼s
ĠLew is
ĠD um
ĠSchl ampe
Ġtri al
ĠSy d
Ġy yy
Ġein sch
un ts
5 00
W as
Ġst amp
Ġw ra
M usik
Ġb elt
Ġsp are
y ay
Ġcook ies
sie hst
ĠH ome
Ġr ush
ĠR itter
Ġhe sit
Ġbl ame
Ġsweet heart
ĠG itar
Ã¶ te
ik i
Ġm ap
j amin
Ġc redit
ĠfÃ¼hr te
hold s
ĠCath olic
ĠFig ur
h le
gel aufen
Ġeben so
E in
a he
Ġchair s
ĠFol gen
Ġtoil et
ab ility
Ġschm utz
Ġm ama
ĠW end
ĠSpr ich
Ġoffen bar
ĠKore a
ĠWar st
ĠWer den
Ġadv antage
Ġhors ie
Ġscar cely
il ty
Ġun us
Ġhab it
ĠGen ug
ĠMos es
gel ernt
ĠnÃ¤ch stes
ĠAl ten
Ġster be
M ED
ĠY e
ĠwÃ¤ hlen
ĠFe ig
A re
Ġg ang
la x
Ġbes ides
ĠSchwe stern
ĠEn kel
Ġn ormally
Ġgr ant
Ġneigh bour
ĠH up
ĠK ab
Ġre act
Ġer leben
fol ge
Ġille gal
E x
b ir
ĠWo fÃ¼r
T H
re es
ĠF R
Ġ( ;
Ġdr unk
Ġunter schied
Ġn ut
ĠU nt
r un
ĠM ust
Ġele kt
6 0
à ³
Ġroom s
gere gt
en ing
Ġm urm
ĠLe ave
Ġcont rib
ausen de
ke ys
ĠSt ay
Ġsystem s
Ġtreat ed
ĠmÃ¼s sten
ail ed
Ġbag s
Ġvict ory
ĠGed uld
ste ckt
ĠNachbar n
ĠN ation
Ġwas chen
Ġm ole
un te
ĠC ross
br idge
Ã¶ff el
ri ften
ĠAl arm
Ġp ale
ous ers
Ġcont ent
Ġevident ly
geb aut
Ġlon ely
h u
Ġa er
ĠPr Ã¼
cept ion
al ien
qu em
Ġsupp ly
Ġsow eit
ut ions
Ġgl ance
schl Ã¤ge
ĠKell y
or gan
Ġab holen
Ġle gend
ĠÃ¼ber t
Ġrem ains
ĠK N
ist in
Ġ195 0
Ġspl end
ĠSkla ven
ze iten
Ġro y
ĠSh ould
ĠAny way
Ġsch affe
Ġver haftet
Ġ198 9
ch a
Ġch annel
Ġbes orgen
Ġpal ace
ĠKart off
ĠWir st
ĠDa vis
ĠSchl ange
Ġshel ter
F l
ĠD au
Ġdem onstr
ĠJul ie
ĠGe bt
av es
ĠSpe zial
Ġaccept ed
Ġcompet ed
un a
ĠC her
ĠC ousin
Ġwas hed
w Ã¤
ĠIn vest
Ġlos ing
ru fe
Ġplann ing
merk samkeit
om i
ĠPl Ã¤ne
Ġbel ief
Ġmin ister
Ġspl it
j et
Ġverl iert
Ġspr ingen
ĠGew issen
ĠPf und
Ġpri ze
z ellen
el ing
ĠErinner ungen
m ord
sch ne
ĠAu ÃŁen
Ġnear er
ĠMensch heit
ĠSchre ck
ĠHex e
Ġt in
Ġa im
Ġaw ake
C A
m aschine
Ġeinz ig
Ġord inary
c are
Ġbeen den
Ġra ise
turn s
or i
ren e
ĠMar tha
ĠCl ara
ĠP riester
ĠR ache
ĠSe chs
ord in
l etzt
sp ielen
ald s
Ġeng aged
Ġrecord ing
ĠEvery body
Ġmoch te
2 7
Ġw ipe
Ġb ones
ĠHe ad
ĠGr ant
ĠGesch mack
Ġcapt ured
ĠSyl via
Ġfantast isch
Ġsour ce
Ġhas st
Ġ3 4
les en
Ġhands ome
Ġs aus
he ld
ĠNach dem
Ġkennen gelernt
we ile
art ment
Ġcomm er
Ġlie st
geb rochen
Ġrecogn ized
Ġch ew
nes day
Ġs ets
is ions
ĠSch uh
poin ting
Ġtro cken
ch ant
Ã º
Ġh ind
ĠB ol
Ġdog gie
ĠFeuer wehr
P l
il ities
ĠAll en
ĠChe m
ĠNorth ern
ĠIrgend wann
ĠD og
Ġdr ug
ĠParl iament
d ies
u ous
Ġb orrow
ad ition
Ġa x
rat ive
ĠNÃ¤ch ste
ĠBom be
b Ã¤r
Ġz un
Ġr ushed
Ġex t
ĠÃ¶ff entlich
Ġlibr ary
Ġst icks
ĠCent er
ber s
Ġge plant
Ġsel ben
Ġprov ided
h Ã¤
Ġd us
sch uss
ĠWor auf
EL S
ĠOt to
ĠE w
Ġver rÃ¼ck
Ġeat s
Ġpres ently
ES S
Ġe urer
Ġsch aut
Ġli qu
Ġmus ical
ah hah
ĠC ook
ĠAuf merksamkeit
ĠauÃŁer dem
ĠNor mal
Ġdeut sche
Ġw ire
sch Ã¼ss
Ġshow er
ĠSchÃ¶n e
Ġsevent y
Ġstruct ure
Ġja il
sp ir
Ġal tern
Ġexc iting
ĠJimm ie
ĠStep hen
Ġjob s
Ġpur se
Ġgetr ennt
no ld
ĠSoll te
ell a
Ġauf stehen
r Ã¤umen
an as
ri p
Ġref used
ĠLÃ¶ wen
ĠParte i
Ġwel chen
Ġ199 3
Ã¡ n
ĠS av
ier end
ĠV ol
ungs los
ĠHal b
OM E
ym n
ĠverÃ¶ff ent
in ent
ĠWas ch
ĠWissenschaft ler
J ust
K AR
Ġwo ke
Ġsign s
h aha
Ġbr icks
Ġrec order
gesch ichte
ĠL ud
ug gle
ĠTr ick
ĠOper ation
M a
l ies
ĠIn f
ri al
s st
Ġw ein
Ġh omes
al er
ro k
Ġle af
Ġ3 7
ĠgÃ¤ be
Ġirgend etwas
IT H
ĠFahr er
Ġw olf
Ġdec or
Ġattack ed
Ġthousand s
Ġcrit ic
ĠCha os
Ġy ell
Ġer l
z ip
ĠBe weis
Ġversuch te
la v
fl Ã¤che
Ġtre asure
Ġ198 8
ĠG all
Ġcoun ter
Ġtemper ature
i ation
ĠM agen
ĠT s
ĠLe iter
ĠAn s
Ã¶r ter
ĠGroÃŁ e
om y
Ġe chter
Ġour s
ĠC y
ph abet
Ġcho sen
Ġcond itions
V er
ĠfÃ¼hl st
Ġfort une
CH E
ĠE U
Ġsl ipped
Ġcompet ition
Ġprob ieren
Ġprin cess
N e
c orn
A s
o i
ĠSte ig
ĠSand y
ĠAbente uer
ar ia
ard o
ungs volle
ĠA tem
Ġdesign ed
ĠBrie fe
Ġth or
Ġes s
ĠV iv
Ġroll ing
ĠTay lor
Ġsc ore
hol t
or ie
Ġar row
ĠLo is
âĢ ķ
Ġstell te
Ġfif th
Ġnu cle
en k
Ġn ass
Ġbr ings
ĠMach st
ĠKrie ger
stra ÃŁe
Ġb id
Ġ7 5
A h
Ġb one
ĠBes ides
M om
ĠGe ister
EL A
ĠSpiel er
zug ehen
Ġin zwischen
ĠK y
Ġpro f
Ġstand ard
ĠEm ily
ag an
ĠC atherine
sch we
Ġprov ide
l ong
ĠJo y
Ġn ed
ĠH orn
Ġbe ant
Ġaus z
ĠP ick
Ġerm ord
ĠKleid ung
T o
ich ern
Ġp oo
Ġsh ift
f oot
Ġapp ointed
Ġprodu ce
ĠenttÃ¤us cht
Ġbe ars
ĠRe gel
ĠOsc ar
Ġn annte
ĠV inc
ĠFer ien
r um
Â °
ĠM s
Ġre isen
Ġspr ichst
an ut
re if
ĠV iol
n on
Ġp ony
Ġwar d
Ġhat h
Ġreck on
Ġ ou
ĠAr gent
Ġheart s
Ġpat tern
ĠGel Ã¤chter
ĠTell er
ĠPan ik
Ġentwick elt
ĠRem ember
Ġun iform
Ġsm ooth
ĠEnt wick
Ġincre ased
st ic
oc o
g te
ĠG ern
ĠMed ik
ĠU K
Ġre lief
enn ung
ĠHa fen
ĠAb sicht
au cht
ink el
Ġbad ly
3 5
ĠR um
ĠKr Ã¤
Ġtown s
W ill
ch nen
Ġr ising
ĠGold en
F or
le cht
] ,
ĠD unkel
Ġunter sch
reich e
Ġevent ually
ĠJ ordan
Ġfun ction
Ġqu ality
ĠMat thew
Ġlebend ig
Ġdun no
Ġin tended
Ġan no
Ġde er
Ġex cl
er es
Ġw aters
hm hm
Ġdr own
fre und
d essen
re cher
Ġund erneath
ĠO d
ĠSchw ach
Ġbutter fly
p ool
Ġa ktiv
Ġp ile
Ġbre ast
Ġcand id
ĠK iste
Ġerf unden
ĠBes onders
Ġf er
to ys
Ġappe ars
Ġw inning
ĠNet her
e en
w urf
Ġl od
ĠL ight
ĠZ unge
ĠZe aland
ĠServ ice
MED IA
Ġl ink
geh alten
an ed
ĠTr inken
Ġconc ert
ĠToil ette
ĠViet nam
Ġl orry
sp eech
ac le
Ġbes prechen
ĠF liegen
ip ed
ek aboo
Ġchang ing
u an
Ġd ial
ĠJack e
Ġmult ip
m om
s que
Ġmer ry
ay a
ĠJ osh
c oughs
g ust
Ġg ained
ĠC op
Ġp ity
Ġcon qu
Ġco al
ist ert
Ġgew Ã¤hlt
ĠTÃ¼r en
Ã¤ men
ĠF un
Ġpo ison
Ġc andy
Ġver gangen
ĠUnter richt
Ġdoll s
ĠB Ã¶se
ĠRe is
Ġerf Ã¼llt
ĠGu y
Ġjack et
Ġplann ed
ĠZ ivil
ipp i
Ġinhab it
Ġein iges
Ġgew iss
ĠHimm els
Ġn ackt
ĠM Y
Ġconc entr
A t
ĠS atz
em s
ĠDe ath
Ġl Ã¶sen
ĠBull en
Ġkonn test
Ġpres ents
Ġange kommen
ĠC D
Ġschw ier
Ġice cream
ĠErd be
ĠD ok
iel ten
Ġmight y
ĠMich el
Ġro de
Ġcircumst ances
st ick
ger y
ĠInd ien
er kt
Ġa id
Ġsp azieren
Ġverb unden
hel p
ades h
ĠA D
Ġste am
Ġprison er
st uhl
ĠFl Ã¼cht
Ã³ n
ĠP atsy
Ġes se
Ġse g
ĠWH AT
Ã¼ che
Ġavo id
ch est
ĠD all
Ġpart ies
ĠLi ber
Ġdemand ed
ĠF Ã¤h
Ġver geben
Ġerz Ã¤hle
ĠT ats
ud d
ĠMill iar
ig st
Ġdu h
Ġgetr Ã¤umt
ĠHem d
t oo
Ġw es
Ġlad s
b esch
in al
Ġd oo
Ġc ows
ĠB R
ĠL Ã¼gen
Ġwunder voll
Ġold est
ĠVerze ihen
Ġch ain
Ġtr ennen
kt ur
Ġroll ed
imin al
fÃ¤ lle
L ook
art ige
Ġcross ed
m ehr
Ġl anden
Ġ4 8
Ġmis er
. --
2 6
b id
Ġd iss
fr ont
ĠgehÃ¶r te
U m
ĠLu x
Ġlieb sten
. [
ĠSte hen
Ġincre ase
Ġno ble
Ġpro fessor
Ġm ast
ĠS Ã¶
ĠA UF
ĠSome one
et tel
Ġge gr
fr age
Ġgrand mother
Ġtrans fer
ĠVer gessen
ĠOx ford
Ġst Ã¶rt
ĠAll ein
Ġgu itar
Ġant i
ĠD ingen
ĠcH ffff
Ġbase ball
ĠSo on
inn ed
Ġap olog
at re
ĠP ull
Ġdr Ã¼cken
ek te
ĠBedeut ung
Ġs ne
ess ert
onn y
k now
v ard
ĠB elle
Ġexper iment
Ġhop ing
oint ment
K F
ĠVers prechen
s ighs
ĠA v
Ġan gen
ĠPro zess
Ġsqu ee
Ġsa cri
ĠAn th
ĠAr ten
Ġabend s
ĠÃ¼ber prÃ¼
Ġkompl ett
ĠSchokol ade
Ġl as
Ã¼r t
Ġfin anz
vent ion
Ġm ann
ĠI l
ĠP ic
ĠC iao
k ap
Ã¤ fer
Ġnot es
ĠEnt sp
Ġ18 5
C OL
d ri
ĠH im
enn a
ĠFol ge
p ush
ĠM auer
ĠK ong
ĠEvery one
ul k
ĠAn st
Ġgu ilty
Ġexpen sive
Ġbe er
ĠJ ay
lo g
Ġfar ther
ĠPatient en
C al
ĠÃ¼ber zeugt
ĠFar ben
E s
em bly
ĠGroÃŁ er
Ġhing ehen
Ġ Ã¤ndert
Ġb ay
Ġp ipe
ĠB O
ĠIn halt
ĠWhat ever
Ġdis hes
ĠReg ion
Ġesc aped
Ġidi ot
D R
Ġl amp
pp elt
Ġle cker
Ġstr ugg
Ġsol id
Ġbesch issen
Ġhum ans
Ġr ug
Ġcon ce
Ġconne cted
ĠL Ã¤
sicht lich
Ġhop ed
do or
Ġact ual
ĠSecret ary
ĠG ree
Ġ3 8
est e
ĠStra fe
ĠDam n
Ġmed ia
Ġoccur red
Ġpil ot
or ange
wir tschaft
ĠJer sey
ur d
sch m
Ġhur ts
ide os
ĠChamp agner
ĠSicherheit s
ĠCh ap
ĠKr Ã¤fte
ĠBen jamin
Ġkid ding
au p
Ġaus ger
ĠJac ob
Ġverm utlich
Ġgrand father
Ġsetz te
s weise
ĠP as
Ġad mit
ĠHar old
ĠWel cher
Ġrecord s
ut her
um in
ĠUnivers itÃ¤t
ĠVerr Ã¤ter
ĠL il
Ġtr ousers
Ġten der
ĠverÃ¶ffent licht
2 8
Ġver ur
ĠAb schied
ĠPrem ier
Ġste igt
Ġclim bed
Ġstre iten
ĠFr an
Ġfunktion ieren
D ER
M ax
ank t
Ġser iously
Ġhigh ly
Ġmeisten s
Ġplat form
m Ã¤dchen
oll t
Ġverl Ã¤sst
en ces
ĠW on
ĠM iller
sp l
Ġhin auf
Ġkompl iziert
ĠB ach
us al
bere it
Ġweap on
ĠM oon
al ous
Ġv olle
Ġhe ft
C an
i ht
Ġk Ã¼r
ĠD iam
ot ion
ge legt
Ġisland s
M E
Ġw ovon
Ġmor al
Ġintellig ent
3 7
Ġm isch
und et
Ġ198 4
Ã¤u ber
ĠLaw rence
Ã¼ se
Ġeinfach er
G o
ĠE y
ĠK h
ĠFr Ã¼hl
Ġdr itten
ĠGeorg ia
ĠAssoci ation
w au
Ġda wn
ass ung
ĠZeit punkt
Ġh yd
ion e
Ġcomm ent
i ppen
Ġwe alth
ĠAtlant ic
Ġbegeg net
Ġer ne
Ġmy th
ĠMar ion
ĠAust ria
ĠSch Ã¼sse
ĠÃ¼ber lebt
Ġco de
ĠKre bs
ĠB oo
Ġsh adow
ĠSchn au
Ġcon sequ
br ing
ir rt
Ġfind s
Ġdog gy
ĠGren zen
ĠNeu igkeiten
Ġbegle iten
ĠLÃ¼g ner
ĠT atsÃ¤chlich
ĠL ind
Ġcom edy
Ġpic nic
p ack
Ġt alent
Ġp iano
ĠBr ille
ac on
ĠSign al
ur g
ĠSw eden
wr iter
em ies
Ġpr on
Ġlo ad
Ġf oll
Ġc ave
ĠV alley
Ġges etzt
Ġmom ents
Ġsatisf ied
Ġs ons
Ġw agon
as i
Ġwill en
hm m
ang s
ĠGew ehr
ĠHo sen
Ġsex y
Ġauthor ity
ing ton
ĠM ak
ĠTr adition
Ġspiel st
S C
ĠB ag
ol and
Ġwieder sehen
ĠMik ro
wend ig
ĠUk raine
Ġat men
Ġkiss ed
Ġt ale
Ġd ere
Ġsit ze
Ġhoff en
zub ringen
Ġthor ough
ĠR abb
ĠChrist opher
re al
Ġk il
ĠSch me
Ġsla ve
ĠA th
um per
ĠWirklich keit
Ġextrem ely
ir rel
Ġzu h
ĠSt il
ĠTh ursday
war te
ult an
Ġdiv or
Ġpass age
Ġcol on
Ġgra ce
Ġsacri f
ĠL ange
Ġfrag st
ust e
st ill
Ġre iz
Ġaus gel
lÃ¤ ss
ir ts
Ġan gesehen
ĠÃĦ g
K AT
ov a
ĠTr ottel
ĠEnt weder
ĠD ur
ĠBe ute
---- "
Ġverfol gt
Ġh ohen
schr ank
Ġentr ance
ĠN ad
em ann
ĠE ve
Ġsp ect
Ġsent ence
ĠDien er
Ġearn est
Ġeager ly
4 7
um es
Ġhal ben
Ġeast ern
ĠDah er
it ure
Ġe ifers
c ement
Ġb att
Ġu gly
mer zen
Ġord entlich
F T
le ist
Ġauf geregt
Ġpro fit
Ġhast a
Ã¼ÃŁ t
P r
ar o
ere hr
ĠP asst
ĠP enny
ĠSp ider
Ġschl ug
ĠHaupt stadt
ĠT uesday
Ġtr age
Ġrec omm
Ġneu lich
Ã¤cht igen
ĠT ie
ĠVer w
ĠRe chte
gef unden
Ġfol gt
ĠMist kerl
ock t
ĠMick ey
l ar
ĠBr ig
pro du
Ġsett ing
ĠAf ghan
ĠWunder bar
ĠGel ieb
ĠHeil ige
ĠS now
ist ischen
ol as
iÃŁ ig
Ġblau e
Ġdur fte
ĠH ou
ĠH ig
Ġbest ehen
spr uch
ĠblÃ¶ de
Ġsele cted
ĠK Ã¼hl
ĠEll ie
ĠF arm
qu et
ĠPh ys
ĠUnter such
ĠTH IS
Ġless ons
Ġre ar
Ã¼nd er
ĠE du
ĠF antas
" ).
Ġy um
ell er
ĠLe b
ĠF u
ĠDo ppel
f irst
t w
ir teen
Ġon line
Ġking dom
E l
g ibt
Ġst ammt
Ġre chten
Ġsch einen
Ġmark s
wor te
ĠSyd ney
Ġdr ugs
Ġel der
Ġdiv ision
Ġcomm ander
ĠOber st
Ġtreat ment
ĠFur cht
Ġle ague
Ġgu ide
Ġmat hemat
ag le
Ġshe d
Ġbr icht
Ġwunder bare
ĠAlf red
ct ic
ipp e
ĠMed ien
ĠMart ine
ĠNether lands
Ġre volution
ong rat
ĠTur k
Ġto ss
Ġge lebt
Ġsc en
Ġfre edom
Ġsweet ie
Ġbelong s
Ġd omin
ĠDem ocratic
Ġaut omat
ĠA LL
ĠSie ben
will ig
ĠPers Ã¶n
icht s
em a
and id
ĠO ffen
ĠM ain
Ġsuff ered
Ġcell s
re isen
ill es
ĠHol y
ĠWed nesday
Ġd ienen
leich en
Ġgovern or
Ġbefre ien
il er
Ġso ap
ĠPal ast
g iggles
r d
Ġviel es
ĠGut er
Ġverb re
Ġclim ate
Ġce ased
ĠI mm
ehl en
Ġcro cod
U B
Ġt ank
is l
ĠB il
ĠE h
ul iere
Ġtr inkt
ĠPe ch
19 7
H L
Ġthr ows
Ġair port
Ġsuff er
ĠT imes
ĠGesch w
Ã¼tz ung
b ach
g riffen
u der
et it
ess ion
ish a
vie lleicht
Ġdre h
ĠH oney
Ġum gehen
ĠIrgend was
Ġso gen
O kay
ĠT el
b elt
ĠP ed
Ġj ournal
Ġant wort
Ġban ana
Ġa ye
es c
ĠFernseh er
ĠC ole
Ġen emies
ĠAp ollo
Ġvict im
ĠÃľbr igens
m ag
Ã¤ ll
Ġzu letzt
Ġtr uly
lo yd
Ġalt es
Ġt reiben
ĠBef ehle
M EL
Ġc aterpillar
Ġse ated
Ġro les
at ze
ĠM abel
gr Ã¶
Ġless on
roll ed
Ġcollect ion
I K
ĠB urt
Ġsp an
Ġcomp lex
zul ernen
vÃ¶lker ung
Ġ ÉĻ
ĠG rau
ĠR enn
Ġvor gestellt
Ġus eta
Ġn umer
w ald
Ã¤ fst
ĠR uhig
Ġfor give
Ġwar ning
Ġsuch st
k uchen
ĠMan tel
ĠÃľber leben
Ġgrand ma
ĠSouth ern
ĠAct ually
ĠFoot note
be e
Ġsh ining
ĠSe Ã±
Ġacqu aint
ĠG au
ĠDies mal
Ġmark ed
m pt
ĠM aterial
Ġbe ster
ĠJ as
ĠY o
bo den
amm ed
Ġp aus
Ġst ets
ud ed
ret Ã¤r
Ġsuff icient
g irl
r ass
ĠM mm
Ġpre m
Ġtun nel
ĠAb schluss
Ġbes ondere
ĠWel ches
c ies
Ġb la
Ġsp ider
ĠOff icer
ĠChair man
g Ã¼lt
Ġhin zu
ĠBed ing
g ner
Ġwhen ever
Ġhous ehold
ĠRis iko
on ia
ĠS uppe
ĠMÃ¤r chen
ĠN athan
ĠJ ere
Ġse qu
ĠKost en
irk us
ĠD Ã¼r
Ġbuck et
Ġin fe
ĠM aur
Ġch ips
Ġdoc ument
ig el
Ġgesch ah
gem ein
Ġrepar ieren
Ġo ven
ĠJ os
sh outs
ĠAuf hÃ¶ren
ĠKar en
spr ache
izen z
2 9
Ã¼ ger
ĠK ok
Ġgr ate
ĠKl einen
gere chnet
ĠRe icht
Ġrec ent
ĠSil ber
ĠJu an
ĠEast ern
Ġa ston
ĠP ast
ok es
ĠRe chnung
ĠM ove
ĠF aith
ist ische
Ġge legt
Ġli ck
Ġbr it
guck e
ĠÃĦg yp
ĠA ma
Ġcar r
Ã¤n z
c ribed
ĠP ooh
amm elt
drÃ¼ck en
Ġs orrow
ĠGe or
Ġweiter en
schein end
Ã¼st ung
ĠNic ole
ĠFab rik
ĠEre ign
ah m
Ġpro ceed
ĠCar ter
ĠEn te
ĠF ach
ip ment
ĠHerz og
Ġele ment
Ġrequ ire
Ġgesam te
b oot
se c
ĠP izza
Ġr acing
Ġresc ue
M one
ĠFr ont
Ġweiter hin
rop ol
lad ung
Ġinhabit ants
U L
Ã¶n t
Ġste al
Ġerst es
ĠE igen
ĠBer gen
Ġ198 5
ĠNÃ¤ch stes
Ã¼n kt
Ã¼st ere
Ġhe ight
ang es
ĠBes itz
ĠTo de
ĠSim one
Ġl oy
im ents
ĠP ardon
ĠDre cks
3 3
Ġt um
ĠA M
Ġun it
ĠGr an
I P
w s
ĠP ict
ph a
ir s
Ġup side
iv ity
Ġswe ar
Ġm aint
Ġf ate
Ġertr agen
somet hing
Ġermord et
Ġc am
ĠF at
ĠRob oter
ĠE ver
ĠFr itz
Ġprop osed
ĠA R
ĠM oh
Ġdie selbe
Ġbe ans
ur i
Ġgre y
Ġ198 7
ĠKn ast
IT T
Ġt iss
Ġw ww
ut schen
Ġent lassen
ĠGr ay
ĠS et
Ġe w
Ġun e
ĠPro test
Ġoper ation
Ġburn ed
Ġsell ing
Ġschick e
Ġs tern
Ġch er
Ġstat ement
ĠDe al
ĠF BI
icher ung
ĠEt wa
iz z
Ġ198 6
Ġpresent ed
Ġerkl Ã¤r
ĠHur ry
ic ing
ĠDie b
Ġde b
V ID
Ġh yp
ĠW it
ge kehrt
Ġse ats
Ġkennen zulernen
Ġpolic eman
ĠPunk te
f isch
omm a
Ã¤d el
ĠKir chen
à¤ ¾
ĠPfarr er
c up
Ġzwe it
Ġmed al
Ġd unk
Ġl over
Ġgot ten
ĠGesch Ã¤fte
Ġdah inter
Ġrecogn ize
Ġbe herr
ĠEin wohner
Ġcomp os
Ġdel icious
ĠSpan ien
com ing
s u
Ġpre gn
Ġteach ing
Ġsplend id
ĠJe ann
Ġhar der
ĠBesser es
ĠH Ã¼b
ĠR auch
Ġsh ops
ĠVer mÃ¶gen
Ġwo hne
Ġein kaufen
Ġmit genommen
ĠWe it
ĠDr amat
ĠSchiff e
ĠWol ken
g ro
ak te
C ar
Ġwo fÃ¼r
Ġsoon er
k annt
s amen
ĠCarol ina
Ġkl asse
la ces
Ġsl ip
ĠJul i
Ġchem ical
d ah
ĠF anny
let s
pro b
ĠSchre ib
Ġpit cher
quar ters
Ġs in
Ġf an
Ġf ile
ĠJun ior
ĠAm anda
Ġ197 2
ĠSol che
f rei
ĠI dent
Ġp ushing
Ġver spr
ĠSt Ã¶hnen
Ġtr ag
ĠSchre ie
Ġm i
Ġsch Ã¤tzen
our i
cht et
ĠDar Ã¼ber
Ġv alley
el ia
Ġle bst
Ġag ent
Ġprofess ion
k ont
ĠW y
ĠJ Ã¤ger
ĠRe isen
ĠRob inson
Ġrau chen
J une
ie ÃŁe
ah nen
bo at
in ik
Ġd im
Ġch ose
Ġste hlen
Ġsend ing
ĠDeck ung
ĠEs el
Ġsex ual
B Y
ĠD ro
Ġp owers
Ġal together
Ġsc ary
in vol
Ġb ent
ĠI M
ĠFr ances
ĠUm welt
ĠSchr ank
S P
g iving
in chen
Ġth irst
Ġein ges
; "
ĠK Ã¶r
Ġphys ical
ĠL ily
Ġglaub te
ĠVictor ia
ĠTrain ing
Ġbemer kt
Ġj un
ess a
Ġdist ant
Ġcomplet ed
l isten
Ã¤ b
Ġe ilig
Ġarbeit ete
O r
ĠH om
ĠH ang
ĠP ower
sch uhe
Ġkind ly
Ġadv ance
Ġp ussy
ĠHal te
Ġgood s
Ġiss ues
Ġgebrau chen
im um
ĠProv ince
Ġver ar
ĠSt ift
Ġdet ails
Ġbe endet
Ġsee k
Ġgef Ã¼hrt
Ġbesch lossen
Ġdelight ed
Ġsla ves
Ġarrest ed
B A
Ġtoll er
Ġen den
ĠGr Ã¼n
ĠGr Ã¼ÃŁ
Ġsuc ceeded
ie gt
ĠS i
ĠNe ue
Ġhon our
ĠSchuld en
ĠEr laubnis
Ġn ic
Ġsh apes
ĠFr Ã¼h
Ġen orm
ĠwÃ¤ chst
ĠSche id
ĠArbeit en
ĠÃĦr zte
Ã¶ ten
im o
fer d
ĠPo or
I ST
ut ive
ĠZe ugen
Ġpassen gers
B S
ĠG erecht
Ġdurch s
Ġfl ood
Ġspir its
u y
ĠB Ã¤ren
Ġwar f
Ġent scheid
Ġbet rifft
Ġvertrau t
ort ed
Ġwor n
ĠHÃ¼hn er
h Ã¤ngen
ĠPrin cess
oo s
Ġjust ice
Ġclim bing
Ġheut igen
Ġf ed
ĠL ena
im eter
ĠK op
ĠSp iele
ĠFro sch
ĠJung frau
ĠN avy
ag ain
ĠVer fl
Ã¤t sel
Ġdr itte
sc ream
ĠspÃ¼r en
ĠF indest
Ġarrang ed
ĠGer Ã¤usch
Ġpaint ed
ĠN am
ely n
a way
p op
ĠF ace
Ġauf genommen
ĠCh anc
Ġdauer nd
Ġhas sen
I ES
m od
Ġo oh
ul ance
Ġpl ates
ĠO kt
ĠV ON
ĠZ it
no chmal
ett a
Ġger aten
Ġaff air
ĠGemein de
Ġbest ellt
ĠBro ad
ĠL Ã¤rm
Ġpoor ly
Ġp owder
Ġaus s
Ġre lax
Ġun able
os is
A CH
L au
Ġtra cks
19 8
ĠWich ser
Ġab ility
Ġch rist
ĠMus ch
h ot
r ant
Ġacc ompl
ĠBern ard
ĠBrun o
ĠI CH
Ġhad ta
ar re
ars on
Ġarch ite
acht ung
Ġprodu cer
Ã¤cht nis
ĠH irn
icht lich
Ġsch ol
ĠRu fen
ĠDall as
Ġt ort
Ġp ant
Ġch im
Ġzeig te
ĠLes lie
Ġadvent ure
Ġha ste
id ers
iff s
ĠMe g
ĠPhil os
van ia
ĠBor is
ĠY ear
Ġbr ut
invol untary
Ġgo dd
c les
ĠW ut
ĠAn fÃ¼hrer
Ġanst ren
Ġbutt ons
Ġf as
ge geben
ois elle
ĠH Ã¼tte
ĠV i
J O
ĠVer rÃ¼ck
Ġapp les
Ġow l
Ġinno cent
Å į
ar io
Ġv en
Ġauf get
ĠSt olz
Ġaus gehen
Ġbes ucht
Ġspeak s
ATI ON
Amer ican
Ġw ing
ĠK ansas
ĠF ri
Ġnach denken
ĠSe ven
ĠIm per
Ġ197 9
Ġeifers Ã¼chtig
Ġw itch
Ġr ice
Ġke en
B ob
M iss
Ġda ily
Ġmust n
richt ung
Ġstud ies
Ġ197 6
ul ate
ak ers
Ġdri ven
ĠVers uchen
ĠBest immt
Ġorgan ization
h ole
ps on
keep er
ĠMan ager
atter ed
gew orfen
ĠIN V
u ing
Ġs um
ĠS ad
ore t
ĠSCH RE
Ġtradition al
Ġf o
Ġan nehmen
Ġbef inden
Ġ198 1
ĠF Ã¼ÃŁen
hyth m
Ġsp ots
se ven
ĠZe ich
ĠSchl uck
does n
Ġpill ow
ĠP ok
ĠBe erd
go es
ĠHerz lichen
seit ig
ĠN ut
Ġst ole
Ġcon fl
Ġapp lic
Ġd aneben
ĠC ur
Ġpr ide
zw ungen
ĠGerecht igkeit
Ġdis play
4 8
r an
in te
ĠB alk
bur gh
Ġarm ed
ĠGrand pa
Ġroy al
g onna
ll ie
Ġj elly
ĠGr at
Ġguest s
c omm
ĠN ah
ĠG ary
ver se
ch ung
Ġcont ains
ch uckles
re in
es a
ut n
Ġle ge
ze its
ĠUnterst Ã¼tzung
Ġl Ã¶
Ġeigh teen
b rochen
ĠD al
ol ine
Ġauf tau
sh akes
Ġteach ers
ĠVerst ehen
Ġad vis
bo gen
Ġerk annt
ĠT ief
ĠKomm and
Ġschla fe
Ġso fa
ĠO cean
ĠLe ichen
Ġgel ogen
t ouch
Ġl ernt
ĠU t
ĠWen ig
po or
whisper ed
ĠC ode
uf act
Ġschw ere
ĠT oo
out heast
ĠDie sen
Ġch ines
Ġrichtig er
Ġcaus es
Ġw inz
Ġm elt
Ġp ardon
ĠE ff
na ppt
Ã¶p ft
ĠRelig ion
Ġun known
ĠMid dle
M other
ch ern
Ġl auf
Ġab ges
Ġha y
Ġun fortun
Ġgo ds
ud ding
Ġent z
Ġprakt isch
ĠG or
Ġnight s
Ġl amb
Ġun glÃ¼cklich
el ig
pp ich
op hy
Ġtr inke
ĠSh all
Ġcirc us
Ġbestimm te
z Ã¼g
ad et
ĠSch af
Ġprodu ct
ĠmuÃŁ te
Ġb ot
ĠB auer
Ġhand ed
Ġfl u
Ġmin or
ĠPap iere
M S
ch or
Ġpre cious
ĠMos k
Ġcompan ions
Ġm essen
ic ide
Ġtr itt
els on
ĠKenn edy
m orgen
ĠMar i
Ġflie hen
wind igkeit
ĠÃ¼berras chen
ĠH opp
te xt
ĠEr klÃ¤rung
Ġschen ken
Ġg al
ĠS lo
Ġc ries
and s
Ġle ans
Ġschw ul
W h
g or
ĠB attle
her z
ĠDar an
umm ing
L ICH
ul ated
ett y
Ġvol ume
ĠFranzÃ¶s isch
y ard
ĠHer aus
ĠHar ris
Ġkennenl ernen
ĠA st
ĠA be
ĠK na
ĠMag st
Ġleg te
ĠAlex and
Ġgro s
Ġpig s
ĠPol ice
Ġche ap
ĠKon zert
ĠB our
Ġverteid igen
p ur
ĠPet ers
ĠDiv ision
Ġto ols
Ġun heim
Ġboy friend
Ġreg ret
ktion en
ĠHoch zeits
Ġadv anced
r ichtig
ĠP y
Ġaus sch
Ġvor Ã¼ber
ĠKl assen
Ġcr is
Ġb a
ĠH ure
Ġwe ig
Ġdr agon
Ġqu ant
Ġbet en
Ġgest r
et on
ĠSt ark
ĠGr uppen
ĠPro be
ĠGleich e
Ġh ut
Ġf ÃĥÅĴr
Ġsec ure
ĠAus druck
krie gen
ĠMitg lied
istr ation
ĠHub schrauber
Ġer ober
res p
ĠHerr gott
sy l
Ġehr en
Ġphot ograph
Ġexh ib
ĠWid erstand
ĠGep Ã¤ck
ĠSch reiben
Ġpr Ã¼
mus st
Ġfail ure
Ġbu ying
ĠAd mir
ĠS endung
ĠK ek
Ġab st
ĠWh it
ĠTr ansport
ĠHam burg
Ġhapp iness
o ppen
om ot
ĠR ah
zie ht
ĠDep artment
ĠStau b
d anke
w ide
ge ber
Ġfor g
ĠSt ille
Ġbo ld
ĠW ITH
ĠK redit
ĠHe b
ĠEm il
ĠMet all
Ġcheek s
Ġt ourn
Ġ3 9
ĠJack ie
ĠH ope
Ġ" _
ĠDÃ¤ mon
Ġ ]
Ġt orn
Ġse ized
br ush
ĠDe v
Ġbeob achtet
Ġm ood
ĠE ich
Ġpr ince
ĠPer cy
Ġstrong er
Ġcreat ures
ĠWeiÃŁ en
somet imes
ĠVinc ent
ĠRe alitÃ¤t
ĠApp le
Ã¶st lich
n ina
ĠL Ã¼ge
ĠSch aut
app le
ĠHÃ¶ hle
C ause
Ġgirl friend
Ġsound ed
Ġsix teen
ĠX V
Ġconf idence
Ġlaut et
ig a
ĠGe gner
Ġbus hes
Ã¼ ff
ul ieren
Ġant worten
Ã¼g ung
Ġoccup ied
Ġl it
ĠK ay
Ġste ady
Ġel f
Ġbeh aupt
Ġ18 0
Ġsw all
astrop he
ĠKr itik
Ġinteress ieren
ĠStud io
ĠD ON
ĠF ree
Ġdis gust
Ġeff orts
ĠMajest y
Ġrid ic
B EN
T V
Ġl Ã¼gen
Ã¼ ht
Ġsch mer
c ake
m und
p ers
Ġverm isse
Ġc aut
ĠEar l
ĠV o
Ġbl owing
Ġsc are
ĠIrgend wie
Ġtechn ology
ĠPoliz ist
k leid
Ġp ine
ĠF ell
em oiselle
ĠPro p
Ġeure m
st ation
Ġp urch
ĠCl ass
ĠWind ows
Ġfle et
Ġunus ual
ĠD AS
ĠRal ph
ĠS eth
ren g
Ã¤t zt
ĠBl att
gr uppe
Ġsw ift
Ġmer kt
ĠPaul ine
Ġsurround ed
ĠPerfe kt
Ġp ond
Ġbud dy
r er
Ġt end
ĠF ind
Ġaus gesch
Ġtr otz
ĠGr Ã¤
ĠAuf nahme
Ġbas ically
Ġa th
Ġw agen
re fer
ĠSelbst mord
ĠN ell
Ġ4 2
Ġter rif
Ġinc red
ĠInstit ute
Ġappreci ate
Ġm utter
ĠA ction
ĠL izenz
Ġgeh olt
ĠLie bst
Ġverl or
Ġac id
utsch t
ĠNor man
r idge
Ġb om
ĠB C
Ġr ais
ne cess
Ġdet ect
ĠPac ific
Ġl ach
Ġch ase
Ġgesch ossen
Ġang eht
Ġprote ction
Ġwir ken
ĠMil es
Ġhundred s
au ern
ĠV ar
ĠSe elen
Ġgesch w
Ġg ain
Ġwe bs
Ġad mitted
Ġequ ipment
Ġconst ruction
ĠG le
Ġsuch te
Ġchamp ionship
ĠGrie chen
ap ie
ang o
iv a
ĠmuÃŁ t
ĠStan ley
W ir
t an
em en
Ġ197 4
ĠW ant
ĠLe ist
ĠâĢ İ
Ġfoll ows
Ġv irt
ĠauÃŁer halb
ol es
Ġwen igen
Ġbus h
Ġshout ing
ĠMÃ¶glichkeit en
f an
p ark
ĠOr der
ĠChrist us
umen te
ĠIsland s
P S
ir ren
Ġp enny
Ġsp in
Ġ4 7
Ġsun shine
ĠRei fen
s ollen
ir ates
Ġqu it
pen s
Ġerf Ã¼llen
ĠHeil igen
Ġeconom ic
ĠGlo cken
Ġaud ience
ing o
Ġwe ib
Ġhinter lassen
Ġ198 3
ĠberÃ¼hm t
u als
ĠI hm
Ġre vol
ĠRock y
zus agen
ĠG olf
ĠK ne
ce st
Ġhin unter
anc ial
ĠVor schlag
ĠSil ver
Ġenth us
b ish
re ib
re iÃŁen
Ġl abor
Ġer lauben
ĠMa ÃŁ
Ġfour teen
sy stem
Ġrail way
bewer b
a ver
i y
ĠB os
sch merzen
ĠGr unde
ĠSte ht
ĠGn ade
ĠS IE
ĠN OT
ĠSchÃ¶n es
Ġcover s
Ġan getan
Ġbeg raben
ĠKÃ¶nig reich
Ġmajor ity
dd ed
ĠDeut sche
Ġf uss
Ġk itten
ĠF AT
ĠSch aden
Ġgew isse
Ġem bar
G LO
ik es
ĠSo cial
ĠSp itze
ĠNap ole
M ann
k as
was chen
z ieren
Ġ +
ĠT alk
ĠMit tern
Ġ196 9
Ġlie ÃŁen
Ġstr uggle
ĠChe ck
ĠLin ie
ie ve
Ġein verstanden
ĠNot fall
Ġstud iert
Th ank
het ic
f ilm
Ġc ult
Ġst iff
ĠMar io
Ġbeob achten
w ohin
ĠMit ch
Ġbehand eln
b art
ĠDu ck
ĠTr ump
Ġschl age
ĠDenn is
Ġc age
ĠZ irkus
ĠPro b
Ġe chten
Ġaus ziehen
Ġent sch
ĠGesetz e
Ġtie fer
ĠhÃ¤ss lich
au x
ĠF ick
ĠÃ ł
ph ia
Ġl Ã¤ng
Ġne ug
under te
Ġres our
Ġdef end
Ġwe ich
ĠdÃ¼r fte
ĠAnt worten
ĠFin anz
on ie
ĠEr sch
Ġback wards
get s
ĠFor ce
ĠBeeil ung
ĠW ur
ĠW ache
Ġhand eln
pr om
ĠDem okrat
b eln
ĠK reat
ord nung
wer ke
Ġkr Ã¤ft
Ġexist iert
Ġge wohnt
Ġch amber
hl t
ĠAnt i
Ġp ad
ĠK os
ĠF if
ĠSt all
ild a
ĠA gn
ut age
and et
ld e
Ġim it
ĠMc G
ĠStÃ¤d te
ĠD NA
Ġfor k
ĠTr uppen
Ġ196 8
utt i
bre ak
ĠBang l
ĠS ultan
Ġre ser
ĠFel sen
be ep
ie lle
Ġp up
ĠB ub
ĠAu a
ĠTr omm
ĠMa i
Ġdist inct
ĠW em
Ġo we
ĠTh us
Ġgem erkt
Ġbar rel
Ġsuff ering
Ġbreat hing
ĠLehr erin
Ġbrief ly
Ġt Ã¼r
Ġb ree
sch riften
Ġ194 5
gewÃ¶hn lich
Ġexerc ise
ter ed
ĠGen ie
Ġbra v
ĠGener ation
c ia
o ard
Ġr oute
ink le
Ġfe ver
Ġ197 5
Ġh ipp
Ġg iraffe
ĠT ry
ĠG ust
ier ungs
imm st
ud eln
Ġqu ack
Ã¼t ig
ĠLeiden schaft
Ġbe ige
Ġau a
Ġbef Ã¼r
Ġcomm ittee
Ġexpl an
l Ã¤nder
w ahl
ĠPl ast
ĠNew s
Ġ198 2
Ġserv ant
Ġinst ance
Ġn uts
Ġk le
Ġgek laut
ĠSchÃ¶n en
Ġc ough
Ġun its
Ġsh aking
Ġob serv
af el
Ġland ing
Ġbal ance
f liegen
Ã¶n e
Ġad vert
ĠMiss ouri
Ġexp ed
ĠTem per
Ġu lt
ĠK ern
Ġtick et
ĠStÃ¤r ke
9 9
w hee
ly ing
isten ce
ĠHol en
Ġsettle ment
le ute
Ġcommer cial
ĠB Y
ĠP R
ĠC ategory
be kommen
ĠLook s
ĠSchlaf zimmer
ĠO ze
ĠzurÃ¼ck kommen
Ġbeh aup
Ġoffen sichtlich
Ġpot atoes
Ġbo ot
Ġbed s
akes pe
Ġcommon ly
Ġpro of
Ġrespons ibility
ĠMilliar den
ĠS in
Ġl etting
Ġp ushes
HER E
Ġaus zu
Ġte ar
Ã© s
ĠReg isse
ĠHou ston
ĠC re
ĠR as
so hn
Ġcan oe
Ġcar pet
ĠTem pel
z iert
ĠB urn
ap ers
Ġ197 3
im ately
Ġher s
Ġbo om
Ġerk ennt
Ġtruck s
ĠStud enten
Ġvocal ises
l ane
ĠK E
Ġbr ick
Ġsoll t
ian e
Ġwork ers
ĠSk y
ĠMel odie
Ġ... !
ĠY ep
Ġexp ert
Ġinner halb
ĠP am
tr ans
Ġper mission
ĠMiss iss
ĠWith out
Ġroad s
ĠCare er
h Ã¤us
ĠRecht s
ĠL ine
ĠC ous
ra st
Ġpers ons
p ent
ĠC ut
Ġrest aurant
bye bye
und ern
Ġvis ited
nah m
ĠVer Ã¤nder
ma ÃŁ
ĠGed anke
ĠPark er
adel phia
ĠTh ough
ĠIn nen
ĠAnd ers
inn y
Ġeinz iges
Ġreturn ing
ino is
ĠKore an
N C
Ġbe quem
Ġle bten
Ġlie utenant
Ġgar ant
ĠFrank lin
ĠSchul ter
Ġehe mal
l on
ĠW Ã¶rter
ĠA hm
Ġaus gest
ĠBe gle
kre is
O ne
ĠM ine
ĠBud dy
n chen
ĠW ere
ig ner
ag a
Ġun n
ĠSt immung
Ġab zu
Ġverl angen
ĠUnivers um
Ġverg isst
Chr ist
ĠC ind
end ar
gesch lagen
s al
Ġd ome
Ġn ette
ĠJ ak
ĠO R
Ġ6 5
ĠSpiel zeug
Ġterr itory
Ġcal cul
Ġt ropical
Ġb itt
Ġun ion
ĠKind heit
amen te
u ellen
icht bar
ĠSch ieÃŁ
Ġgen ieÃŁen
Ġ197 1
ĠUr teil
Ġentschuld ige
Ġp f
Ġauf nehmen
rop fen
Ġcru el
ĠgrÃ¼ nen
Ġin se
Ġtre ffe
Ġcons ult
3 6
3 8
ĠT asse
ĠL ion
ĠJew ish
ĠvernÃ¼nft ig
Ġm ax
Ġhe irat
Ġch uck
Ġkl opft
Ġrefer red
Ġm Ã¤nn
ĠR uhige
ĠWar ren
ac ter
Ġbeg un
Ġinst it
jen ige
Ġunterst Ã¼tzen
ĠBase ball
ĠEin heit
Ġble w
Ġ4 4
Ġanal ys
ĠT ieren
all es
Ġdu cks
art y
ĠTr ag
Ġele v
syl vania
Ġt ab
ĠB ible
el and
Ġr ifle
ehr te
Ġschl uch
Ġverze ihen
Ã¼ ster
Ġlaugh ter
Ġbege istert
anst alt
ĠHup en
ĠI ss
ĠB Ã¤
Ġre gel
bab ble
Ġdrink s
Ġwechsel n
u fe
ĠSuper man
Ġsupport ed
ĠConf eder
Ġge e
ĠIn c
ĠFl ag
Ġbe m
ĠGr Ã¼nde
ĠTod d
ĠWend y
t un
Ġver ein
Ġfr ame
ĠAs ian
ĠQu elle
ĠWor ten
ĠEmp fang
Ġgn Ã¤d
ĠSt ress
ĠÃ¼ber zeugen
Ġelect r
om on
ĠBe vÃ¶lkerung
ĠHer bst
ĠMad emoiselle
Ġnomin ated
ak y
Ġweiter machen
Ġarbeit est
M ich
ĠSon der
Ġinsp ir
othe k
Ġgefe uert
F A
y um
Ġt urtle
Ġver ges
ĠComm ittee
Ġdisapp ear
Ġdefe ated
I EN
Ġl ately
ĠE ile
ĠBe e
Ã¤hr en
ĠPlan et
ĠMit leid
geb iet
utz utage
Ġkr it
Gr and
st ance
ĠW alt
ach us
il st
Ġdo ctors
Ġno dded
ĠDie go
Ġf u
Ġv ast
ak in
ĠVolk s
Ġre ward
Ġcon test
les h
Ġconsider able
C l
an ter
Ã¶ glich
Ġprom pt
ĠElef anten
ĠG oo
ick e
ĠwÃ¼n scht
Ġw uÃŁ
ĠM ail
ĠL ane
Ġrain ing
ĠZusch auer
st al
ĠM am
ver d
Ġne ut
sp ro
Ġinst ruct
Ġloc ation
Ġemer gency
Ġash amed
ĠE X
Ġger ufen
Ġtick le
Ãĸ H
ĠVerk auf
re ll
Ġhe iratet
AR D
Ġsl ipp
ĠSam my
ĠSchn itt
ĠHu hn
ke e
Ġno isy
ust et
ĠSh a
ĠMex iko
ĠRay mond
Ġw icked
Ġl ic
Ġc ord
Ġje alous
U P
e ating
sch le
Ġr out
ĠSch lieÃŁlich
Ġreal ity
Ġelect ron
Ġf ett
Ġman ufact
ĠLau te
Ġtem pt
ĠMittern acht
au ert
Ġeng ines
Ġho he
ĠKÃ¼ ste
Ġsaf ely
Ġconfl ict
U E
Ã¼n scht
Ã¼nd ung
Ġpar l
Ġkontroll ieren
Ġbein ahe
ĠD unk
Ġmus eum
ne ur
ĠRe al
ĠSh akespe
pre tend
kar ten
Ġsp Ã¼re
Ġpack en
Ġanf assen
Ġfil ms
cont in
as il
Ġwar test
Ġad apt
ĠS up
Ġcheck ed
ĠerwÃ¤ hnt
Ġpfe ift
Ġw ahren
Ġf eder
ĠW usst
ĠL ies
Ġr ivers
Ġwr it
Ġbestimm ten
3 4
U SI
rop ri
Ã¤mp fen
Ġdescri be
au g
ĠR atten
Ġsp ark
ĠSchwar ze
Ġarg ument
icy cle
ay e
Ġatt ached
ĠRos a
Ġb illion
Ġan halten
Ġ197 7
ĠKat ie
Ġwid ers
ĠV alent
Ġab and
Ġele ments
ash i
nd er
Ġver ge
ĠMar sh
fle isch
ĠC ooper
ĠCh uck
Ġtre ibt
Ġind ic
Ġclot hing
necess ary
on ze
at schen
Ġgo als
Ġsoll tet
olog ist
ĠBeg inn
Ġd ed
ĠW achen
te ms
ot ograf
ĠL inks
Ġdar unter
Ġvern ichten
ĠW ik
Ġc ents
utsch er
ĠRepubl ik
ĠStell ung
Ġm utig
ĠI llustr
ill on
Ġwar ri
Ġher ab
d ia
ĠP el
ĠEntschuld igt
Ġbe ads
ud dle
ĠMit arbeiter
Ġerwar te
ĠMod ell
ĠEin fluss
aur us
D ad
ĠA ktiv
Ġair craft
ĠGroÃŁ artig
ĠPhil adelphia
Z E
p ern
u den
ĠH ob
ĠG ur
Ġun t
Ġsc ript
Ġfort un
ĠGeschen ke
e ight
ĠhÃ¤ ufig
ĠJ r
Ġst ove
ĠZwe ck
Ġ193 0
A UN
c rying
ĠSe il
a fe
ic opter
Ġ197 8
Ġcondu ct
ĠVie h
OU T
udden ly
Ġb ade
Ġdist ingu
Ġw reck
ĠZ erst
Ġar riv
Ġgew Ã¶hnt
ex cuse
H elen
Ġste el
Ġschle chten
w issen
ĠBl ake
Ġrem ove
kr ank
ĠInter view
Ġprogr amm
Ġreink ommen
Ġf acing
ĠschÃ¶n ste
Ġcomp ared
ĠIll inois
C arl
ĠS upp
sch me
Ġste ig
w ein
Ġge ist
ul ver
r ay
on i
ĠK erstin
ier er
ages sen
Ġneighbor hood
t ick
Ġso il
Ġst able
ĠZ U
ĠSo ciety
Ġpass ion
Ġfl our
Ġerf reut
gef Ã¼hl
any thing
ĠKon k
ĠWill ie
Ġverg iss
ĠTrau er
g i
Ġein laden
ph ants
ICH T
Ġzuh ause
m ony
p at
w esen
ĠL as
Ġembar rass
I CE
ony m
Ġsche iÃŁ
ĠThr on
Ġs ings
Ġm ask
Ġl ou
all a
rain ed
ĠSpe cial
Ġvar iety
ĠG ret
ha ber
Ġtoll es
ĠD ampf
ĠC C
ĠC hat
ĠU l
ĠGen e
or ten
ĠGeheimnis se
ĠKlavier musik
y on
Ġreg ister
vo ice
ĠBed roh
pa ar
ĠPenn sylvania
Ġconfirm ed
ĠNapole on
ol gt
Ġconne ction
ĠMississ ippi
Ġn etter
ra ck
Ġim age
opp ed
Ġgek Ã¤mpft
Ġange griffen
ĠAfghan istan
Ġm Ã¤chtig
Ġun iverse
ĠFr is
eren ces
Ġgef l
ĠPl Ã¶tzlich
ĠVers prochen
ĠFirst name
Ġbee ilen
Ġdistrib uted
t ag
ld er
ĠSp en
ĠGeh st
ĠSm art
ĠZauber er
Ġdisk ut
t own
ig ungen
Ġbe ep
ĠGem Ã¼se
ĠAnton io
Ġpossess ion
Ġprincip al
Ġinqu ired
achus etts
Ġn enne
te enth
sch irm
Ġden noch
ĠEur er
ĠPist ole
A uto
Ġv ain
ort heast
Ġfl ash
ĠLad ies
un ion
off t
19 6
Ġinfl uen
u ce
ĠF ieber
ĠLo hn
Ġemot ional
Ġhead ed
ĠJud y
ĠZigaret te
b ott
Ġeconom y
Ġamb ulance
ĠB ul
ĠP itt
Ġsc ale
Ġact ions
ĠBest es
ĠStÃ¼ck e
ĠS ax
ĠIn t
ĠDet ective
g on
Ġshe et
Ġimport ance
Ġadop t
b ein
Ġt ag
ĠL ib
Ġau ÃŁen
ĠAl aska
Ġval u
Ġinsp ect
C O
S c
re aches
or ious
Ġb ilden
ĠI V
ute ly
Ġsal es
Ġapproach ed
w oll
Ġs uck
Ġper man
ĠBeh and
ĠArch ite
Ġrepresent ed
9 0
ĠR ail
Ġg ig
Ġr ude
Ġr uhige
ĠEm peror
ĠAny thing
ĠPil ot
re ch
ĠA ah
ĠB ry
id o
ĠMar ine
ĠberÃ¼hm te
ĠM isch
Ġexh aust
Ġfurn iture
Ġj ew
Ġab oard
Ġinc ident
Ġpers u
feren z
S ure
m at
Ġt Ã¶tet
iz ens
Ġdri ft
ĠBest en
b lau
ĠKomm ando
Ġdoll ar
ĠTechn ik
ĠBast ard
Ġtr amp
Ġmer ely
Ġhealth y
Cal ais
Ġy ummy
Ġbroad cast
j oin
id et
ĠBe gr
ĠPolitik er
ĠDramat ische
Ġl t
Ġbe es
ĠAn to
ĠBl Ã¤tter
ĠerzÃ¤hl st
Ã¤cht ige
Ġstopp ing
ĠAnth ony
Ġnumer ous
ĠA aron
ĠF ing
mm t
LA U
LY N
Ġr ent
all s
did n
Ġl un
Ġc as
Ġver urs
Ġnot ed
Ġbeg onnen
Ġcup board
ĠApp etit
ĠM ath
Ġreg ions
Ġcapt ure
Ġaffect ion
Ġmyster y
Ġgesch m
ĠIs abe
ĠBib el
ĠJenn ifer
e ed
Ġsleep y
Ġersch ieÃŁen
Ġpen gu
ĠFort schr
ĠSter ben
Ġearn ed
ĠMarc us
Ġr ac
Ġsoll e
ven ge
ĠBer uhige
Ġ194 0
Ġoblig ed
r uhen
Ġspr ingt
Ġcol ored
ĠVerste ck
Ġsignific ant
ĠFeig ling
Ġin it
ĠR ain
ĠFreund innen
ĠS A
ĠAr nold
Ġoffic ially
ĠBeerd igung
ĠR ico
Ġtem por
A b
ĠP iraten
Ġer geben
G er
Y our
as is
ĠF ÃľR
Ġgew orfen
Ġlet s
Ġact ed
Ġg reifen
Ġersch eint
ĠRÃ¶ mer
Ġheav ily
M ark
l ots
ad ows
Ġwo zu
ĠWel come
Ġsn ap
y gen
ĠF C
ĠSch ein
ĠLe ise
usal em
ĠB ou
Ġat tended
Ġtr Ã¤um
Ġbasket ball
nd en
el er
ĠL hr
Ġchar m
Ġunderstand ing
ĠM ort
ĠL yn
ul u
ĠWe b
bl ack
ĠSen ate
ĠShakespe are
i able
ĠNa ja
Ġtri be
ric ane
Ġabgesch lossen
Ġlim ited
Ġdeg rees
ĠPau la
Ġh auen
Ã¤n ner
ĠKn opf
Ġquar ters
ĠJam ie
l ag
Ġfr ische
Ġtr ay
ĠSam uel
Ġkur ze
ĠWenig stens
ar ly
Ġpart ly
Ġclass es
et ed
Ġbr ach
ĠOh io
Ġsen ior
Ġgrow th
ĠS ound
ĠF inden
ĠR O
ess els
ock s
Ġrep orts
Ġkill er
Ġpress ed
Ġaward ed
Ġbub bles
Ä ģ
ĠK ennt
Ġstar ten
ĠhÃ¼b sche
Ġverwir rt
ĠEr le
m or
ĠL ill
Ġrem aining
ĠAt om
Ġreach ing
Ã¼mmer t
ĠD us
ĠG R
anz er
Ġbede ut
leid et
Ste ven
Ġf its
ĠA ffe
ĠL aufen
ĠAl ab
Ġsau ce
Ġstar ke
Ġprodu cts
ĠTw enty
ĠFried rich
Ġprim ary
Ġbenef it
d urch
ĠMa is
Ġpres er
ĠKn all
ĠGu ard
ĠRus sell
ĠSp ar
Ġstol en
Ġsepar ated
ĠZigaret ten
Ġse asons
wh ite
Ġ5 5
Ġ196 4
Ġ196 7
Ġverfol gen
Q u
k no
ie ter
Ġn utz
Ġsc ored
Ġutter ances
ĠDunkel heit
Ġl hnen
ĠO ch
Ġag gress
ĠDa isy
ĠAus land
ĠGesch lecht
Ġheraus finden
ĠMitt agessen
Ġinj ured
Ġo hn
ren d
geh Ã¶rt
ĠMass achusetts
ĠSt att
ĠEin ladung
Ġtra p
usst sein
f angen
ĠH asen
ĠK ids
ĠK han
Ġsm iles
ĠEm me
Ġin ches
ĠV ision
Ġspr achen
ĠNahr ung
ĠTh om
Ġhoff entlich
Ġamong st
Ġdep ends
ĠMeer es
col m
Ġc akes
ĠM ind
Ġre lie
ĠR et
ges etz
Ġaff airs
Ġconf used
Ġbas ic
ĠAust in
ĠzurÃ¼ck kehren
ĠUnter t
ĠHon or
ch ief
ĠN ana
ro b
ĠUn recht
ĠSe an
Ġpe e
ĠPro bably
spr Ã¼ng
Ġaufre gend
Ġcontain er
ĠVerdamm te
utn ant
le ave
Ġge zwungen
ĠÃľber all
ĠWel ch
jen igen
Ġa kt
ĠN orm
be st
ĠYOU R
yy y
" ),
Ã¼ glich
ĠN ix
ĠC rew
Ġr att
ĠFÃ¼r st
Ġstud ieren
Ġange zogen
Ġroll s
ĠBeg riff
at zen
Ġp irate
Ġag es
Ġcar bon
Ġask s
ĠkÃ¤mp ft
Ġanx iety
Ġs ought
Ġi tems
Ġth under
ĠC ro
Ġsomet hin
Ġgl anced
achte l
ĠKÃ¶n nt
Ġcons cious
Ġcott age
Ġdread ful
ĠFrÃ¼hl ing
ĠSchnau ze
ĠL Ã¶ffel
ĠC laus
Ġch art
ose x
Ġcost s
Ġschne iden
Ġamerikan ischen
ĠW om
ĠT ina
Ġgen ial
uk i
sta ben
ĠRus sen
Ġveh icle
Ġs igh
ĠD olly
ĠJ Ã¼ng
Ġmein s
Ġbr Ã¤
bare s
Ġaufgeh Ã¶rt
ĠHand t
Ġserv ants
ĠHaupt mann
ĠBere ich
Ġstret ched
bo ys
isk y
Ġprop os
Ġh ockey
Ġsch ein
ĠSp ion
Ġfre ie
Ġsail or
zweif elt
Ã¼nkt lich
ĠAn weis
oun ce
Ġneug ierig
F re
H ave
ĠN r
b lock
h Ã¶rt
ĠF uchs
ĠC IA
wh ose
Ġte en
ĠMan chester
ĠBl itz
Ġele g
Ġverschw indet
Ġromant ic
Ġneg ative
g ib
ĠH ank
ĠK urt
Ġr as
ĠNo ah
yr am
Ġt ub
ĠSp ace
ĠB uff
Ġdir t
Ġc m
ĠC ru
ĠR Ã¤
ĠZ ent
Ġjeder zeit
rok od
- "
Ġb on
Ġth irteen
ĠR oh
leg te
ĠTÃ¶ chter
Ġweht un
le itung
ĠK now
ĠEv elyn
f ertig
j agt
p an
Ã¼ gst
ahr t
Ġfact ory
ĠPrinz ip
ĠHA VE
Ġp atch
Ġse as
qu ick
ĠKl inik
ĠWell en
ha be
H A
der t
Ã¼g elt
ĠChamp ion
ĠCor por
ĠW onder
ow a
Ġaus geb
Ġcere al
z on
ĠO ri
Ġsqu irrel
Ġbull et
ĠK u
ĠHe idi
ger Ã¤usche
umb ling
Ġmist ress
Ġstro ke
Ġridic ulous
o en
le ment
Ġst ated
Ġwurde st
ĠST ÃĸH
Ġnatur ally
ĠIn stead
lo cken
ĠAr k
Ġad m
Ġn app
ĠF ak
ĠC ivil
Ġman agement
ĠAus gang
ĠPh ill
ĠMart y
ĠB em
pr ise
ĠEur en
Ġperfe kte
Ġest im
telligen ce
ĠScheid ung
Ġt anzt
ĠS aft
Ġto llen
Ġan cest
Ġse eds
ĠBl ume
Ġbre it
Ġret reat
Ġmar ch
ĠQu iet
Ġin come
le iter
th s
AN G
Ġdisapp ointed
Ġcrocod ile
b ang
m ind
w es
ĠM ouse
ĠIn se
Ġgef reut
red et
Ġser ving
Ġtrain ed
ĠSchre ibt
ĠFil ms
Ġemplo y
Ġdum me
Ġabh auen
Ġre chte
ĠEr ik
Ġbr ennen
pen dence
war ten
ĠHaus es
ĠS weet
Ġv oy
Ġalong side
ĠSch lafen
ĠVer hÃ¤lt
ĠBr idge
sw ert
g ab
Ġw ishes
Ġc olle
ĠC ab
ĠC ON
ĠDe an
ĠVerg leich
bie ten
---------------- ----------------
c ation
ce ived
Ġaccomp an
Ġtiss ue
ĠF ollow
Ã¶ ser
Ġun ternehmen
ĠHe alth
Ġvor wÃ¤rts
up on
Ġirgend welche
ĠFig uren
B O
ĠSch Ã¤del
ĠPri ze
ĠTok yo
Ġin tens
den s
pr on
Ġamerikan ische
ĠJere my
ĠTe en
Ġschwer er
Ġverschw inde
ere ien
Ġdu ll
ĠAt men
Ġpolit ics
ĠAngel a
Ġill ness
ĠHoll and
ĠD om
ĠW innie
ĠF ound
ĠJ essie
Ġart ists
ĠS ich
Ġch at
Ġch ess
lie st
b ons
ĠH aust
pp ern
ze ig
Ġgegen seitig
ĠWeiÃŁ e
ĠKal iforn
ĠLA CHT
ĠDou glas
Ġm ies
ĠG umm
ĠO ft
Ġspe zie
ĠRom ant
Ġerinn erst
Ġauthor ities
Ġlaun ched
ĠD urst
ĠNa zi
Ġcomp osed
ipp t
ĠJes se
order t
Ġtap fer
ĠgrÃ¼ ne
Ġrespond ed
urop Ã¤
Ġl es
ĠT anzen
Ġz ahlt
Ġsch ieÃŁt
ĠUr s
Ġgetr agen
4 6
V IS
ĠH ase
ri ot
Ã© r
ĠPoliz isten
ĠEw igkeit
ĠW at
ĠM iete
ĠSp art
ĠAnd erson
ger Ã¤t
ĠAm b
ĠTy ler
ĠcHffff ff
ĠD od
lie be
ĠDonn erst
ĠÃĸff entlich
Ġp ole
ro ht
Ġal phabet
Ġtr at
Ġret ire
ĠSan fte
Ġwhist le
ein er
ĠM u
ĠM IT
eh nt
Ġit alien
Ġsch ed
Ġscient ific
ĠRebe cca
Ġan gem
Ġgr Ã¼nd
Ġunter schreiben
ĠKl ima
Ġclean ing
ĠSek retÃ¤r
c ohol
d orf
Ġent steht
Ġocc as
Ġnah men
ĠStu art
F e
J e
l Ã¤sst
Ġj ar
ge k
ĠUn mÃ¶glich
ĠFranz osen
Ġdefe at
Ġg osh
Ġc attle
ĠB alt
ier ter
ertain ly
ĠFin ally
s ound
Ġr ig
Ġgem alt
ĠHat te
ĠKon zentr
ĠBomb a
Ġsh ark
Ġguck t
Ġstore s
Ġre action
Ġman ip
Ġbess eren
3 9
p erson
ul pt
tre ter
ĠOlymp ic
j amas
ĠN ich
hn ess
Ġda zwischen
Ġgel andet
o den
p acken
Ġj ub
Ġun angen
Ġhor ror
Ġher kommen
Ġbell y
Ġsetz e
s etzt
ĠK laus
ĠAus bildung
uzz le
ĠMoo re
Ġelimin ated
ĠzurÃ¼ck zu
ĠCast le
ĠMÃ¤us e
J www
ĠW rest
le ans
Ã¶s es
Ġexpect ing
Ġbas is
st chen
ĠSp ir
ĠFest ival
ĠSÃ¶ hne
Ġarriv al
m aster
Ġs org
Ġâ ľ
ĠZum indest
ĠRepubl ican
7 5
l ik
al og
Ġv ig
kl en
Ġgra pes
ĠRec ords
g one
ow een
em p
Ġimp at
Ġeinz iger
f Ã¤llt
ĠG a
ĠFamil y
Ã¼nd igt
ĠGew icht
ĠEntscheid ungen
Ġsamm eln
l ord
v ollen
ĠG ouver
ĠTe lef
Ġber Ã¼hrt
Ġakzept ieren
Ġhe isst
ars h
ĠMich elle
ĠHu gh
Ġpretend ing
Ġpray er
Ġprogram me
l ady
ĠG ina
ĠJo an
ĠGed Ã¤chtnis
Ġsusp ic
Ġherr scht
ĠWÃ¤ sche
at men
ĠS ister
ER S
Ġle vels
ĠSh in
ĠCl own
ĠGlÃ¼ck s
Ġruin iert
Ġl ese
Ġso ck
ĠMe an
ĠPol en
Ġempf angen
ĠNob el
Ġverab schieden
ĠI hn
ĠP uppen
ĠJer usalem
Ġadvent ures
w ach
ĠL am
Ġne arest
Ġfin ancial
ON E
Ġverm issen
ĠMex ican
Ġviol ence
Ġâľ ¿
f ia
Ġst ations
Ġsh y
ĠGr aham
ĠPol it
ĠNaz is
ĠP ope
Ġre ign
be c
Ġch a
ĠMar sch
ĠDire ctor
ĠErn ie
en kt
Ġo d
Ġgen et
ĠBl ood
fahr er
Ġsurv ive
ĠA ra
id ays
Ġsa c
re ts
ĠD ial
ĠH uren
ĠB ush
Ġbe ating
us ive
ĠN on
ĠÃ¼ber lassen
the it
ĠMel ancholische
ĠHon ig
R T
f ers
Ġm ummie
Ã¼ ter
Ġv essels
Ġst ress
ĠMann schaft
Ġtrau en
Ġhar te
ĠM ig
Ġex change
OM M
ĠD ig
ĠN elson
ĠP ress
Ġhead quarters
Ġs ale
ĠN ull
ĠPr Ã¤
ĠWelt krieg
Ġw inner
ĠA me
ip es
ĠIs a
ĠBo ys
ĠHÃ¼ gel
Ġest ate
l ager
ĠL I
Ġst inkt
ler weile
na pped
ĠFrem den
Ġgel ang
ĠMo z
Ġsatisf action
m ont
ĠFre der
ĠCl are
ĠAd ams
Ġactiv ities
Ġmultip le
7 0
Ġt ack
ot zt
ĠC ir
spr ung
Ġfoc us
on to
ĠK Ã¼r
Ġsch lieÃŁt
Ġgood bye
RI C
ĠCath y
Ã¼ lle
ĠE igent
ĠZ will
ĠSp rechen
-- _
Ġpregn ant
Ġs ank
ĠS uddenly
ĠK ons
imm el
Ġapproach ing
ĠSeÃ± or
e ven
ĠSc ient
ĠBangl adesh
ĠWusst est
Ġf aul
Ġscient ists
Ġadop ted
gew icht
non speech
r iel
ĠH itze
ĠV ill
IS S
ron en
Ġschl Ã¤fst
ĠMich igan
Ġdiscover y
ĠCO VID
Ġtid y
Ġrust ling
Ġbisc uits
ĠRak eten
m ove
ig ungs
Ġex act
Ġfl ed
ĠGer mans
hal te
ĠOff izier
Ġunschuld ig
Ġp oll
ĠFl aschen
ĠEing ang
Ġgrate ful
f s
l asse
ru ption
ĠCar los
Ġrecht zeitig
Ġport ion
Ġga ben
ad i
ĠIn st
Ġdr ank
ĠTe ppich
Ġnear by
Ġbelong ed
Ġrul ed
Ġfeed ing
lem n
Ġk auft
ot zen
ĠBr id
Ġcl ient
Ã¤us chen
Ġver hand
Ġthr ust
Ġw is
Ġl inken
Ġc lo
ĠM ahl
Ġp fl
sch i
ul es
ĠEx zellen
Ġgener ation
ĠAlab ama
Ġi llustr
id d
ub by
Ġfool ish
Ġnormal e
Ġlern te
Ġberuh igt
Ġh its
ĠM AR
ĠB ienen
Ġwir ft
Ġcere mony
ĠVerf Ã¼gung
Ġfeather s
an walt
ĠK ater
Ġj am
Ġent weder
ĠÃ¶ff net
Ġrie chen
Ġloud ly
Ġb ietet
Ġbe ibr
am otten
Ġda heim
fe uer
Ġpass ierte
ĠChanc en
ĠD schung
ĠL ach
ĠBe ach
ar in
Ġp ist
Ġpr Ã¤sent
OU LD
ĠSome body
Ġin nen
ag te
f il
Ġen de
Ġbu ff
unk er
Ġtem ple
cri ption
4 9
z unehmen
Ġf otograf
ĠK ass
amp en
ĠAm t
care ful
ĠRegisse ur
B y
b ag
Ġd ining
ĠK ammer
Ġge il
Ġthr one
ĠAb d
Ġvol unte
Ġmurder ed
ĠLe op
Ġkl ass
Ġgl Ã¼ck
bar keit
wie der
m ama
is ierung
ĠG ans
Ġsch laf
ĠAn ze
ĠI ra
ĠD U
ges pr
Ġstar ring
ĠDor a
Ġinterrupt ed
S ie
b ist
g ren
or ial
ĠO bst
Ġauf gesch
od a
Ġent fÃ¼hrt
Ġtourn ament
Ġst ack
br ot
att et
Ġmind s
Ġerg ibt
Ġa stron
Ġbe ispiel
Ġre v
ĠMus st
Ġheim lich
Ġassist ant
re p
ĠMal colm
mar sch
ĠKil o
ĠBom ben
Ġbesonder en
Ġdesper ate
ĠVer brecher
ĠSp uren
ĠPl atten
stell ungen
Ġguck e
ĠAbr aham
ĠDonnerst ag
Ġtr Ã¤gst
Ġrub bish
Ġbud get
K T
Ġd ipl
Ġsp y
Ġpar ent
Ġben Ã¶t
Ġcap able
Ġconf ident
Ġprogr ams
ĠScott ish
ĠBezieh ungen
ĠColumb ia
Ġliqu id
zip lin
p os
re de
ĠL esen
ĠC af
Ġwant ing
ĠKinder garten
Ġze ich
Ġbelie bt
at ively
Ġf asc
ĠT ower
ĠHe aven
Ġans wers
Ġb ore
Ġle ap
EL T
Ġeng ag
ĠPass ag
Ġpig gy
ĠHum or
Ġoffiz iell
b ai
ĠD ynam
ĠEr b
we stern
ast ing
Ġger ing
Ġ12 0
OO K
Ġtrou bles
h Ã¤nger
ab a
Ġcomm itted
Ġabs urd
Ã¶p fen
Ġb ust
ĠF ett
ĠP ad
Ġse vere
ĠJo ey
Ġ196 6
Ġdig ital
Ġext ent
m t
Ġm ental
ĠS Ã¤nger
ĠV illa
uh igen
erst off
ats on
Ġwus stest
ĠMag ie
d arf
ĠW r
Ġl oo
Ġwor auf
ĠZeit ungen
Ġ25 0
poin t
ĠAgn es
r ah
Ġin ten
Ã¶ ÃŁt
ĠUn schuld
ĠCh or
Ġlov ing
ut ation
ĠZie mlich
ĠK ette
Ã¼r en
ĠLie fer
Ġersch affen
Ġpolit ische
IE D
ĠSchwar zen
Ġassoci ated
Ġland s
ĠGlau be
Ġpaus ed
w he
Ġl n
Ġpe anut
ĠJun i
Ġg orge
ges icht
ign et
r up
z ur
ĠI rene
ĠAn trag
ost et
ĠPol and
ĠLo ire
G en
R EN
ĠT ak
ĠR io
Ġunf air
Ġschluch zt
v et
ol in
Ġat mosph
ĠGe is
sel y
Ġagre ement
Ġbeige bracht
3 2
Ġk aufe
ĠT an
Ġst ink
Ġsh ared
ĠBe ge
Ġbes iegen
ĠBeh Ã¶r
ĠEntwick lung
ĠF ehl
Ġum bre
ia c
wer te
o ge
mer s
guck t
ĠLab our
c ook
w all
ĠF antast
Ġdel ay
Ġdaugh ters
ĠgrÃ¶ÃŁ ere
ĠAunt ie
ic ip
ĠfÃ¼r chten
ĠHa wa
Ġtre u
Ġsix th
Ġmet ers
b urn
ĠS elt
ĠmÃ¼s se
Ġident if
Ġbehaup ten
â Ĩ
Ġfriend ship
ĠKr ist
amer ika
Ġhung rig
Ġattack s
Ġvisit ors
Ã¨ re
Ġnucle ar
Ġb ib
Ġl imit
Ġso lemn
Ġgew issen
ĠUnt il
ĠMar shall
Ġverw enden
zeich nen
ĠAnw esen
ĠSong s
Ġchamp ion
Ġnic ely
ĠKaliforn ien
Ġb aut
ĠG Ã¤n
ĠPortug al
Ġthorough ly
es ar
mal en
ĠBes itzer
ĠRÃ¼ck kehr
zeich nis
ĠParl ament
ĠMosk au
ang ar
Ġcon stit
Ã¼t tern
Ġsk ill
iam i
Ġter min
cul iar
jÃ¤hr ige
f ound
ĠA S
Ġgesch affen
Ġzie hst
ĠWor Ã¼ber
yn asty
Ġstick er
ĠFantas ie
h ase
ĠB A
ĠTr otz
Ġfal se
rag end
kann te
ĠMÃ¼n chen
s i
ĠB einen
Ġsal ad
d ale
Ġaus l
ne ver
Ġbisc uit
S ee
Ġis ol
ĠPost en
h orn
ĠM ode
om ed
ĠP assen
og r
ling t
ĠPl Ã¤tze
ĠHar rison
richt et
ĠGirl s
ĠG ame
Ġchar ged
ĠOkt ober
c lose
Ġs ig
ĠM inn
ig end
ach ing
ĠV ic
ĠBe am
Ã¼t zlich
ĠDreh buch
ĠWeihnachts mann
ĠVer hand
ĠRep resent
Ġerkl Ã¤re
ĠSchm uck
ĠSter nen
Ġregard ed
ĠVerein igten
Ġcit izens
ĠMedik amente
Ġvalu able
ĠR he
Ġsch eme
Ġsp aghetti
ĠHer bert
Ġbek annte
Ġextre me
Ġdra wer
ĠThr ough
h un
ĠJ ude
AN K
Ġged reht
ĠProdu kt
ĠJohann es
ĠTats ache
Ġmiser able
ine a
Ġben ch
serv ative
ĠFir men
Ġfas zin
ĠÃĸffentlich keit
ĠFr Ã¶h
ĠHer ein
Don ald
ĠT ai
ĠV ort
ren der
Ġste ad
ief ert
ĠDien stag
Ġinn it
a ppen
o or
ĠJa zz
Ã¼t lich
Ġvis ion
ĠI van
Ġf ang
Ġin strument
Ġgef logen
ĠLie ben
off en
Ġanim ated
reg ung
ĠGefangen en
gÃ¼lt ig
p lex
Ġein de
Ġzu st
ĠEr satz
ste cken
sh it
uss ion
Ġmin us
Ġint ention
ĠStra f
Ġaw ait
ĠÃ¼ ben
ĠKenn eth
Ġstraw berry
un r
enn is
Ġat om
ul se
ger issen
ĠAll er
Ã¤r chen
ĠKer le
Ġmid night
Ġcon vin
ĠBr Ã¤
ĠBrook lyn
ig i
ĠL ive
Ã¼r f
ĠSh an
Ġgel b
Ġfre ien
ĠRu hm
Ġcent uries
Ġinde pendence
ĠVe gas
N ew
Ġein ig
Ġein get
op er
la ir
Ġsur gery
Ġ196 5
ĠZie hen
Ġrock et
V A
ĠS C
Ġver lieÃŁ
Ġbu zz
Ġcol umn
ĠSeit dem
Ġf uel
ies s
Ġwho a
Ġbet rogen
ĠDad a
ĠSpan i
ĠwuÃŁ te
ĠN umber
ma ÃŁen
los er
urr ay
Ġbatter y
ĠEth an
ĠD at
Ġun ex
Ġreturn s
Ġoper a
ĠRa j
ĠAust rian
ĠLeon ard
Ġund ert
Ġhat s
Ġsa iled
Ġexplan ation
E llie
T A
ĠK ollege
ĠDad urch
az y
Ġaufge geben
ĠDou g
Ġh aut
Ġwoll e
Ġersch einen
ĠTer ry
Ġzun Ã¤chst
Ġge kl
ĠKl im
Ġkap iert
ĠBib li
ĠI ST
ĠL ala
ac ity
Ġpart ners
thank s
some body
Ġn atives
ĠF ischer
aff net
Ġfl ies
Ġcomp ut
Ġfeder al
m eine
Ġde bt
Ġ6 00
Ġh en
ot ing
Ġvor an
Ġpe culiar
ĠhÃ¤t t
Ġerf Ã¤hrt
Ġprep are
Ġpun ishment
Ġberuh igen
op ed
Ġfun eral
Ġfrei willig
ĠAuft ritt
Ġerh Ã¶
ĠParad ies
m ight
Ġf etch
ĠK einen
ĠP ig
ĠZ oe
ĠChar akter
ĠRep orter
ĠSw ed
Ġj Ã¼d
ĠSc ience
Ġabs or
Ġshort ly
Ġdress ing
Ġpri or
Ġadmin ist
Ġh ired
ĠH ockey
ĠU fer
Ġge we
Ġbl ows
ĠNe il
ĠGl oria
Ġ196 3
Ġprov in
ĠPrin zen
u u
ĠB Ã¼r
Ġsa ving
ĠSpr achen
Ġdeep ly
Ġbehaupt et
Ġex istence
ĠFl uch
Ġzw ingen
ĠFace book
ĠPlast ik
I TE
c ount
Ġr inging
Ġzu lassen
ĠkÃ¶n ig
ĠBen zin
ĠMed ia
ĠKan inchen
Ġbank s
Ġal bern
Ġ4 6
ĠSchw imm
Ġcle ared
ĠCol or
krie gt
Max e
ĠA de
ĠG un
Ġgro ssen
ĠErgeb nis
l oo
sch auen
ĠInd eed
ĠWichtig ste
Ġsaus age
Ġ Ġ
Ġus eless
Ġbest raft
Ġcomm ission
ĠmerkwÃ¼rd ig
Ġto ol
Ã¤ ht
ĠK it
Ġwe b
ver trau
cc er
ucht et
h ad
Ġl an
Ġein zu
ver k
Ġpr ime
ĠHar vard
pect ed
L IN
Ġfire man
Ġz ahle
gesch ickt
ĠCra ig
ĠW ILL
Ġp aw
ĠSe veral
Ġant un
Ã¼st ert
ĠTob y
ĠBurt on
refer ring
ĠS inne
ĠW IR
Ġan gucken
Ġgeh or
scream s
Ġchim ney
ĠExzellen z
L ES
o hnung
u ke
Ġc laimed
ĠM ack
ĠExpl osion
l ap
Ã ¢
ĠA www
Ġal cohol
ĠCh en
kst att
ĠTem po
Ġtrem end
g ment
Ġl ux
no se
pl ess
ĠSh ah
Ġele phants
Ġfest halten
Ġdev ice
Ġvac ation
e v
Ã¶ ck
ĠHel fen
ĠM iami
Ġwh ilst
Ġman chen
ĠAn im
Ġreg net
ĠSer ie
ĠBrazil ian
Ġash ore
st eh
gen er
ĠIr is
Ġ195 6
Ġnon sense
Ġschick te
Ġmunicip al
Ġnehm t
Ġthirst y
p ot
Ġha ha
Ġfe ature
esch Ã¶n
Ġfl ow
ĠCl ay
Ġkonzentr ieren
4 4
E n
s qu
Ġk lau
ig o
Ġas pect
ize i
Ġtri umph
ÉĻ h
Ġcolor ing
B ill
ĠWas s
ling en
ĠDe z
Ġ4 3
Ġcr iminal
Ġdist ur
Ġswe pt
b ett
id el
ĠN AS
Ġan genommen
Ġins urance
Ġstar ing
Ġthreat ened
Ġrecover ed
ĠVer p
Ġex tended
ĠWohn zimmer
ĠFal sch
ĠÃĦgyp ten
S ar
b ors
or p
ir y
ĠK ob
ĠK ummer
ĠC ons
ĠAr g
the less
wie so
cul es
ĠAdmir al
ĠW Ã¶l
ĠN av
ag ged
ri x
ik ation
ĠSh ort
ĠKat astrophe
Ġarri ve
ĠHug o
ĠK yle
Ġdu mb
Ġcon cept
ĠNe un
ĠWer bung
Ġseit dem
ĠCount ry
ĠW urz
ĠF ans
ĠAnd r
ett le
ĠComm ission
p laces
le ger
Ġzu hÃ¶ren
Ġun happy
Ġcr icket
schl Ã¼ssel
Ġstick ing
asket ball
r ice
z Ã¼ge
ĠG ert
ĠN arr
ĠR A
ik al
Ġins isted
Ġverk auf
Ġrub ber
Ġdelight ful
x is
on ic
ĠUn iform
Ġhin weg
let ten
B ar
ĠQu ad
ĠBo gen
Ġsqu ad
Ġvill ages
Ġcand le
B aby
F L
H S
ĠVer stÃ¤nd
Ġste ep
Ġref ers
Ġfig ured
Ġbeeindruck t
ĠHein rich
D av
Ġl emon
ĠEd na
IT OR
Ġbear ing
Ġclos ing
ĠKell ner
ĠS amen
Ġin tend
Ġ( ,
Ġimp act
Ġflie ÃŁt
f amil
v ant
ast es
Ã¶t t
Ġvis ible
Ġtouch ing
Ġspend ing
spiel er
ĠDet ails
Ġentwick eln
ĠHind u
ĠOrigin al
Ġbeispiel sweise
5 5
ĠW oo
Ġag ric
ĠLebens mittel
ĠL or
ĠAn teil
Ġhel icopter
ĠMay a
ĠGree ce
b ies
d ar
ĠP u
ĠGe off
Ġfe ared
ild ing
ĠKr one
Ġirgend jemand
ĠErzÃ¤hl en
ĠEl is
Ġart icles
ĠTest ament
Ġdeser ve
h Ã¤nd
Ã¼ bt
Ġdo ppelt
ĠSch ach
Ġch in
ster dam
Ġconf erence
ĠKN OW
ĠH ahn
ĠDar ling
Ġcott on
j ump
ĠSch ick
ĠZ elt
Ġwicht igen
Ġwh ale
ĠSe gen
Ġ196 1
hel fen
ĠSing ap
ĠK ill
Ġpro ceeded
Ġviol ent
ĠInhalt sver
Ġconvin ced
h uch
ĠC AN
ĠOr te
Ġimp ress
ĠStief el
ĠR Ã¤uber
Ã¼r tel
Ġnow here
Ġkein es
ok o
Ġcook ed
Ġinst antly
FRI END
ĠgehÃ¶r st
f ert
w al
z one
Ġt ide
ĠM orning
ĠC Ã¤s
Ġcount ing
ĠVerl ust
isc illa
ĠKur ve
Ġhistor ical
zum achen
te acher
sel n
ĠUm gebung
ĠtÃ¶ te
ag ers
Ġst immen
Ġstud ying
Ġversp rechen
ĠMotor rad
Ġveget ables
ĠMusl im
Ġre form
ĠSch ock
ib el
Ġsail ing
Ġconst ant
ĠHeraus forder
H ING
ĠP ep
imm y
Ġpat ients
d ed
Ġp ed
ord net
Ġtun e
Ġverp assen
Ġbast ard
Ġre serv
ĠO H
Ġstat us
Ġhop es
ĠTrain er
P aul
w eh
Ġbe weg
un ning
Ã¶ ch
Ġgef Ã¤llig
ĠBuch staben
Ġtouch es
Ġexper ien
g Ã¤nger
Ġa rose
ĠPap i
zuh alten
' ...
d rei
ĠS etzt
ĠD rau
Ġto e
br ingt
Ġem b
Ġwind s
ĠSat ell
ĠBrau chst
ĠBrun nen
ropri ate
b els
Ġm ere
Ġf are
Ġc rab
was h
Ġent standen
Ġbes itzt
Ġ196 2
Ġdev il
Ġaffect ed
ĠA RE
ĠH yp
ĠF err
ent in
Ġbesche uert
ĠInhaltsver zeichnis
k ammer
Ġe y
Ġgeh Ã¶re
ate ur
Ġgew arnt
ĠGer uch
o id
Ġp Ã¼nktlich
ĠT R
ĠC amer
Ġst ared
Ã¤t zlich
ges amt
Ġerst aun
rÃ¼ck en
ĠTon i
Ġverp fl
B en
Ġb Ã¶sen
Ġun abhÃ¤ng
Ġput zen
Ġcomm it
ĠK az
ĠAb teilung
b ul
in ity
ĠA stron
al ia
her n
ĠSt ahl
ĠJob s
ĠSchul en
ĠDschung el
st Ã¼cke
Ġi d
es h
ĠA sche
ĠK aum
Ġher an
ĠEr den
hol z
Ġdraw s
Ġchurch es
ĠT ausende
ĠTo te
Ġschme cken
Ġsle e
ĠMount ain
Ġf lesh
Ġk Ã¤me
ĠC reek
ĠR an
Ġzw anzig
Ġliter ature
Ġdiam ond
ĠJ ur
ol ph
ĠVer ab
stell te
chest ra
Ġd ried
Ġex tens
Ġexp ressed
Ġgek Ã¼sst
Ġp irates
Ġdis ag
ĠKl amotten
Ġstr ict
Ġvol can
s name
ĠV I
Ġdistrict s
ĠK in
Ġsch r
ĠSch la
ĠStr asse
Ġ194 8
Ġorgan is
Ġkick ed
ĠKlo ster
au bt
th rop
Ġver we
wh a
ĠSte ck
ĠEurop Ã¤
ĠTur key
ĠSau erstoff
Per haps
ĠA venue
ad ium
fr agen
Ġenjoy ing
ĠK iller
Ġ4 9
Ġla wn
ĠNik ol
Ġp hr
Ġp iss
Ġwhere ver
ĠSer ies
ĠJew s
Ġexped ition
ĠR ita
Ġir r
Ġdre imal
Ġpot ato
ongrat ulations
l ern
ĠE her
ĠV ul
Ġ19 20
ĠEnt fern
ĠCol in
ĠMÃ¤nn chen
OO D
Ġnirgend wo
N G
Ġm am
Ġf ires
ĠA US
Ġpack ed
law s
ĠWay ne
Ġfier ce
G AI
j ack
Ã ī
Ġa chten
Ġn ortheast
Ġas c
ĠHar vey
Ġdirect ions
r ier
is key
Ã¼ mp
ĠG abe
ĠP oint
ĠEin verstanden
Ã¤lt st
stand ing
Ġ194 7
Ġdinosaur s
Ġm oo
ĠG ES
Ġwe isst
ick ing
est en
ĠgroÃŁ zÃ¼g
ĠSon dern
N ic
er m
Ġd ign
ier ungen
um a
Ġher gekommen
Ġch ances
ĠDe ar
Ġimp ression
ĠLuc as
er a
Ġc anton
Ġp oured
ĠF utter
Ġfe e
ĠVor teil
kl ar
ĠJak ob
t ape
Ġs Ã¼d
Ġf Ã¼hre
Ġe go
Ġhat ed
av an
Ġbreat he
mosph Ã¤re
Ġou ter
Ġatmosph ere
Ġd well
ĠWar s
Ġgef ehlt
o ise
Ġt aten
ĠA kte
Ġunter suchen
isten z
Ġattempt s
ĠMitg lieder
U CK
Ġa ha
ĠN ep
ĠC ard
ĠGe ography
ĠWer de
Ġlast ed
ĠHal f
Ġdet ective
Ġeinzel nen
Ġs Ã¤
re kt
ĠC e
ĠC ape
Ġr attle
Ġsch Ã¼t
iss ors
ĠStre cke
Ġwav ing
le hnt
ĠN iger
ĠAl bum
ĠSp l
ĠUnter haltung
Ġbez ahl
Ġcheer ful
Ġm uff
ĠM uh
ĠB ock
ĠR Ã¤tsel
ne xt
Ġnie dr
Ġber ichten
ĠmÃ¶glich st
wÃ¤ sche
c al
ann ing
ĠC ly
Ġact s
ĠMad rid
ĠGesicht er
ĠHaupt sache
ĠStud ium
Ġcre pt
Ġp enn
art ier
ul iert
Ġkl Ã¤ren
Ġgen us
ĠMar got
Ġass ured
Ġries ige
z ahlen
Ġc ou
Ġp unch
ĠT ap
onn ie
Ġide al
Ġma id
ĠZug ang
Ġwid ely
Ġinte gr
Ġox ygen
ĠS uchen
Ġfr ustr
to y
iz ations
ĠMusik er
ĠAm sterdam
ĠCon c
Ġsche iden
ĠHÃ¤t test
ĠLÃ¶ we
ĠMean while
n ine
ĠS Ã¼nde
Ġdon key
ss ystem
ĠPr iscilla
Ġjung le
N ER
Ġpro spect
ĠEngl Ã¤nder
ĠRick y
ĠG locke
il fe
res ser
gr ad
ĠSchl angen
ret ty
vocal ization
Ġ Ã¤ch
Ġb end
ĠK ohl
Ġchar ges
Ġdescri ption
ck ten
Ġr ichten
ant es
zen e
Ġmer cy
ĠOrgan isation
Ġtelefon ieren
Ġs am
Ġse ed
ĠWÃ¼n sche
ĠB BC
ke i
Ġgeh offt
igh test
ĠdÃ¼r ft
ĠHum an
f un
h ut
v Ã¶
sch rei
ĠNot en
ĠKÃ¶nn test
Ġsac red
D u
bo te
Ġengine er
ĠVerschw inden
Ġs orgt
ĠHe iÃŁt
Ġbet eil
Ġlos werden
ĠLie der
ĠAut ob
Ġsuc ceed
ing le
Ġst oppen
Ġbo b
la pping
Ġwichtig sten
mach st
1 00
ent liche
itt chen
Ġhol y
ĠLau ne
ĠLaut es
Ġeinges perrt
ĠOze an
f Ã¤nger
ĠM ans
ud el
Ġpre viously
Ġper for
asc al
ĠD ark
ĠB aker
ere k
um ble
ĠWe chsel
Ġet hn
Ġgef iel
Ġverbr annt
ĠSie ger
ud es
Ġverst Ã¤nd
Ġlo ads
Ġobt ained
ĠJeann ine
Ġumbre lla
s ur
ann ed
ĠSchw eden
Ġhor iz
Ġ195 9
Ġung laub
ĠRett ungs
ern er
Ġcatch ing
ĠAss embly
Ġforest s
Ġn asty
Ġf icken
ĠF ed
sh h
iff erent
Ġflo g
Ã ¦
iv ia
Ġdr Ã¼ck
Ġgew Ã¼nscht
Ġbes itzen
war en
Ġkind ness
Ġrel ations
au scht
am ation
ĠN one
ann i
amm ad
ĠEx actly
umm t
Ġdisc ip
ĠWel chen
Ġcop ies
ĠGouver neur
g reat
Ġ |
Ġl abel
Ġbe stens
Ġhe d
ĠIn te
ous ed
ĠRe iter
br annt
Ġ8 00
rad es
An na
ĠSchne ider
d ro
Ġd Ã¤
rau en
Ġschwer en
Ã¤cht iger
Ġdramat ische
ĠMaur ice
6 6
ĠTour isten
jÃ¤hr igen
Ġwra pped
ĠDemokrat ie
c alled
n or
ĠB ond
ĠF ield
sch on
ure au
Ġapp lied
Ġstick y
ĠNor a
ĠKom isch
Ġorgan ized
hÃ¶r nchen
Ġfrequ ently
Ġunheim lich
ann ien
ĠAn a
Ġgef Ã¼hlt
Ġaut om
Ġcollect ed
Ġtrib es
" ;
Ġh ink
Ġb aden
ĠT afel
ist ing
Ġmach ines
ĠSe gel
Ġacc ord
Ġbell s
ĠPersÃ¶n lichkeit
M ER
g ies
Ã £
Ã¼ chten
Ġgew ollt
ĠschÃ¶n sten
Ġmov ements
Ġinter f
Ġpar ish
ĠSzen en
Ġrabb its
Ġsh ots
ĠAll ison
Ġatt itude
ĠAd ler
Ġsol ution
L ara
Ġm os
ĠG us
Ã¶ die
ne ed
Ġsit u
Ġsn akes
Ġ195 5
Ġmount ed
V ery
ll y
dam it
ĠEntsp ann
u ct
Ġ à²
ĠS Ã¼nden
ĠN igger
ĠSp orts
Ġgrad ually
Ġdeliver ed
ĠJac ques
ĠTob ias
Ġemot ion
ĠPrÃ¼ fung
ĠFÃ¤h igkeiten
Ġrecomm end
Ġth ief
Ġun ge
Ġaus steigen
Ġwor ship
Ġverl etzen
na pp
ĠChrist ine
ĠCol a
Ġalbum s
Ġtick ets
ĠChild ren
ĠM ast
ĠG ET
Ġresour ces
k ir
Ġgem eldet
ĠElef ant
ĠEdu cation
. =
p ast
Ġs outheast
Ġc one
im i
Ġver me
Ġse ver
ĠZ aun
Ġste amer
ĠMor al
ĠblÃ¶ den
ĠWilhel mine
w ird
it ors
Ġf ert
ĠD inger
Ġj olly
Ġsch lief
ĠRe vol
ĠOr chester
ĠBus iness
Ġdick e
Ġzus ehen
a id
ĠD ix
ĠM icro
ze ch
ip fel
ĠGer ald
ĠAm ong
ĠOff ice
M O
Ġd raft
ĠSt roh
Ġwor an
ĠSchauspiel erin
Ġdiscuss ion
ĠRett ung
Ġwelt weit
ĠSwed ish
ĠM ale
ĠB etter
um pen
Ġzu gleich
ĠRe feren
Ġgel ieb
Ġschau e
ĠhÃ¶ch ste
ĠSqu are
3 1
ĠDe ad
zieh ung
ĠjÃ¼ng er
s ong
s age
on ce
ĠJ ill
ĠGer Ã¤t
ĠHand el
Ġersch Ã¶pft
ĠT ib
Ġang reifen
ĠJon as
ĠMÃ¼ll er
ĠWien er
j etz
ĠE aster
Ġst or
ang ed
ĠÃ¼ber geben
ĠSy mbol
t rain
ĠS ak
ĠB ass
ĠRu fe
ĠGood bye
Ã¤u pt
ĠUntersuch ung
ĠPed ro
as ha
Ġf oss
Ġr ennen
Ġverl iere
az ier
ĠEhe frau
ĠVolk es
Ġgrie ch
d ere
Ġr hythm
Ġbefre it
ĠAbsol ut
ropol itan
Ġk ings
Ġneben an
ĠO pp
Ġcl ap
ĠTr ib
ĠAb sch
ĠEng ine
Ġsk irt
ĠGentle man
p ink
Ġt Ã¶t
et tern
os ing
Ġaus gew
Ġ9 5
Ġposs ibility
ĠUmstÃ¤nd en
l ungs
ĠI CE
Ġto w
ap h
Ġdurch aus
Ġeh m
ĠPres ently
ĠFro st
ĠH istor
Ġan bieten
voll er
or ous
et r
ĠT ipp
Ġcut s
ĠPubl ic
ĠWichtig es
s illy
Ġso zusagen
ĠO fen
Ġmay or
ĠLand e
ĠInd ones
sk i
ĠCo ach
ĠFÃ¼hr ung
bour ne
ĠD ream
ĠO UT
Ġfr isst
Ġab sence
Ġsp aren
Ã¤nd en
Ġbest ellen
uf st
ĠPh ara
Ġbott les
ĠHÃ¤us ern
Ġassist ance
Ġabgeh auen
D ann
Ġb ul
ĠE ule
Ġsil k
Ġnest ing
Ġmensch liche
n ehmer
Ġhe ilen
ĠY anke
ĠCh ile
ĠHel ft
ĠCon ne
ĠLau ft
ĠMc K
hand s
Ġschmutz ig
Ġgros se
ĠR und
Ġr asch
ĠPro te
ĠÃĦ hn
Ġmer chant
Ġflie ge
Ġerschre ckt
b age
ie de
Ġc ush
ĠH op
ĠU P
Ġinter pret
sk y
ĠBel ohnung
Ġbeein fl
* *
m Ã¤h
Ġ 000
Ġ Ã¤lte
Ġn Ã¼tzlich
Ġf ange
Ġge steckt
Ġle iten
ĠAn blick
Ġber Ã¼hren
less ly
ĠMÃ¶ bel
Ġvorbere iten
kling el
U CH
y eh
ĠJ in
ĠMon te
Ġ9 9
Ġerne ut
Ġder selben
isch em
Ġg rief
Ġp uff
ant a
art igen
ĠQu ick
ĠKor b
Ġentsp rechen
ĠSchrift steller
m oves
ver l
ĠY u
Ġze it
Ġstraw berries
ĠFÃ¤ lle
Ġdrag ged
l oss
Ġc oo
Ã¤ g
Ġwar nen
Ġbl oss
ĠmÃ¶ cht
Ġstay s
Ġ194 4
ĠCo ast
Ġeleg ant
ach i
ĠL ow
ĠAus nahme
ĠChampionship s
ĠKÃ¼hl schrank
Ġinstruct ions
en se
ĠK ings
od ka
ĠAs k
ĠlÃ¤ch eln
Ġansch auen
ĠF aust
ĠL loyd
Ġno on
br it
dr ink
Ġbew ahren
al in
ĠH aving
ĠThe o
ĠHa ven
Ġball et
fol ger
Ġmyster ious
l ife
Ġc oc
inn ers
cri pt
ĠM Ã¼tter
ro it
Ġre jo
Ġfor mal
Ġun com
Ġher z
Ġum her
ĠBar n
Ġpack age
Ġsail ors
Ġoccasion ally
Ġaccompan ied
r s
ĠH omer
ĠB av
th r
AR T
Ġtr Ã¤umen
ĠCh an
ĠSohn es
ĠMÃ¤r z
merk sam
j ob
en zen
ĠF alk
ĠOr ange
re u
ig ers
ist a
Ġbed roh
ĠComm on
at iven
Ġre bell
ĠO P
ĠV ick
not en
Ġneck lace
Ġheft ig
contin ues
J W
ĠM all
Ġhier mit
od ore
ĠMark us
ĠJul ian
Ġmass ive
ĠKas per
Ġbeibr ingen
z an
ar ms
igr ation
ĠGab riel
ĠAnto ine
ch i
ber gen
ĠBr enn
Ġlead s
h und
Ġt ales
Ġs ung
Ġl aden
ĠZe igen
Ġhel pless
Ġbeg ged
Ġbest immen
ĠLand schaft
Ġsw ung
ĠSal at
Ġ195 8
ĠKÃ¤ fig
ĠAuss icht
ĠOffen bar
W ie
à ¯
ĠM ia
ĠT opf
ĠK andid
Ġges che
Ġste ckst
Ġro ots
ĠDen kt
cle ver
ĠKon fl
ĠBand e
Ġspl ash
all el
Ġany how
Ġsm oking
Ġswe ep
ĠLad ys
ĠKartoff eln
geb oren
c ock
st ock
on ies
or us
ĠM ov
Ġweiter gehen
Ġed itor
ĠNor way
f Ã¼nf
o om
Ġa ck
Ġb und
ĠM assen
ĠP un
ah ne
ien te
Ġchild hood
Ġ8 5
Ġshel f
ĠSTÃĸH NT
e ben
Ã¼r z
ĠV it
Ġgef olgt
ign al
Ġlay ing
verstÃ¤nd nis
ĠSl ow
Ġto ten
Ġv ul
ĠF ull
ag ues
Ġdro pping
Ġmaterial s
Ġwarn ed
ĠB asketball
ĠE c
ĠK ai
Ġtr ansp
ath ol
Ġmer kte
Ġschlecht es
kann ten
ĠSec urity
Ġunex pected
a ar
k la
Ġb icycle
et her
Ġein iger
ĠL uther
Ġj erk
ĠLe itung
Ġcl ay
Ġref use
Ġtrau rige
n Ã¶
r Ã¼stung
s il
ĠM utti
Ġbe ef
Ġli p
ĠAn kunft
ĠAl pha
zu finden
ĠBo hnen
ĠMÃ¶ ge
Ġnorth west
ĠGem Ã¤
Ġspann ende
Ġverur teilt
Ġverges se
m oo
ĠRat te
re ffen
ĠH ospital
ĠwÃ¼n sch
ustom ed
Ġdut ies
Ġchick ens
H er
i w
ĠS ou
gh urt
Ġtra ce
Ġaufge fallen
Ġrepe at
Ġgesp annt
Ġt ables
Ã¤ ser
ĠP ool
ĠR ass
Ġ194 9
ĠD isc
ĠW art
be fore
ol ves
op lane
Ġsp aces
anz ug
wo ch
ĠPol ish
Ġnormal erweise
ĠFran Ã§
VIS ITOR
ĠWrest ling
ten ance
ĠMar co
Ġass ault
Ġcor por
Ġ193 9
Ġcrowd ed
ĠTot al
ĠJess ica
trans cribed
B er
ag g
ĠP A
Ġgr in
iff e
Ġsan ft
t ries
ĠT og
sch after
Ġim pl
Ġor ient
Ġbr achten
Ġfe ast
Ġro ar
Ġpe ep
ac les
Ġerh ielt
ĠMas ke
Ġmill ions
Ġchallen ge
S A
Ġre ject
ĠGer Ã¤usche
Ġvoy age
ĠSelt sam
g g
h ose
ĠS is
Ġl ob
ĠF A
Ġhe els
Ġun end
sen s
Ġde y
wh ines
ĠGegen wart
Ġmel de
Ġconst antly
Ġunc ons
Ġrepar iert
ĠFore st
Ġinvent ed
d ien
on ge
ĠR asen
Ġfr idge
Ġhier bleiben
ĠLud wig
st ud
and em
ri ve
ĠTr ust
ĠGew inn
Ġgrau sam
Ġfavour ite
H N
h opp
ĠI an
Ġver zweifelt
ĠSch lau
ĠKan al
ĠA ktion
ĠSt ru
Ġwieder holen
gend es
ĠSte ph
Ġ195 2
Ġclos et
ĠPost man
Ġsandwich es
Ġ[$ =
ĠIndust rie
Ġf aced
em in
ĠZ one
ĠAn kl
ĠSe uf
Ġadd ing
ĠFried hof
Ġlaun ch
ĠB atter
ĠF resse
ĠAl ban
Ġzer o
ĠLegen de
Ġreve aled
Ġbree ze
r us
st ab
Ġp ier
Ġp ace
ro ph
ĠAuf gaben
Ġmon arch
put ting
Ġtri angle
ĠSpr ung
Ġgra ph
Be cause
Ġbare ly
8 9
y ball
at ures
ĠF Ã¼hl
ain ts
ĠSh aw
Ġjoin t
ĠImmer hin
Ġaufz uh
ch in
ĠS amm
ĠJ ar
ĠC ase
Ġver halten
ort ion
ĠPe arl
Ġ195 7
Ġsubject s
ĠfrÃ¶h lich
w itz
ĠAl ger
Ġfest ival
Ġfact s
Ġdet ail
Ġrisk ieren
Ġdun klen
Ġelectric ity
hil fe
Ġc igaret
ur ai
Ġe ase
Ġe uropÃ¤
Ġver lo
ĠAr ts
ĠGl ad
schuld igung
Ġ194 2
Ġfaith ful
z ona
an lage
Ġer a
Ġcon ven
ĠGr amm
Ġmid st
ĠOt t
ĠDumm kopf
Ã¼p fen
omot ive
G esch
k ur
on de
ĠM Ã¶n
ĠH ins
Ġbe ard
ĠK ang
ag ra
ĠP RO
Ġj apan
Ġver nicht
ĠMÃ¤d el
Ġgra v
Ġsumm t
Ġbatter ies
ĠÃ¤uÃŁ erst
j ung
Ġyou n
ĠT A
ĠSt ars
app er
Ġcra p
Ġweh getan
ĠRome o
Ġjen er
ĠSpen cer
m ade
Ġc ops
ĠJ O
Ġal iens
ĠBe we
ĠSp itz
Ġgeht s
ĠAus weis
Ġsy mpt
ĠKap itel
ĠHÃ¤t ten
Ġphot o
ĠS ehn
Ġo bst
Ġpl ot
Ġwichtig ste
ĠWei ber
ĠSa al
Ġindust rial
Ġheil igen
Ġresol ved
ĠKommand ant
ĠM ason
Ġk Ã¶rper
ĠF und
ĠL em
Ġr aten
ĠV Ã¤ter
Ġwar s
the m
gr and
ĠCl iff
gra ben
Ġconcl uded
ĠLe ck
ĠCh and
Ġstrong ly
Ġvict ims
ĠCow boy
Ġst out
Ġar mer
ĠFre ud
pr in
fin it
ĠGed icht
Ġstark en
wÃ¼rd ig
r imin
Ġv el
Ġan chor
Ġch ip
Ġtr icks
ĠCh annel
sp recher
mon ie
Ġkiss ing
minister ium
Ġschna ppen
ĠSchreibt isch
f urt
ĠD ES
Ġc ultural
Ġaus get
ger icht
ĠSoll ten
ĠEgypt ian
n ed
ig ol
ĠT am
ĠR oland
Ġun ique
ra cy
Ġyour selves
Ġgr im
Ġend ing
hold ing
ĠBell a
ĠKÃ¤mp fer
N ever
P e
ĠW urst
ĠG is
ĠZ ig
ĠQu ar
Ġind ign
ĠNar ren
Dav id
s agt
Ã¤ her
ĠZ orn
ĠZ ettel
ĠGeh alt
Ġpot ential
ĠDire kt
u v
ĠSelbst verstÃ¤ndlich
ĠTy r
M on
Â Ń
ct ing
Ġher zlich
Ġne ur
ĠJan et
Ġpump kin
f ix
Ġbe llt
ĠSp innst
ĠChr isten
gesch Ã¤ft
Ġstret ch
ĠBeding ungen
z ern
Ġt ennis
Ġfor bid
Ġges ungen
ĠIs abel
Ġsur render
ĠMat hemat
Ġgrau en
ĠbestÃ¤t igt
w etter
ĠS ucht
ĠK rokod
ĠEr ster
ac o
Ġhol idays
Ġhil fst
ĠVerm utlich
Ġtremend ous
Ġim men
ov el
ĠMan uel
str uments
ĠHall oween
J o
S ome
W est
Ġm obile
be weg
ĠV ent
Ġaus ruhen
ï¿½ï¿½ ï¿½
antwort et
ĠBas is
ĠTemper atur
Ġer he
Ġbeing s
Ġcross ing
p ost
in ton
ĠF angen
ĠC urt
hat tan
ĠFr ucht
Ġsu icide
wÃ¼r fe
Ġtrou bled
ĠK Ã¶pfe
Ġwill n
auf gaben
Ġeinfach e
ĠZie gen
ĠIdent itÃ¤t
Ġin du
ĠL ob
Ġgu ards
Ã¤ch er
ĠFern e
Ġinvestig ation
Ġsacrif ice
Ġimpat ient
Ġbe unr
ĠL is
Ġgen Ã¼gt
ĠMay or
chn ungen
Ġlangsam er
Ġclos es
Ġkil omet
t schÃ¼ss
ie se
ie ger
Ġh ustet
Ġto ler
ill o
ĠFor get
Ġcover ing
Ġemplo ye
Ġbegr Ã¼ÃŁen
Ġgaz ed
angar oo
P ur
Ġst abil
ĠO ak
ĠEin stein
Ġgl ory
Ġbes iegt
ĠMat he
ĠSchm etter
Ġverdamm ter
ĠDoes n
Ġg ates
ĠP anzer
ĠKap ital
rÃ¤ ge
Ġa wards
it als
ĠK amp
Ġver bl
ĠIn gen
Ġsuggest ion
Ġview s
ĠTra cy
4 2
Ġ, ,
et ime
Ġpro ced
Ġ193 8
ĠEle ct
Ġelect ions
Ġren der
Ġgorge ous
Ġernst haft
Ġaufgew achsen
c ry
ĠL ampe
ĠSpan isch
Ġw oof
Ġb oring
Ġe volution
Ġal ien
ged reht
Ġ194 6
ĠFar mer
ĠSand ra
Ġdesc rib
Ġeinde utig
ĠK ond
Ġj ahre
Ġfr ank
we ite
Ġle ather
ĠOr leans
p res
au sch
Ġse ch
pr Ã¤sident
ĠSche ck
Ġchar ming
Ġsecret ary
Ġneigh bors
zuh olen
Ġverwand elt
ĠEink auf
Ġin iti
ĠN ations
6 5
ut y
Ġbe aten
ĠAnd er
Ġbe ides
Ġhe i
im en
ĠJ UST
lle y
ĠÃľ bung
str ong
Ġref erence
heart ed
ĠHex en
ĠPict ures
Ġb ass
ĠM Ã¼tze
Ġst rain
Ġent stehen
Ġper mitted
Ġsl ice
Ġbere uen
ĠSchlimm ste
ĠUmstÃ¤nd e
Ġauf merksam
ĠAl bt
ĠGr Ã¼nden
ĠGroÃŁ en
bor ough
Ġn ail
ir i
ĠA qu
sch nell
ott a
Ġacc used
ĠGest alt
ĠErn est
Ġscream ing
ITT LE
at in
Ġp anc
ĠE imer
ĠP red
sch uh
ĠAu ff
Ġgr ows
Ġqu er
ett i
Ġed ition
ĠH amm
ĠN u
ĠN ash
ent halt
ĠSt ri
ĠGesch windigkeit
Ġown ers
ĠBet rieb
Ġlo ft
Ġhalt et
Ġgener ous
Ġbill ig
Ġd oof
ĠAl ber
ĠJust in
Ġ195 4
t Ã¤t
Ġbe zeichnet
ĠÃ ĥ
Ġbed roht
Ġem peror
Ġmusic ian
Ġoper ating
Ġur sprÃ¼ng
ĠNE W
ĠT it
ĠF inde
ic ia
Ġsch ieben
ĠSch aff
Ġex ceed
ĠGes pen
Ġersch ien
Ġcaus ing
ĠÃ¼bern ehme
g ives
u um
ĠWe is
Ġgew achsen
Ġtra fen
ĠHa aren
ĠGen osse
Ġstuff ed
ĠWall ace
Sar ah
V D
c order
at oren
ĠL ist
Ġhat ch
chen k
ud ge
sh irt
Ġcare d
Ġcol onel
ĠQu al
Ġr Ã¶m
ĠVor aus
ĠEd ith
Ġoper ations
Ġentf ernen
Ġremark able
? ]
L a
i our
ĠC ry
Ġmit machen
ahr er
Ġweg gehen
Ġdesp ite
Ġsympath y
Ġcandid ate
Ġparl iament
ĠCÃ¤s ar
9 5
G et
Ġd ing
Ġd icken
ver b
Ġob vious
ĠPh oen
ĠMos cow
ĠSchweiz er
" ."
T RA
Ġh ielten
Ġhe utzutage
men sch
ĠAr ist
ĠKind es
ĠWill y
Ġem ph
Ġfre u
ĠWalk er
ĠB ren
Ġdu de
ind el
Ġse al
ĠIn strument
Ġgel ten
Ġquestion ed
Ġangen ehm
Ã ¯
rau ben
Ġres em
Ġintrodu ce
ĠGitar ren
ĠM uch
un necessary
Ġer we
ĠTh ings
Ġthem e
Ġbeleid igt
Ġmutter ed
Ã¼ gend
le ihen
ĠC art
ĠC row
ĠZ us
Ġab gest
elt a
Ġversch l
uff y
Ġswe ets
Ġpolit ischen
ĠNÃ¤ chte
ĠVors itzen
x y
ĠK utsche
Ġer b
schw ein
Ġvertrau e
Ġbesche iden
D EN
ĠD erek
ed a
ĠB rett
Ġz auber
and t
Ġso b
Ġcom rades
ĠAd d
ĠSchn aps
Ġsoft ware
Ġinv ite
Ġreag iert
ĠVerteid igung
c over
k ord
Ġw ilde
ĠR ollen
Ġgest Ã¶rt
ĠFil men
Ġenorm ous
E d
p ict
ĠB ah
ĠN i
ĠÃ ī
Ġdel icate
Ġmed izin
Ġperman ent
k Ã¼nft
Ġli f
umm el
ĠKÃ¼ he
Ġga ze
ĠEst her
E m
ĠT itten
Ġbr ide
Ġent stand
ĠSchwe igen
Ġstell st
tert ain
ĠCly de
ĠN ICHT
Ġsch aden
Ġgot t
ĠAuf regung
Ġmar sch
Ġstar ben
Ġaw fully
Ġann oun
ĠPenn er
Ġexperien ced
ĠC raw
ĠV ikt
Ġal oud
ab lo
ĠEr z
Ġcont ained
Ġappro x
Ġverh ung
ĠMittel alter
icht ung
ĠP ink
um an
part y
Ġ194 1
ĠSow jet
ĠChin esen
ĠC www
sch ild
Ġim per
Ġaus prob
ip h
ord inary
ĠHerr scher
Ġkiss es
Ġcrit ical
Ġtur key
ĠZentr um
schne iden
k ungen
ĠPat ty
Ġmist aken
ĠGemein schaft
ĠCam bridge
h ib
ĠD imit
Ġin her
ĠVers pr
Ġherr lich
Ġbemer ken
c ers
Ġm art
or por
ĠW ander
ĠFle ck
ĠRaum schiff
every body
Ġbeant worten
Ġyoun gest
b read
ĠK ub
ĠCh amber
Ġcar rot
ĠChrist ians
stÃ¤nd e
Ġ194 3
âĢķ âĢķ
ĠL O
ĠZ wie
ĠSt aff
Ġhier hin
gr oup
ĠSte uern
Ġmother s
ĠGroÃŁ brit
akt iv
ĠhÃ¼bsch es
Ġpresident ial
Ġpoet ry
ĠAri zona
ĠSCHRE IT
ĠAnze ige
on ent
Ġg inge
ro vers
ster b
aur ants
Ġnerv t
ĠAir port
ĠPot ter
kling eln
f ried
Ġn it
ĠH ood
ay er
ĠF ra
Ġsch lie
ĠEin stellung
ĠPr om
Ġcur ios
Ġanx iously
Ġbehav ior
ĠGust av
t op
Ġthe atre
te chn
ĠH og
Ġr age
Ġzwe if
ows ki
ĠOff iz
Ġsinn los
Ġi tem
Ġver se
Ġver gewalt
Ġvers agt
ĠHel m
ĠH aft
ro d
ĠC yr
Ġr aces
ÃŁ te
ĠSch afe
Ġsh akes
ĠAuf zug
gehe uer
ĠElis abeth
Ġs ed
Ġs ack
Ġin telligence
Ġsh o
if ying
ĠSte lla
tr uck
Ġschre ibst
Ġgro cer
Ġelekt r
H ar
ĠS HE
ĠA in
Ġz usch
Ġall ows
we e
ĠVer tr
od ox
ĠGar den
aka o
ĠD auer
Ġein fallen
Ġsch Ã¼chtern
Ġhel met
ĠMan hattan
Ġ6 4
Ġloy al
ic ial
if est
Ġchair man
Ġsn ack
ĠAuss age
Ġb ars
ĠK anz
ĠC ad
Ġne phe
ĠAt mosphÃ¤re
gl ass
Ġhapp ily
mil k
7 7
F E
m Ã¼ssen
t ree
Ġst ool
gr im
ĠSc ar
Ġground s
Ġn ull
ĠD J
ĠBe ob
ĠBe eilt
Ġsy n
zus etzen
ĠBat man
Ġath let
n umber
Ġwei Ã»
ĠClau dia
l ift
Ġm ice
Ġn ails
ĠW us
ĠF rie
se he
ber y
ĠP ater
os hi
Ġkind er
Ġbur nt
Ġantwort ete
Ġinten se
Ġf iring
Ġy ield
ĠZ elle
op us
ĠUn be
ĠRe ady
Ġdr unter
Ġsc rap
ĠPr im
bl asen
ĠAbend s
Ġange stellt
ĠZie ht
wechsel t
Ġgesam ten
Ġsem i
al f
err t
Ġterr ibly
ĠWilhel m
th y
ĠAu dre
ĠAuf nahmen
ĠBo ard
Ġdeal ing
ĠW ER
ĠR anch
OR T
Ġcom ed
ĠWill e
ĠGespr Ã¤che
Ġaddition al
S u
Ġer t
ood le
mp el
Ã¼t tert
Ġgeheim nis
ĠSpir it
ĠA ge
ĠH aken
ĠB enny
Ã¤ gen
Ġsol ch
Ġwa ist
whisper ing
ĠVen us
s los
as ures
ll er
Ġf ab
ĠA P
ent on
Ġleg isl
ĠCr own
Ġanst att
ĠInse kten
A pril
Ġv ic
Ġj ury
ĠC zech
ĠBr ut
ĠGrand dad
Ġgift s
g ain
ie u
ĠT ill
op ol
og a
Ġcl iff
ete or
Ġerw achte
Ġcre ep
Ġlon gest
ĠMoz art
Ġn ennst
or ay
ĠSo fa
fl ies
Ġsit es
Ġappe al
Ġemplo yed
ĠAbst and
P h
] ...
ĠM err
ĠN igel
Ġmit bringen
Ġvor m
amil ton
Ġglo ves
ĠArab ic
Ġprin ted
ĠGil bert
o cc
w ander
Ġd ient
ĠR up
ĠAn zahl
Ġhast ily
Ġbreak s
Ġfore head
Ġang le
ĠBlÃ¶ d
Ġangeb lich
ogr amm
A m
ĠS eh
Ġl Ã¼gt
ĠM ember
ind ert
ĠSt rau
Ġann ual
Ġinform ed
d ach
at us
Ġg um
Ġr hy
Ġle st
ĠLe utnant
Ġpr int
ĠMitt woch
ĠAle c
U TE
an im
es see
it able
ar ante
ĠB UT
ĠL ITTLE
ĠThe orie
ĠHe irat
Ġsc issors
Ġpass es
ĠTr ue
ĠStand ard
ĠExper iment
sque als
Ġscen es
k h
v elt
Ġd ynam
ind ungen
ĠSer b
ĠAustral ien
Ġbrut al
n ick
Ġa st
la c
ĠKl ass
ĠHawa ii
ĠAudre y
t u
ĠD ak
ĠH Ã¤upt
ĠT aten
ĠL aÃŁ
Ã¼r zen
Ġwor um
Ġmon keys
Ġspeak er
ĠZie ge
ĠWeib chen
ĠDez ember
ĠK Ã¤lte
Ġe kl
Ġbl ut
Ġgek ocht
tw enty
ar ina
ĠD DR
ĠM AN
ĠT ropfen
ot al
Ġdas hed
ĠC OM
isch of
ĠPe ace
Ġcompl icated
gas p
Ġunterst Ã¼tzt
Ġdauer te
Ġlou der
Ġch asing
ud ing
Ġconf usion
Ġexec utive
ĠSchlimm es
Ġsquee ze
Ġack now
m ummy
Ġg oose
Ġk Ã¼nd
ĠH usten
Ġr ival
Ġsh ade
Ġinv itation
Ġverbr ennen
Ġinte lle
ĠRabb it
T om
r and
Ġp p
ip er
Ġraus kommen
Ġimp ressed
Ġrest ing
ĠGrand ad
Ġhe irate
pp chen
Ġrep lace
Ġass em
ĠBur sche
Ġfrem den
Ġcomput ers
H ey
m oving
Ġn aked
ĠN enn
Ġvor lesen
Ã¤t te
ĠAus ge
Ġperson ality
Ġtu be
ĠLat ein
Ġries igen
f ir
h och
k ong
Ġs orge
Ġy er
Ġsc attered
Ġdest ruction
Ġpor ch
r ane
Ġ à¬
ch ants
Ġf lock
ĠN udeln
ĠAl tern
ud a
pe ople
work s
Ã¶rder t
Ġliter ally
? [
r ise
ĠA I
ĠWir kung
Ġbed anken
pro bably
ĠJust ice
ĠFlug zeuge
Ġsharp ly
Ġcraw l
Ġgegr Ã¼ndet
g age
Ġg inger
ĠE ight
ur ts
ĠY am
ang st
Ġro ot
ĠDe fen
Ġint ent
Ġcons ists
Ġass ume
ĠMor ris
Ġstri p
Ġn ack
ĠT olle
ĠRe iÃŁ
Ġgr asp
sp art
vel ope
Ġsol cher
ĠKan ada
Ġclaim s
ĠDok ument
ĠFing ern
Ġende av
Ġb un
and el
ĠVi enna
k Ã¤
n est
p ap
Ġs nee
ar me
ag ten
ĠL ola
Ġst ieg
." --_
Ġexam ples
Ġentsch lossen
Ġc ert
Ġc ommen
Ġer wischen
Ġwen den
pf ern
Ġadd ressed
Ġsn iff
Ġcal endar
C he
au ff
Ġsp ill
ĠIn spe
ĠSo cken
ĠVors ichtig
ĠHu bert
Ġcommand ed
Ġinf ant
Ġmensch lichen
Ġein ger
ach test
Ġst ur
Ġver tr
ĠV at
ĠMein er
Ġhead ing
Ġstart led
ĠAd el
Ġseven teen
Ġcirc les
ĠPers ian
Ġkur zen
Ġcarr ots
Ġunangen ehm
ĠÃĥ ÅĴ
E P
m ates
la ppt
ĠhÃ¶ chst
Ġ195 3
N ein
an er
ĠN utz
ul ting
Ġimmer hin
ĠBar ney
Ġhur ting
ĠBet ween
ĠSchild kr
Ġwohn st
G od
N IC
f are
Ġt ire
Ġh Ãł
Ġz ogen
ĠV ik
Ġum drehen
Ġgek ostet
ĠHund ert
ĠKlein es
ĠAss istent
Ġsig hed
ie hen
ĠH ud
ĠP ingu
gr am
Ġband s
ĠFro he
ĠKug eln
ĠÃ¤ch zt
L OU
ann on
Ġauf gebaut
ott ie
Ġverm ass
Ġdanc ed
ĠZwer ge
ĠdÃ¼n n
ĠWom it
ĠReferen ces
k unde
er w
Ġein gesetzt
un ty
ĠL iving
ĠP it
Ġre geln
ic ians
ĠV Ã¶lker
Ġnewsp apers
schwe ster
g un
ĠS af
ĠK asse
ĠP st
Ġbur den
Ġclub s
Ġgere cht
Ġfirm ly
ĠFeder al
: -
M AN
j ab
ĠM Ã¼ssen
Ġe cho
Ġan stÃ¤nd
Ġno d
Ġdis miss
ĠAut hor
ĠWor an
ĠIr on
Ġrel atives
Ġsub s
ĠStud ien
sa id
Ġgather ing
M en
t ure
Ġw ins
ĠL oren
im b
Ġwe ary
ĠY ang
ĠZ Ã¼r
Ġab road
Ġkomm un
ober t
ĠTenn essee
ĠColor ado
4 3
T ake
sen d
Ġgew eint
ock en
ĠEl vis
Ġlight ed
ĠErfahr ungen
Ġth read
Ġre venge
ust y
Ġsc ra
Ġbes etzt
ĠSw iss
Ġworth y
Ġimpro ve
ph ones
Ġverme iden
ur o
qu enz
Ġshell s
Ġdome stic
Ġpro vis
Ã¤n zen
ĠmÃ¶ ge
Ġru ined
Ġprote cted
Ġsurround ing
ĠfranzÃ¶s ischen
ĠAl most
ĠFl ammen
ĠAmer ikan
Ġcare s
Ġsur vey
ĠEn tertain
Ġbang ing
ĠCa esar
Ġincred ible
ĠA bt
Ġsch Ã¤men
Ġsc out
ĠZwe iten
Ġrelig i
Ġpray ers
ĠBehand lung
Ġs well
ĠD ikt
ĠB rem
Ġan scheinend
ĠLe ucht
Ġar ts
Ġincl ined
lin ie
spr ingen
Ġcre ation
Ġmad am
M alley
es ota
ĠF L
OR E
ug u
Ġble eding
ĠTÃ¼r kei
Ġperson ally
Ġschwe igen
pie ce
Ġresist ance
m ot
Ġh u
Ġdo ck
ĠBr asil
ph in
Ġverl asse
ON G
Ġsent iment
Ġerh Ã¤lt
ĠTurk ish
I nd
K e
Ä ±
st ay
ant ine
Ġcont rolled
Ġopp osed
k ward
ĠA w
om be
ĠÃ¼ber fallen
ĠNe bel
ĠIr rt
19 5
Ġattempt ed
bÃ¼ cher
d enn
it tern
ĠF E
ĠN ath
Ġver haften
ĠVer a
ĠSh ir
hal ter
Ġworld wide
ĠÂ °
Ġref uge
ĠDem onstr
Ġeffect ive
Ġglo bal
4 1
IN K
Ġacc ur
geh olt
zentr um
ĠBroad way
Ã «
ĠH ills
ĠE conom
Ġan gest
ĠWir f
ink er
br umm
ĠDe ep
ĠVers ion
Ġgrand pa
ĠCent re
Ġpossess ed
ĠBi ography
Ġan k
ah t
Ġfl ung
eld ung
mar ine
ĠQue ens
ĠDeb bie
Ġprepar ing
d uck
m esser
Ġm ild
Ġf Ã¤hig
ĠEs s
ĠSte fan
ker chief
Ġlist ed
ĠEben e
ĠAbsol utely
J ack
re te
or ney
ĠSch u
Ġne got
Ġen counter
sh ake
ĠAuf enthalt
ĠDis ziplin
ĠPfe il
Ġangeb oten
ĠKamer aden
Ġuncom fort
8 5
w oof
ĠM indest
Ġr ip
Ġcon ver
ous es
ieren de
don alds
ĠÂ £
Ġtau schen
ĠDet roit
Ġentscheid et
Ġf antas
Ġden selben
Ġbr id
Ġad ults
ĠVor her
Ġschl ag
Ġinj ury
Ġvorbe ik
ĠBudd h
ĠtÃ¼r k
J Ã¤hr
n ummer
Ġs or
Ġg on
Ġc eil
ĠH av
ĠT ick
ĠB amb
ĠAm os
ĠHigh school
Ġneg ro
k asten
ĠH unter
ĠT W
ĠL aster
um bled
ĠR ath
Ġr asp
ĠPr ice
Ġacc ustomed
Ġwav ed
ĠAnweis ungen
Nic ole
f ein
s ion
Ġg Ã¼nst
Ġdu g
ĠV ene
ĠFre ize
Ġgem Ã¼tlich
Ġselbst verstÃ¤ndlich
Ã¶t chen
Ġdi aper
Ġmisch ief
ĠVerstÃ¤nd nis
ĠK ie
Ġ5 2
ĠDar in
Ġsuper ior
ĠLieb haber
ĠWett bewerb
j ekte
Ġbl own
the l
zt in
ĠSol omon
ĠKranken wagen
mach ung
P ol
R oss
b il
g ate
Ġd ates
ĠD ob
ĠA x
ĠB Ã¤umen
Ġbe an
ĠK etten
ĠL az
Ġwissen schaft
ĠMel issa
Ġfle he
Ġfrem d
A my
r ats
Ġh itting
ĠZ org
ĠLe go
Ġwieder zusehen
Ġsk ills
ĠWor um
Ġequ ally
ĠGemÃ¤ lde
7 6
k Ã¤mp
w enden
Ġm ent
Ġdis aster
ĠThere fore
stell ten
ĠDr agon
atter ing
Ġreg ional
Ġsub t
ĠKon to
.' "
ĠFlie ger
Ġo bey
ĠH amilton
Ġv ice
ĠE un
Ġauf bauen
Ġgel ungen
ĠKr ise
Ġlight ning
ogra pher
W er
st unde
Ġv est
ĠE asy
Ġab geben
lo ad
ĠRe aktion
br icht
Ġwr ites
Ġbor ders
I CK
it ere
ĠP ay
Ġauf grund
ĠEr sten
art ed
Ġaus gerechnet
ĠBe it
Ġhin setzen
ĠÃĦ CH
ĠBen gal
Ġ193 3
ĠThanks giving
ick elt
hl ess
ĠzurÃ¼ck gekommen
Ã¼hr ung
ĠSchw Ã¤che
ĠSchw ieger
ĠZie le
ĠBesuch er
Ġp otty
ol an
ĠBl ind
fl akes
Ġphot os
Ġcand les
ĠMig uel
F oot
ĠW unde
Ġr ushing
ĠV orm
op ing
Ġapp ointment
ĠSchl immer
ĠInd ep
Ġdist urb
Pur die
c atch
n i
Ġf a
Ġf iction
Ã¼ mer
ĠB lo
Ġzu geben
ĠSt irn
Ġent ering
oc a
Ġearth qu
Ġsearch ing
G u
ie be
Ġch um
ĠUn gar
per haps
Ġday light
ĠMe chan
ĠVers p
ĠlÃ¤ utet
Ġcor resp
ĠHall e
ĠJose f
Ġsav age
H O
v as
or er
Ġtest s
ĠE ugen
ĠG ill
ĠO sw
ĠGe he
ĠUn f
Ġen velope
ĠFrem de
Ġfantast ic
Ġredu ced
Ġgrant ed
ĠScient ists
b ilder
ĠH ipp
Ġr uh
ern al
br Ã¤
ĠwÃ¤ hl
auf nahme
Ġrep utation
Ġgest anden
Ġflo ating
ĠSchul tern
Ġmem ories
ĠDau men
Ġverspr ach
ĠCaf Ã©
R igol
ĠKÃ¶n ige
aken ed
Ġident ity
Mr s
Ġmethod s
Ġaltern ative
ĠSt Ã¶rung
Ġpre y
ĠhÃ¤t tet
ĠEx c
ĠAk ten
Ġindivid uals
b Ã¼rger
Ġso viel
ick te
ĠTe ilen
pr im
Ġmar ched
Y S
Ã ª
Ġf og
ĠK av
ĠSch achtel
Ġkl ingen
iz zy
cl ass
ĠGew inner
Ġsun ny
ĠSa id
Ġexcept ion
Ġverz ichten
ĠClau de
ĠPremier minister
Ġfu hren
Ġk athol
le itet
am us
ĠC ob
ib i
ick er
Ġcomp ar
Ġthank ful
ĠSm all
Ġpract ical
ĠwunderschÃ¶n e
as ste
id ar
Ġch op
ĠTr itt
ĠTr omp
Ġgar bage
Ġraus holen
Ġsing les
Ġincre asing
m ate
ĠAn hÃ¤nger
Ġgu arante
ĠSte wart
ĠGer Ã¼chte
ĠLÃ¶ cher
ĠhÃ¶ch stens
hyth mus
reib ung
ĠSpani ards
Ġvernicht et
h oo
o be
w on
ĠN ACH
Ġj ene
ĠSp azier
Ġbet reten
Ġverl ange
pr Ã¼gelt
ĠEn ten
Ġgradu ated
Ġjournal ist
ĠM ong
ĠG erne
Ġst ammen
ĠAd vent
ĠKrie ge
Ġplan es
Ġcost ume
Ġinform iert
Ġausges ucht
Ġeinzel ne
Ġfried lich
Ġt Ã¤t
ĠT itan
ĠP C
Ġso lo
irl ines
ĠPl us
fr iger
imp le
kr Ã¤fte
Ch ar
Ġrefer ring
' '
v ation
Ġf ake
ĠB eing
ĠC E
ĠR ou
Ġst adium
op es
Ġle eren
ov ich
ĠTeuf els
ĠWur de
ĠY E
ĠHerr in
zeich nung
May be
Ġlod ge
z ut
Ġl Ã¼gst
Ġin struments
ĠT HERE
ĠN ott
Ġrec all
ĠHol mes
ĠGenau so
Ġung ern
Ġschreck liche
ĠwÃ¼rd et
it is
ĠE mer
ĠK ongress
Ġver kl
fe ier
ss on
Ġhung er
Ġpuzz led
Ġreview s
ĠNormal erweise
ĠDunk eln
hÃ¤nd ler
Ġverpfl ichtet
it age
ĠSchre ien
ĠPal ace
Ġur ban
ĠMinn esota
f i
Ġin k
Ġto x
ĠT uch
Ġcon stitution
ĠNo te
Ġ195 1
ĠverrÃ¼ck te
Ġcurios ity
A ber
b utter
ut ze
im ore
Ġgr und
Ġsupp lies
Ġze bra
Ġ193 6
ida e
Ġposit ions
ĠÃ¼berprÃ¼ fen
a at
ĠP age
Ġre chnen
Ġcom in
ĠPl atte
ĠGet rÃ¤n
ĠHen ri
ĠSen der
Ġs Ã¼ÃŁe
ĠD inosaur
Ġoff ering
Ġbes essen
ĠTre ppen
ĠRak ete
ĠGitar re
Ġmurm ured
ĠGroÃŁbrit annien
h ung
ĠD ipl
ob i
Ġdel iber
s Ã¤chlich
ĠD einen
Ġwho ever
Ġgl ue
ĠHat test
ĠWa isen
ĠWÃ¤r me
Ġmann ers
ĠGrÃ¤ fin
Ġrais ing
Mich ael
Ġh ob
Ġh ose
ĠW oman
el u
ĠZ Ã¤
ĠSchr ott
ĠAg enten
ĠRober ts
Ġromant isch
ĠBez irk
Ġf isher
ist ern
Ġlie fern
Ġpock ets
ĠAuss ehen
Ġlab our
j Ã¤ger
w oo
Ã¼ cher
Ġge bt
ĠGef Ã¤hr
Ġbesch Ã¼tzt
ĠGeist es
Ġsour ces
Ġsevent h
ĠThom pson
à Ń
ĠW Ã¤nde
ĠG az
Ġbe eil
Ġhol st
legen heiten
Ġinterest s
Ġextra ordinary
Ġdrown ed
Ġh ollow
ĠP opp
Ġget tin
ĠLe x
ĠÃľber haupt
ar se
ĠT E
ĠL iver
Ġhe ap
ĠC ale
ĠAl ways
Ġbr ig
br aten
ĠPro phe
Ġexpl osion
Ġlo aded
Ġstir bst
Ġwart ete
Ġveh icles
st ream
ĠA sp
Ġda red
ĠTr icks
Ġvers ions
Ã© n
Ġdec ent
ĠhÃ¶r ten
ĠVerd acht
Ġselt same
ĠLeist ung
h igh
ĠD ong
ĠC ock
Ġsw amp
Ġbesch reiben
Ġhorn s
un ft
wh oo
ĠAr mer
Ġfl Ã¼stert
Ġapp lau
ĠVor fahren
ĠBar bie
Ch ild
Ġtrail er
Ġreag ieren
ĠLiter atur
A d
b oth
m ust
ĠM O
ĠE S
Ġr Ã¤chen
ell s
Ã¤hr st
ĠOn line
Ġinst all
Ġcoll ar
Ġnecess arily
Ġb ored
Ġg olf
ĠP unch
ers p
ang led
OR K
ru cted
ĠRu der
ĠErm itt
ĠInter essen
ĠDeck el
ĠDiam anten
Ġanstren gend
ch ard
ĠS ens
ĠHaus halt
Ġje weil
Ġvis iting
ĠBild ung
Ġsad dle
Ġkick ing
Ġcit izen
Ġb ond
sp ort
Ġsw inging
Ġbez we
Ġaccount s
Ġdesp air
r ent
ĠG ross
av in
Ġapp ropriate
Ġtrain ieren
ĠSam an
Ġlaut es
ÃŃ a
Ġiss ued
Ġschol ars
te mp
ĠL ag
ĠFl ur
IS CH
ĠAd rian
Ġgek lappt
ĠStaats anwalt
Ġmitt lerweile
Ġcombin ed
Ġl inke
Ġin ch
Ġein geb
ĠP le
ĠJ up
ess ern
ne w
lie gt
ĠHaus aufgaben
Ġcount ed
Ġexp lo
Ġkam st
Ġged auert
Ġbez auber
ĠInsel n
IF A
Ġepis odes
ĠPie p
F C
r ade
Ġw ret
ĠG ard
Ġer reich
ab led
Ġpe pper
Ġbel Ã¤st
ĠGesch rei
Ġverd iene
Ġpo em
Ġaw kward
ĠEmp f
ĠAnge legenheit
Ġdefen se
um men
ru he
Ã¤us cht
ship s
ĠGre y
Ġbitt et
M U
re chte
Ġo l
ĠT ausend
Ġe c
ĠNe g
zÃ¤hl t
Ġrest ed
ĠKn ight
Ġ193 4
cel ona
Ġinsp ired
ĠJahrhundert s
F irst
G B
S piel
t iger
ĠW inkel
Ġact ors
ĠTom aten
ĠKol on
d ÉĻ
p aper
ĠD ichter
ĠA zer
ĠG ulf
Ġdie selben
un ters
ĠJ i
Ġall zu
ĠBe wer
pe ekaboo
Ġfol gte
ĠEure m
ID ENT
Ġries ig
ĠFÃ¼hrer schein
Ġslipp ers
Ġnot wendig
ĠSo ft
Ã¤d t
ĠJu wel
Ġecht es
read ing
Ġtom ato
ĠColl ins
Ġentertain ment
Ġschmer z
Ġexhaust ed
: :
S tr
r ang
Ġs ession
ter y
ĠV olle
if te
Ġper ceived
gehen d
Ġple ite
Ġcow ard
Ġcy cl
P ER
c ience
r ate
ĠB ishop
ĠL eder
ĠL ucky
atch ed
ĠTr Ã¤umen
ĠPap st
Ġfarmer s
Ġvir us
touch es
Ã£ o
v ous
ĠB Ã¶sen
Ġle aning
Ġen s
ĠIrgend wo
An ne
ĠDus che
ĠVerp iss
c ro
ĠW ider
Ġsh one
ĠUn ver
ĠRe ihen
ĠCh ang
ĠEx istenz
mit g
cast le
Ġtravell ing
c en
ĠM USI
am ine
OR D
ps y
Ġfast ened
Ġpriv ile
ĠFred dy
Ġhinge gen
Ġverfl ucht
Ġlat est
ĠWit we
P A
r ennen
Ġl agen
le en
ĠR ese
ĠKomm ent
ĠGr Ã¼
Ġear liest
ĠSand wich
Ġdesc end
pre is
Ġshr ie
ĠBelg ium
Ġadminist rative
ĠN il
ĠZ Ã¼ge
Ġro ses
app e
ĠChe ers
ĠDor is
Ġdig ging
c ling
k u
k inder
Ġm ister
ĠD EN
Ġc uddle
Ġz Ã¶
ĠP retty
Ġer Ã¶ff
ĠJan uar
Ġsympt oms
Ġk o
ĠSp ot
che ese
Ġbez ahle
bere ich
Ġur ged
ĠMari anne
M AT
c ool
i hr
ĠW atson
ĠM urray
Ġk ocht
ĠR ow
ĠO ster
ull en
ĠSh h
Ã¤hr ung
richt er
ĠKe ith
ĠD onna
Ġges pr
ĠCom ing
Ġpat ience
ĠBox er
Ġaufgew acht
ĠrÃ¼ck wÃ¤rts
ĠSchwach sinn
ĠD Ã¶r
Ġj o
Ġsch rie
GE O
ell ing
ank a
ĠAl b
ond iss
glich en
fr ist
Ġconcl usion
ĠErwachsen e
o ons
s ounds
Ġein steigen
ay ing
Ġab nehmen
Ġunter scheiden
Ġ4 1
Ġsk i
Ġdig ger
Ġw ack
as hes
ĠW ette
im ens
ĠEr be
ĠWh isky
Ġunder ground
ĠGelieb te
ĠH amp
un transcribed
Ġ" "
Ġzu kÃ¼nft
Ġ5 8
Ġ7 2
Ġmer ged
Ġvisit or
ĠKÃ¤ fer
ĠJeff erson
ĠRebe llen
stant in
ĠSekretÃ¤r in
n issen
w ah
Ġa rab
ĠD ale
ĠH anna
ĠT Ã¶ne
Ġbe wir
wn s
ĠAb ge
Ġread s
Ġstar red
Ġsens ible
Ġpengu in
ĠFak ten
Ġfasc in
re is
Ġc red
ĠM uster
Ġder jenige
Ġab gesehen
ĠBe wohner
Ġex tin
ĠAuf stehen
Ġrep rodu
mach er
Ġjun ior
t od
it ern
ĠG ri
ĠK issen
ĠV ide
Ġgel angen
kl asse
OU G
Ġbereit et
ĠRob bie
Ġverab redet
Ġgefe iert
h ors
m ail
p ig
ie sen
ĠK und
Ġge irrt
Ġsur ge
Ġbless ed
Ġw il
or ation
Ġwie viel
Ġkn ights
ĠRe ed
Ġfl ows
Ġban anas
Ġsuspect ed
Ġdivor ce
ĠGoo gle
N a
iss y
Ġverst and
Ġpar rot
ĠPf ad
ĠfranzÃ¶s ische
ĠMun ition
ĠKent ucky
Ġapolog ize
s ed
Ġhe ben
iÃŁ er
iz er
Ġreason able
Ġdev oted
ĠBehÃ¶r den
ĠIrrt um
N EN
T S
Ġn ations
ĠD est
Ã¼ sten
ĠB ess
Ġle ihen
vel and
Ġmet res
fin ed
Ġdeath s
Ġerk enne
Ġeinge stellt
7 8
ĠT in
Ġre iÃŁen
Ġoff ers
hed ral
Ġbel oved
Ġdri ves
Ġassoci ation
B oot
Ġt ones
Ġh aus
ĠB Ã¶
ĠK abel
ĠR eh
red ung
Ġapp et
app ed
Ġass ass
ĠGlau bt
ĠWunder schÃ¶n
ĠenttÃ¤us chen
, .
Ġh ip
Ġo p
ĠP est
Ġgl att
Ġbetr achten
ĠLouis iana
Ġaband oned
ĠIsa ac
ĠNAS A
r ary
he ute
Ġo o
ĠM inder
ur ry
und ere
ation ale
Ġpr ices
schl Ã¶
Ġfem in
pret ty
d in
ĠN em
Ã¶ scht
ann ah
ĠO m
Ġpl ug
uh igt
Ġjen em
ĠDun can
Ġliber ty
Ġgodd ess
Ġ ing
ĠS hr
Ġst au
ten do
well e
io x
ĠGegen satz
ĠAff Ã¤re
ĠZent imeter
ell i
ĠMus k
Ġstr angers
ift et
ĠBar celona
ĠFest halten
Ġpra ise
ĠMount ains
Ġbegeg nen
ĠFun ktion
Ġcompos er
d ire
Ġfe uern
Ġfro zen
ĠTre vor
voll es
Ġfootball er
lem me
ĠBetr Ã¼ger
J an
l im
Ġd ating
ĠB og
Ġbr onze
ungs mittel
ĠRos alie
Ġspo ons
Ġmagn ific
Ġphilos ophy
en g
Ġb ills
Ġf ans
ĠBl Ã¼ten
ĠDes p
Ġcreat ing
w oman
Ġdie t
ĠK raw
ĠWar ner
Ġad just
ĠRom ans
Ġclean ed
Ġdefen ce
Ġnirgend s
p ower
Ġd essert
Ġh unter
ĠZ er
we ilen
Ġmus h
Ġneed le
Ġir ren
Ġrel ative
mb ling
ĠstÃ¼r zen
Ġaccomp any
um i
Ġsh aring
Ġnach zu
Ġgen ius
ĠWer kstatt
ĠKl irren
Ġir rit
ĠTre ue
ĠMax im
Ġreing ehen
dri ver
C C
s itzen
Ġt el
ĠS onny
Ġwor m
ĠUn abhÃ¤ng
Ġcomm ents
Ġeins etzen
Ġverschw and
Ġmot iv
Ġinse cts
M ag
Ġt anz
Ġb acter
Ġc ure
Ġp ension
fe cture
ĠNacht s
ĠTom orrow
ĠHat ten
Ġexpl os
ĠBed Ã¼rf
Ġdep end
ĠTurn er
Ġfeat ured
) ;
A nt
H ello
a o
d one
ĠS ounds
ĠW eder
Ġo ct
ĠPh ase
ĠUr sache
ĠSÃ¼ ÃŁer
Ġschau te
Ġhous ing
A ng
T O
Ġm ock
ĠSch lieÃŁ
ĠLe ber
ĠUn less
Ġrep air
ĠSpr ach
Ġrain bow
AM E
ĠLuc ia
ĠSom ers
ĠBibli othek
ĠWÃ¶l fe
I X
T EN
Ġw ig
ell os
Ġsp innst
Ġmal es
Ġtr ash
ĠFr Ã¼chte
Ġover all
Ġgew Ã¶hnen
ĠJul ius
ĠEll iot
sta at
Ġnephe w
Ġm ic
Ġn Ã¶r
Ġl hren
Ġim ages
lt on
Ġther ap
Ġvergangen en
se a
ĠÃ¼ber qu
ĠÃ¼ber lege
ĠFr anken
rei fe
ĠHar riet
Ġ8 6
Ġ8 8
Ġaut umn
Ġsmell s
ĠFlie ge
Ġattract ive
Ġuncomfort able
b ased
ĠA G
ĠB unker
em pl
ĠL www
Ġher gestellt
ous ins
Ġfl ach
eld om
Ġcr ashed
ĠMal er
ĠKer zen
ĠRog ers
gleich en
Ġattra cted
Ġcommunic ation
Ġcurt ain
g ard
Ġv otes
be ar
ĠLe ktion
ĠWh iskey
net te
Ġres ign
Ġ202 4
Ġplain ly
ĠZwer g
r oren
at ra
Ġv erehr
Ġso ber
ĠSch ur
fl ower
act ory
ĠâĨ Ĺ
Ġentde cken
ĠTro st
lehr er
ĠscheiÃŁe gal
p ushes
Ġt uck
Ġg ren
Ġf ra
Ġp av
ber ger
Ġceil ing
. -
ĠE ND
op t
op les
fe ct
Ġpro c
ĠJahr h
ĠBur schen
Ġaer oplane
ĠW erner
Ġl erne
ĠT Ã¤ter
Ġe i
Ġde ce
Ġfound er
Ġbek amen
ĠSat an
Ġgolden en
Ġdial ect
ĠkrÃ¤ft ig
Ġbe aut
ĠL Ã¼
Ġr ack
ren gt
Ġkann ten
mm a
Ġknock ing
c ill
k urs
au gen
ang a
ĠVer z
Ġste aling
Ġhand kerchief
ĠLicht er
Ġspiel ten
Ġsuit able
Ġerle icht
H en
Ġkein s
Ġcont aining
ĠGar age
ĠSing le
ĠBay ern
Lau ra
ĠCous ine
ĠBav aria
Ġj oking
ĠR ent
ĠAn cient
Ġam id
Ġhin legen
Ġbeg reifen
Ġsk ull
Ġbere iten
ĠKrie ges
ĠGo ing
ĠEn ough
Ġsow ohl
ĠKost Ã¼m
Ġcelebr ate
ĠBez ir
mÃ¤h lich
u ese
Ġd war
ĠD VD
ĠB uen
ĠF RE
Ġer setzen
own ed
Ġam us
iv als
Ġbesch loss
Ġrel ativ
Ġb ishop
ve ster
ĠBe cher
Ġro sa
Ġstr ateg
Ġmusst est
OU R
wel ve
Ġtyp ical
Ġbefre undet
ĠON E
ĠGrat uliere
t rying
es ome
ra ble
ust rie
Ġaus suchen
ĠVer rÃ¼ckt
Ġrec on
ĠGeb et
Ġcoun sel
ĠBre ak
Ġuntersch rieben
ĠAzer bai
I B
L and
w achen
Ġt astes
and elt
sh ows
ĠNe ither
ĠHerzen s
Ġimpro ved
Ġheil ige
ĠAtlant a
Ġballo ons
Ġtrink st
Ġdunk le
Ġcris is
Ġneut ral
B ro
H aus
ĠT ucker
ah oma
ion a
ĠZ o
Ġkn ight
ul us
Ġum ziehen
Ġwieder kommen
Ġpr imit
ĠStÃ¤d ten
ĠMarsh al
ĠRepresent atives
D ada
Ã ¸
or o
ro llen
ĠMÃ¶ gen
Ġrece iving
Ġident ified
etch up
Ġwebs ite
ĠCamer on
ĠEntertain ment
ĠBr on
asch a
Ġpassen ger
Ġseg ne
Ġverlo bt
a al
r one
ĠW A
ĠK unde
Ġgen Ã¼gend
Ġ5 1
zie her
cy cle
ĠMer c
Ġcow boy
ĠTem ple
Ġrail road
ĠTerror isten
k ed
Ġp unk
Ġv ow
ab teilung
Ġle aped
ĠYork shire
Ġtau b
zw anzig
ĠKrank heiten
M at
c ir
ĠG on
im per
Ġmus cles
Ġgel ingt
Ġwom it
itter t
Ġcheck ing
drÃ¼ck e
ĠHong kong
ĠDra ke
F rau
d lichen
g Ã¤ng
Ġm orn
it led
ĠV el
ĠYou T
ĠDa w
ĠTr uth
Ã¤nder te
ĠBade zimmer
p it
ar rt
ĠSt reifen
ort on
ip sy
Ġbl icken
Ġguck st
Ġabge lehnt
ĠProdu zent
Ġobt ain
Ġestim ated
Ġprovin ces
Ġphr ase
Z eit
s ehr
Ġf anc
ĠM ul
ĠV erehr
los igkeit
Ġsol ve
ittel n
Ġcann on
wÃ¤r t
h au
v ogel
ĠW einen
ic ation
Ġver bracht
oon er
ĠComm un
Ġsouth west
urr ent
ĠstÃ¤r k
Ġprincip le
fig ur
m ischen
v ement
Ġm ath
ĠI owa
ĠT ol
ĠV ice
uck uck
uzz y
Ġ193 7
Ġner ve
Ġdust bin
ĠPitt s
ĠAde le
ĠgroÃŁzÃ¼g ig
re c
ar sch
ĠSch ienen
Ġal ert
ĠVer sch
Ġsomet ime
ĠGal ax
ĠPortug uese
f inger
r igen
Ġc in
Ġwe ars
ĠJ ama
oh o
Ġle b
iv an
ĠKan onen
Ġmilit Ã¤r
ĠRese arch
Ġl azy
ot ic
Ġget rieben
sche ide
aps ed
ĠFrank furt
Ġcheek y
b ah
h im
Ġw ool
Ġp add
Ġsc ulpt
Ġhigh way
ĠPer ry
ĠJul iet
Ġpaint ings
ĠErn te
Ġcustom ers
ĠBew usstsein
sper ren
ill t
Ġst ab
ant o
ste ps
cl ub
ĠKr ach
ĠNew ton
gest anden
Ġverk aufe
utz end
Ġexper iences
ID E
Ġimmedi ate
ĠPak et
Ġsurv ived
Ġpour ing
ĠEich hÃ¶rnchen
Ġanalys is
au wau
ĠG Ã¼rtel
Ġre ine
no body
ĠAr schlÃ¶
gr unts
Ġapp ly
Ġdre amed
Ġdoor way
unter gang
ĠKÃ¼ chen
wing te
Ġgrab s
itsch ern
ĠPhoen ix
Ġn Ã¼tzt
ĠÃĦ pfel
amer as
Ġpack et
Ġtax i
Ġapplic ation
ĠW ang
ĠZ ut
oc racy
ĠPr ima
Ġirgend eine
ball s
ĠCl inton
Ġpriv at
ĠErinn ern
ĠAndre a
D an
p ing
Ġs eldom
Ġl ane
ĠL ower
Ġwe cken
de cken
ik as
Ġswe at
Ġfem ales
ĠJas per
Ġunfortun ate
Ġein stellen
Ġst imm
Ġor anges
Ġback s
Ġeigen er
Ġsat ell
ĠMo dern
ĠHER E
ĠMicro soft
ĠSaman tha
C on
Ġb os
ot ter
ach ter
omm t
Ġgel be
ĠÃľber leg
Ġdress es
Ġlo hnt
ĠBlack ie
Ġmel ancholische
ĠBren da
b ord
Ġd isch
ro e
Ġle iser
sh aus
ĠHerr schaften
Ġcont rast
ĠJud ith
ĠJoy ce
ĠW are
ĠE lla
Ġver laufen
ĠKl ang
Ġexp osed
geh Ã¶r
ĠRep ort
u ah
ĠP illen
ĠLe ip
Ġob s
ĠWer te
Ġ5 6
ins ula
Ã¤s ser
Ã¤l en
Ġverg eht
Ġexist ed
lÃ¤ uft
ĠVir us
ĠStat ue
Ġk Ãł
ĠfÃ¼r chter
ĠÃ¼ber le
Ġpe ekaboo
Ġlos lassen
fl os
ĠPf lege
ĠMau ern
Ġcomb at
Ġcurt ains
Ġuncons cious
ĠJup iter
ĠH unt
ĠV ideos
ant ic
ĠSt orm
br own
ĠMin i
ĠRuss isch
ĠnÃ¤her n
ĠAma zon
9 8
G es
Ġg rain
res ents
Ġmeet ings
Ġutter ance
Ġhonest ly
beh Ã¶r
Ġverar schen
ĠVerhÃ¤lt nis
W enn
f Ã¤hrt
Ġk Ã¼nst
Ġsh ield
wer f
ges chenk
unter richt
ĠFebr uar
Ġlern st
ĠFrÃ¶h liche
S ay
in ar
Ġh oo
Ġo be
ĠP ays
ge ist
op ot
ĠWir t
ĠTh ail
Ġmus k
Ġsl ope
Ġdist ress
ĠNin tendo
n in
n immt
n allt
ĠH IS
Ġver treten
Ġaus richten
ial s
ĠGen ossen
Ġ6 8
az in
Ġinteress ante
ĠhÃ¼bsch er
ĠAB OUT
M AD
y ummy
er te
re iten
it ual
Ġsa ÃŁen
Ġqu asi
Ġsec ured
Ġ5 7
ĠCle veland
Ġdipl omat
ĠB aden
ĠF IFA
gh ai
uh u
ĠMar x
sh op
Ġweg nehmen
bl att
bo om
ĠInd ivid
ĠFor schung
ĠVerst Ã¤r
ĠS ach
ĠM ight
Ġz ut
ite e
ĠZe uge
up e
Ġdam aged
ĠPra xis
ctic ut
f ine
m Ã¤chtig
Ġn annten
ĠS end
ĠE agle
im on
ber icht
ĠThe men
Ġshe ets
Ġcar ries
Ġtre mbling
Ġgek annt
Ġconsider ing
Ã¼ss ig
ĠReicht um
kno ck
d ig
ĠM es
ass ador
Ġgel ben
ĠSchw ung
Ã¤us pert
Ã¼ll ung
Ġpain ful
Ġbub ble
k Ã¶pfe
Ġ Ã¤ngst
Ġh osp
Ġc ousins
ĠF ood
ĠC ott
Ġsec rets
Ġrep resents
ĠAs ien
ĠHalt ung
ĠFot ograf
Ġvan ished
Ġutter ed
Ġrelie ved
ĠSehn sucht
z Ã¼glich
Å ¡
ĠM asse
Ġun hÃ¶
we iter
Ġvers etzt
Ġ7 00
ĠRes er
ĠVerschw indet
Ġwrest ling
ĠExt ra
ĠHÃ¤upt ling
m l
Ġd Ã¼stere
Ġg reift
it ary
ĠD inner
Ġbe ur
Ġer heben
Ġcount ies
Ġ193 5
Ġhar bor
ĠVerf assung
R obert
T HE
ie hlt
Ġp anda
ĠSte llt
Ġgenau er
Ġ8 7
GR M
ĠKon sequ
Ġgold ene
ĠHÃ¼b sch
c as
Ġre str
men te
ĠBr itt
Ġmed ium
Ġeingesch lafen
ju ice
ĠNell ie
hÃ¤us er
ĠZÃ¼r ich
v ors
ĠI da
ĠE id
Ġne gle
ĠRe agan
Ġcr imes
IF IED
hor se
Ġchap ter
ĠLiver pool
f Ã¤hig
Ġs ehn
id y
ĠL etztes
ĠR oth
Ġle aned
lau be
Ġdurch ge
ĠEx cept
ĠpersÃ¶n liche
ĠTromm el
D r
Ġg asped
ĠE ck
ĠK el
ĠJ AH
th odox
qu ack
Ġbr ass
ger Ã¤usch
erst ehen
kl ahoma
Ġpa jamas
Ġversch lossen
Ġfro st
T ell
ĠI gn
sch icht
ĠV orn
ĠCh ip
ĠTHE Y
Ġwrit ers
ĠgefÃ¤llig st
ĠP E
Ġlook in
Ġant icip
Ġbab a
w anne
ig ert
ĠP av
der ben
ab rik
ĠWelt raum
ĠUnter schrift
Ġemp ire
E very
Ġwh ip
Ġver re
Ġun gewÃ¶hnlich
ĠTe ams
ĠWell e
ĠOl ive
Ġattra ktiv
ĠbestÃ¤t igen
ĠSingap ore
em eter
Ġverurs acht
f Ã¤lt
Ġk g
ĠH ack
ĠN ative
ĠL anc
be am
Ġzu stÃ¤ndig
Ġum geben
Ġdrau s
ĠDes ign
Ġw uchs
ĠW inn
Ġin tr
ĠM io
id dle
im ir
ĠCh ad
Ã¤n zer
Ġhelp ful
ĠFor sch
Ġshout s
Ġsail s
Ġren ew
Ġverwand eln
Q ue
Ġw ink
ĠS ri
Ġv ia
Ġv ii
ag el
Ġda isy
Ġor ph
Ġtr ump
ĠUn heil
ges ellschaft
tern al
Ġtw ins
ĠJul es
Ġnormal en
Ġdisapp ointment
ĠHir sch
ĠPra kt
ĠZentr ale
ĠTie fe
d liche
m Ã¤nner
u age
sch icken
Ġro d
Ã¤r gert
ric ia
ĠEle ment
Ġ192 9
ĠÃ¶ffentlich en
Ġverhand eln
N ach
S AR
o ven
ĠE cho
ĠF as
Ġr uhen
Ġsh iver
Ġcol ony
Ġcap acity
ĠWÃ¼r stchen
Ġimag ination
Ġwes halb
y an
ĠW urm
Ġan stÃ¤ndig
Ġdo l
Ġsch ar
ri z
ate gie
Ġmehr eren
ac c
Ġpre v
gr Ã¼n
Ġsicher lich
ĠFrieden s
ĠPip i
ĠFreder ick
Ġl oll
ĠWh oo
Ġbl ieben
ĠCar lo
Ġhoff n
Ġjoin ing
Ġscr am
Ġcondu cted
Ġaufw achen
IDENT IFIED
ch ar
Ġw ax
ĠL ibr
Ġlang es
ĠAus flug
olog ische
Ġdec isions
US E
ĠCamp bell
Ġwei Ãł
ĠWurz eln
H a
p upp
Ġk ite
ĠT annen
ĠK i
Ġer Ã¶ffnet
if ully
Ġbeg angen
ĠMc donalds
Ġaufre gen
ĠNep al
Ġein gef
Ġein gehen
ĠSie d
Ġder zeit
ĠU E
ĠTh ird
Ġcom ic
gel y
Ġmin i
Ġtest ing
Ġstat ue
Ġpurp oses
Ġsan fte
Ġdreck ig
h arm
Ġg own
Ġv ibr
Ġe is
ĠR IGHT
sen der
Ġnot able
ĠRe y
Ġgel aden
Ġsmall est
ĠArch ie
Ġtravel ing
Ġcabin et
Ġbegle itet
urren z
ĠOsw ald
b etter
f ell
s leep
at on
ĠM ult
ĠH ook
ĠSt ir
Ġab rupt
ĠÃ¼ber tragen
Ġtra pped
ha fter
Ġdi agn
Re g
ĠTher apie
ĠLok al
Te am
Ġh Ã¤r
Ġn av
ĠA ur
qu al
ug el
ĠFr ise
ov or
Ġfl ame
ĠLu is
ĠMary land
Ġempf ind
Ġblank ets
ĠErf indung
ĠMoh ammed
r aten
w ed
ĠI ce
ĠS S
us k
Ġge legen
ĠSt ick
Ġgel Ã¶st
ĠBer ry
ĠScheiÃŁ kerl
talk ing
Ġinfluen ced
ou x
Ġc ooper
ĠT akt
Ġde utsch
Ġbl ast
ĠCar men
ĠMark y
Ġwid ow
Ġruf st
ĠGriechen land
rane an
n s
Ġso le
Ġsh aped
Ġdes ired
og ue
Ġrem ote
ĠSh oot
ump y
Ġleid et
ipp in
umb les
ĠTor onto
ĠVerfl ucht
Ġnegot i
ro cken
Ġan kommen
Ġim pr
etz ungen
ĠRe f
bst ahl
ĠDr ama
af a
ĠBÃ¼ chern
UN IDENTIFIED
ĠÃ¼bern ommen
ĠSatell iten
ĠÃĥÅĴ ber
R oman
re hen
Ġc opper
ĠV as
ĠHe iz
ap ol
ĠKr imin
Ġverst orben
ĠFrank ie
ĠGew iss
Ġhur ricane
ĠSar g
ĠHeil iger
ĠRÃ¤ der
an bul
Ġk in
el i
Ġst im
ĠEin em
Ġlie d
ett uce
Ġhin ab
ok er
Ġplan en
st ate
Ġto ps
ĠAb by
Ġcont ents
Ġcont rovers
Ġsusp icious
Ġarrang ements
ucks ack
Ã¼p ft
pher d
ĠErwachsen en
Ġcombin ation
Ġh ood
ĠL oy
ĠR uh
Ġruss ischen
Ġenvironment al
u ers
ĠS ug
ĠS aw
Ġc ub
ĠL ink
me er
Ġdr itt
Ġbest and
fri kan
ĠFahr zeug
Ġrough ly
Ġw olves
ĠD utzend
id em
ĠSt ab
Ġsp ons
ĠEin samkeit
ens on
Ġbeh ave
RO W
ĠFed ern
s un
s agen
ic c
Ġver teilt
ĠZ ach
Ġste ckte
Ġgl orious
ĠAd min
ĠArm strong
Ġengine ering
Ġexist ieren
Ġbother ed
r age
Ġ ll
omm es
Ġhin t
amm eln
ĠSchl uch
ĠLieb ste
Ġdisch ar
, ]
- ,
ĠB ret
os aurus
Ġsh adows
ĠHier her
Ġverl ierst
gr ow
dern ess
ĠPfer den
Ġkom ische
ĠSpe ed
Ġbra cel
ĠRos ie
Ġbab ys
sm ith
ĠScot ch
pull s
Ġmunicipal ities
M W
w yn
Ġn utzt
ĠS alt
al p
ern te
ĠSchl itten
ĠSchme ckt
m ung
ar us
au gh
orn stein
att oo
Ġ5 4
head ed
ĠDenn och
ĠPhilipp e
ĠArgent ina
Ġdreh te
ĠprÃ¼ fen
Ġa while
ag d
ĠP ent
Ġst air
ĠSch al
Ġmess ages
ĠOber flÃ¤che
Ġverlie ben
Ġimag ined
DE M
Ġarg ue
Ġremind s
ĠÃ¼bert rieben
Ġsogen annten
sil ver
g ow
h ou
ĠSch oÃŁ
Ġsm ack
Ġnew ly
Ġcons ent
Ġ9 7
ĠBet ten
Ã¤rt ner
cour se
ĠNath alie
Ġm isst
Ġmit tel
Ġnach sehen
ĠRe zept
ĠBr iten
Ġerf uhr
Ġplant ed
ĠWoll te
Ġcommun ities
Foot note
F ather
p fe
ĠW right
Ġc ob
Ġ7 7
ium s
ĠMil an
ĠEn ter
roll er
Ġausge zeichnet
Ġdeb ate
ĠNich olas
ĠC and
Ġsch ock
ĠEin sch
sh ut
ĠMus keln
room s
ĠTest s
ĠLI KE
ĠDrau ÃŁen
c ular
g etting
m un
le um
ĠK ard
id t
ĠO klahoma
ge ll
Ġwar ne
ud der
Ġoffen en
ĠDep ression
Ġunc ertain
Ġdivor ced
ĠMuh ammad
I AN
u ber
ĠD oll
ir ge
am n
ĠLe be
Ġgesch ieden
Ã¤us e
ĠGib st
Ġgarden s
Ġspann end
Ġkauf te
ĠFlag ge
Ġdiskut ieren
k Ã¶rper
Ġd ynasty
ĠW odka
ĠT ore
Ġhabe e
Ġbrau chten
Ġhal bes
Ã© l
ĠTÃ¼r klingel
Ġass ure
reg on
Ġprob iert
M il
en ch
Ġm ike
ou g
ĠS hre
Ġk Ã¼hl
um bs
ib a
ĠLe icht
ĠBe ver
Ġsub marine
ĠChamp ions
Ġdeliver y
Se ite
ĠKamer as
ĠRon ald
Ġprompt ly
ĠHerausforder ung
ĠS ac
ĠP ony
ĠO z
Ġver bergen
ne iden
ĠSh ar
kl Ã¤nge
ĠMad ison
ĠRo te
ĠEv ans
Ġdream ing
ĠHor iz
ĠJournal isten
ĠgewÃ¶hn lich
Ġhyd rogen
Ġenthus i
r unter
Ġso ccer
ĠR ab
Ġkl ettern
ĠMom ente
Ġ16 0
Ġbusiness man
Ġref res
abel haft
ĠFest ung
Ġcere mon
Ġern Ã¤hren
ĠConne cticut
ĠK affe
Ġre if
ĠAl ters
ĠPro ject
ĠBl ues
Ġpol ite
ĠKÃ¤mp fe
ĠKek se
Ġjahre lang
ĠunhÃ¶ flich
le un
Ġhe ult
bl in
Ġbeh old
imp ft
Ġ193 2
ĠMo der
ĠPfe ifen
ĠM ON
ĠE vent
Ġge pl
Ġsp ont
Ã¶r m
ĠGr anny
Ġlau fe
Ġverd anken
stand s
ament al
Ġach ie
ĠChild sname
ĠSup reme
g ien
at zt
al most
Ġre iche
ĠIn telligen
iff en
ĠKopf schmerzen
roll ing
stern is
Ġjud gment
Ġcrit ics
ĠIll usion
finit ely
d ate
st ieg
ĠG ig
ĠK orn
lau te
ĠLand wirtschaft
ÃŃ n
k ie
Ġc ust
ĠA is
ĠK asten
Ġj umps
uch ter
Ġle is
ahr scheinlich
Ġent ers
unk s
ĠChar ley
Ġber uf
Ã¼ll te
ĠVern unft
Ġdepart ure
Ġp opped
ĠH ed
ĠP utz
ĠFre edom
ĠOr ten
Ġcomp ass
ĠGef ahren
Ġprom oted
Ġconsider ation
oop ed
ĠAkt ien
Ġphilos opher
Ġstrugg ling
H uh
h op
ĠS ud
ĠH ump
ĠB uster
ĠE go
Ã¤ le
ĠG h
ĠF oster
ĠJ ammer
Ġgesch nitten
Ġcol ours
Ġfill ing
ĠSa ison
su per
ĠUE FA
P lease
z ten
Ġs us
ĠD iane
te am
ĠT oy
ĠP uzzle
ĠR oute
Ġdis gra
Ġrichtig es
ĠChe ster
ĠPre ise
Ġdeep er
ĠPil oten
spect or
pict ure
g art
Ġb abe
ĠK ohlen
Ã¶ d
Ġaus gedacht
br and
ges p
uld ig
ĠPl att
ĠHerr schaft
Ġ9 8
Ġdoll house
Ġbek Ã¤mpfen
ĠgrÃ¶ÃŁ eren
ĠPast or
ĠVerÃ¤nder ung
Ġf la
ĠW AR
ĠH end
ĠH OW
ĠB ann
ĠF res
ĠF itz
be wohner
ĠSch icken
Ġsh ine
Ġdis order
att ung
asch ent
ĠLau ter
Ġbew affnet
Ġstri king
ĠTra vis
ĠUntert itel
ar chen
Ġc able
ĠF ame
Ġag ents
Ġfe ige
Ġbetr achtet
Ġmeant ime
ĠRa ven
ĠPen is
ĠLux us
Ġsuspic ion
r ina
w affe
z ard
ĠW WE
ĠF els
ĠWe iche
Ġpro vid
Ġcomp ound
Ġlar gely
Ġersch ienen
Ġma iden
RI CHT
mitt ags
Ġconcern ing
Ġdiscuss ed
Ġcher ry
Ġapprox imately
m ph
Ġd amp
Ġd iver
Ġs Ã¤mt
st unden
ĠH oo
ĠN anny
ag h
ĠKr on
ĠHand els
ĠGroÃŁ es
Ġverg aÃŁ
Ġ193 1
ĠBas il
Ġauss ah
ĠFantast isch
t aking
Ġun tern
ĠGe werk
Ġfe ars
Ġevery day
ĠVor bild
Ġgel acht
haft a
Ġdesc ended
pre tends
ĠBerlin er
ĠBrad ford
Ġbenef its
ĠNikol aus
ĠCale b
K A
n ut
ĠA then
ere lla
ĠG y
Ġe kel
Ġwe ise
Ġan zusehen
ĠR ams
Ġr Ã¤umen
ĠO je
ap ing
Ġins gesamt
mm m
Ġweiter es
ĠVor der
Ġpol y
ĠSc ro
ĠEd mund
Ġma j
Ġclass ical
ĠSpe ck
Ġregel mÃ¤ÃŁig
Ġstead ily
Ġm ac
ĠO wen
ĠRe x
Ġpre ced
Ġschre ib
ĠhÃ¼b schen
ĠTechn ologie
ĠProv inz
ĠTai wan
ĠVene zu
Ġz err
iss ar
Ġcl in
Ġland sc
Ġpark ing
yd ia
Ġtriff st
Ġhesit ated
n imm
t ail
ĠS ig
Ã¶ der
ic als
Ã¶r er
ĠSp itzen
ĠMar quis
ĠCar r
ĠQu alitÃ¤t
Ġsim pl
ĠDep uty
ĠSitz ung
Ġdistur bed
M P
T otal
f on
u ben
ĠC uba
ct ive
we ar
ĠKr Ã¼
ĠÃĦ uÃŁ
Ġerschre cken
Ġhind urch
Ġtempor ary
Ġt schÃ¼ss
Ġo ink
Ġpe ar
Ġwo bei
Ġ7 8
ĠStr ahl
Ġsad ly
ĠerklÃ¤r te
ent ially
um me
Ġr Ã¤uspert
all er
ge ant
ge iz
Ġme iste
do ors
Ġschuld e
ffe kt
ĠIra q
friger ator
D a
b as
Ä ĩ
Ġf ulf
ĠD A
ĠK Ã¼mmer
Ġfr uits
Ġab und
Ġpl ung
geb lieben
ĠTo ast
Ġass umed
ey ed
ĠArm ut
ĠKling eln
ĠCook ie
on om
or ien
Ġp ots
ot hes
ĠK ry
ĠC ann
Ġout fit
ĠVer rat
bl ows
ĠUm gang
ĠhÃ¶ flich
gu ard
brau ch
Ġabgeh olt
ĠVerwand ten
ĠMitch ell
Ġv oted
ĠL Ã¤sst
ĠP L
ĠP ablo
ĠZ ul
Ġgef asst
ok oll
ĠSal v
Ġarr ange
Ã¤ll st
ĠFris ur
s aus
Ġm err
Ġf iles
ĠD uch
ĠD ID
ot y
ĠP oll
ĠR hythmus
Ġsch rÃ¤
Ġal ike
ĠSchw anger
ĠOb jekt
Ġlo an
Ġdefinit iv
Ġl ions
et he
ĠBr uch
ott ing
az ines
Ġac adem
Ġkr anken
ĠOff ens
Ġstatt dessen
Ġscr ub
ĠBul gar
ĠBalt imore
ĠWeis heit
Ġh aupt
ĠS leep
au re
ĠN adel
ĠL ET
ĠP lace
ĠR angers
Ġmein etwegen
Ġum gekehrt
Ġex ists
ĠDe velop
Ġcomp ounds
Ġcra cker
Ġpartic les
Ġopp osition
ĠBrau chen
Ġbull ets
ĠÃ¼bern immt
gott a
ĠCorpor ation
ĠFranÃ§ ois
b rief
n at
Ġw ives
ĠL ungen
ĠP om
Ġges ellschaft
die se
Ġbesch uld
ĠMel anie
Ġhau nt
W A
Z EN
a j
d isc
or ters
Ġp ence
ag u
ĠZe us
Ġunter sucht
Ġbed time
ĠWel sh
ĠMo or
ĠRau b
setz ung
ĠAndr Ã©
ĠYouT ube
Ġb ild
re ibt
ĠG ate
Ġsicher er
ĠFe iert
heim er
ĠDis co
Ġcustom er
Ġcondu ctor
ĠIslam ic
ĠTenn is
ĠDÃ¤mon en
J ames
Ġs ample
Ġch lor
Ġcl ue
pl ays
Ġcomp ete
bab bling
umm i
Ġkr ass
Ġintern al
ĠBrÃ¼ ste
Ġmod els
ĠSchle cht
ĠSalz burg
Ġbeast s
Ġt ons
Ġthe ater
ĠD Ã¤n
ĠD Ã¼stere
ic ity
ĠGr ammy
Ġstick ers
ĠEm my
join ed
ĠArk ansas
ĠSowjet union
it ic
el tern
ĠG wen
hn te
Ġgef ressen
Ġchar ity
Ġanswer ing
ĠBest Ã¤t
à¥ į
ĠProf i
Ġadmin istration
ĠImper ial
ed ly
Ġbe iÃŁen
ĠR over
lo y
ĠDen mark
Ġbro ok
utt le
ĠStÃ¼ck chen
ĠStud ent
ĠGericht s
ĠTelef onn
ĠInspe ktor
c amp
i op
ĠI F
os a
ĠSe he
ĠGl Ã¤ser
Ġben annt
ĠTage buch
ĠkÃ¤mp fe
Ġhop eless
ĠAk zent
in ander
Ġf Ã¼ttern
GR F
Ġscient ist
h ill
ch icken
OR Y
ĠPro fess
na ja
vis ed
ĠGel Ã¤nde
Ġrul er
ĠberÃ¼hm ten
ĠPri x
Ġanges p
Ġf itted
ĠG ir
ĠF ish
Ġsee king
Ġbeh alf
Ġschw ind
Ġreg iment
Ġ7 6
ĠGeb urts
j ah
y ah
Ġb uch
Ġfr Ã¼hen
Ġ19 18
Ġviel er
ĠOr angen
Ġcons cience
geh st
ple asant
Ġself ish
ĠpersÃ¶n lichen
gra ph
Ġregard ing
ĠAme isen
t ut
Ġy elled
ĠT ouch
ĠE inge
ra ÃŁe
Ġste cke
ĠQu ite
Ġmer ke
Ġpan ic
Ġwohn te
Ġmeas ures
ĠWhe ther
Ġpron ounced
ĠKonk urrenz
ĠAlbt raum
ĠS MS
ich ere
Ġk ettle
au ffe
ĠP la
Ġre ception
est ion
Ġbr u
ĠBut ler
bar er
ĠWH O
ĠVerspr ich
p ferd
Ġs Ã¼
ĠS oph
Ġl Ã¶st
ĠH IM
ĠN ine
ĠC AR
ĠU pper
Ġch alk
Ġzum achen
Ġem bra
Ġgek Ã¼mmert
Ġland et
ĠChe er
Ġocc urs
ĠBot schafter
Ġverwand t
rÃ¤n kt
c or
c us
l ines
se ud
ik on
Ġcl ip
wer ten
Ġ8 2
ĠVers uche
Ġhoff te
Ġorgan isiert
Ġphys ics
W ith
Ġw rap
ĠH r
ĠK uba
ĠZ ellen
Ġch arts
Ġget anzt
ond a
ĠEx press
ĠBen ed
Ġind icate
ĠApp arat
ĠBeweg ungen
aly mp
Ġc utter
ĠAn at
Ġum so
gel Ã¶st
let on
ĠAs yl
ĠMiss verstÃ¤ndnis
unk te
Ġlight ly
Ġpar ad
ĠCos ima
Ġrank ed
Ġhyd ro
Ġbeherr schen
ĠProb ier
Ġelectr ical
Ġnapp ie
vertrau en
A rt
C om
k eine
in to
et cher
Ã¼ chter
im ony
Ġwor Ã¼ber
ĠGe fe
Ġbrau n
Ġzwe ites
Ġ192 8
ĠHur ra
cr ay
Ġpropert ies
Ġbark ing
ĠFlÃ¼cht linge
ĠArschlÃ¶ cher
Ġn ina
Ġk angaroo
ĠK ung
ĠK ra
ĠFre uden
ĠSche i
Ġ6 6
Ġsur f
rat or
ĠAnt worte
Ġspo il
Ġpeace ful
ĠVikt or
ĠS ingen
ar ently
ĠH ak
Ġr aw
ĠSp inner
Ġ19 00
ĠEl f
ĠAp othe
ĠhÃ¶ch sten
Ġswift ly
Ġto te
Ġp ens
ĠB ark
ĠV lad
ra fen
ĠY i
Ġges essen
org ung
ĠPri or
ĠVersp Ã¤t
F ilm
j un
Ġk Ã¶stlich
Ġv oc
ĠC ouch
ies sen
Ġent hÃ¤lt
ler in
ĠKat hr
Ġtelefon iert
ĠInteress ant
Ġreiz end
leist et
ĠRhe in
L ittle
r Ã¤ume
ĠS ed
ĠK akao
ĠF iona
ĠSch am
ess elt
av or
do ck
Ġneed n
Ġschw Ã¶r
Ġcamp ing
uert o
ĠÃ¼berw Ã¤lt
ĠDesp ite
9 6
ĠA da
ne ys
me ow
Ġstart et
Ġdiff erences
ĠKr am
Ġ8 3
vis ible
hol m
Ġinv asion
Ġschau st
ĠPot ato
ĠIsabe lle
ĠGeoff rey
ĠVerab redung
Ġdisag ree
Ġdign ity
P at
b ock
n amen
ĠS ull
ĠAb u
Ġstar r
ĠBru ders
Ġproject s
ĠfrÃ¶h liche
ĠGeschw ister
gor ith
ĠB ug
ĠF uss
ĠN asen
Ġr ats
ĠO regon
Ġver gn
Ġun to
ĠZ ack
ail ing
ush i
Ġtest ed
rid or
throw s
ĠamÃ¼s ieren
Ġbatt les
w ent
Ġm eldet
it ete
Ġver tragen
ĠLe ises
ĠAb k
ĠMag net
Ġnormal er
Ġdanc er
Ġlan tern
Ġekl ig
R IT
Ġw i
Ġk Ã¼sst
ĠC ongratulations
ĠSch icht
Ġge ar
ers piel
ĠGl en
ane ous
ĠÃĦ l
Ġmar vell
Ġvoll stÃ¤ndig
Ġpar allel
Ġverb essern
ĠSchre cken
Ġmist akes
Ġmix ture
Ġtit les
Ġboun ce
Ġgewiss er
tod ay
, ,
ĠD ance
ĠM ie
ere corder
Ġdis gu
Ġsl ightest
ĠKont roll
Ġsens ation
far be
Ġautom obile
ĠUnabhÃ¤ng igkeit
ĠB agger
ĠP LA
ĠPar alymp
ĠEngl ishm
Ġaw esome
ĠglÃ¼cklich er
Ġviol in
far kt
ĠAL LE
ĠGreg or
Ġsozial en
ĠKompl iment
Ġtransfer red
Ġoccas ions
ĠtÃ¶t ete
g us
ĠS ame
ĠM amma
ĠT ess
ur rt
Ġz one
uch i
Ġle arnt
ĠAll tag
Ġed ges
Ġsens itive
Ġactiv ist
ĠHÃ¼hn chen
Ġengl ischen
Ġrib bon
ĠNut te
Ġh ire
ĠK Ã¤tzchen
ĠMar ian
ĠGr Ã¼ÃŁe
Ġtrans form
ĠParte ien
ĠErgeb nisse
Ġarrow s
V EN
h art
ĠL illy
Ġe vol
Ġde put
Ġsc old
Ġweg laufen
Ġgesch l
Ġerf or
Ġpop s
ĠJud ge
ĠW Ã¤chter
ĠB ellen
all ing
ap el
ĠIn ner
Ġnach den
ĠSc outs
kun st
Ġdesert ed
fortun ately
ĠBudd ha
Ġwis dom
ĠKasper le
Ġn etten
Ġer inner
ul i
Ġcl erk
sh ot
Ġcr ust
over ty
Ġben ehmen
Ġclear ing
ĠHin weis
ĠFound ation
E W
ĠT ad
Ġwir tschaft
Ġbet e
ĠPar f
Ġdefin ed
bott le
emeter y
en en
Ġc laws
ĠBe if
Ġkl etter
laugh ter
iet ies
ĠmÃ¶glich en
Ġpain ter
ĠTon ight
Ġbelong ing
Ġhy ster
ĠBedroh ung
t at
em ark
ĠAr ound
ĠMar cel
ĠEnt deck
Ġstr ings
ĠSy n
Ġappro ved
ĠOl ivia
ĠTÃ¶ ten
bef ehl
d ough
k al
ch io
Ġk ar
Ġauf ger
ĠEr wart
Ã¼n fte
sche u
Ġbeh alte
Ġfre ch
Ġhum or
ÃĥÅĴ ck
ĠTÃ¶ te
Ġruss ische
ĠSum me
A uf
r ank
Ġt sch
ie llen
Ġb ask
ĠS or
Ġl aÃŁ
Ġk ehrt
ĠE thel
ĠP att
Ġau st
Ġse ctor
od s
Ġgew ann
Ġmag azines
ĠSc out
Ġverb inden
ĠMed ic
Ã¤ck chen
Ġm ars
Ġv ere
im pf
ĠO ben
Ġmit fahren
ĠDu de
ĠIn spector
ug os
wo ke
ĠCom ics
Ġguess ed
Ġmo dest
Ġled ig
Ġlift ing
ĠAnge kl
ĠNet work
ĠThail and
" !
' -
8 8
p age
t om
Ã ¥
et o
ĠU lt
ver ein
Ġbr ow
ĠHer mann
if ik
Ġhome work
ĠVers icherung
rat zen
Ġhor rid
Ġrock ing
ĠPfl anze
Ġident ify
Ġarrang ement
ĠHÃ¤ schen
aly se
Ġprec ip
Ġunterschied lich
ĠErdbe ben
Ġt ad
Ġf ict
ĠH O
Ġle ichte
ĠIn iti
ĠWe isst
ĠHer kunft
ĠFl etcher
ĠReg ierungs
Ġversuch st
Ġofficial s
ĠZwill inge
' !
ĠN ichte
ĠP i
Ġver eint
no ises
ĠSe attle
Ġverd ienst
rain ing
Ġmark er
lichkeit en
Ã¤m me
Ġglo b
Ġbye bye
ĠUt ah
A dam
Ġd ivers
um bo
che ck
gr amme
igh ters
entlich en
Ġdrau ssen
ĠEurop as
Ġsla very
Ġanz ur
ĠJenn ie
( '
f uhr
ĠM oney
ĠDu ft
Ġover come
wer en
ĠDe e
ĠUnter lagen
Ġfollow ers
St ar
Ġbat ht
Ġposit iv
ĠPhilipp ines
Ġgaz ing
iped ia
Ġmaint ain
A ny
c ott
f assen
im ente
ĠP yram
Ġgo ats
ren gen
Ġtw in
ĠCol omb
o ft
Ġb umm
ar men
Ġp asse
ĠT ree
ic it
ack el
Ġqu id
ĠIst anbul
ĠTr uppe
Ġwr ist
Ã¤d igt
ĠAus lÃ¤nder
ĠÃľ b
Ġbelie ves
ĠChe l
ĠLau fe
ĠKir k
ĠKlein igkeit
Ġredu ce
Ġacquaint ance
ĠGeor ges
Ġw iped
Ġp udding
ĠT all
Ġle an
ĠLe cker
acht ete
ĠHer de
Ġdurch gemacht
ĠAm ts
ĠGu ys
Ġinform ieren
, ...
K on
Ġd ent
ĠS age
Ġl ighter
Ġto re
ĠL er
ĠP uff
Ġdu b
ĠR ang
ĠWe ek
Ġgl ances
Ġ5 3
Ġspr ay
ĠDar win
ivers ary
Ġgemein same
Ġstri pes
ĠMeth ode
Ġdus chen
ĠPic ard
Ġklau en
ĠCraw ford
Ã¼ geln
ĠG ipfel
se cut
ĠLe bt
Ġam used
ĠAus rÃ¼stung
Ġdep ression
ĠBu ilder
Ġterrif ic
ĠGÃ¤n se
ĠNott ingham
ĠIntelligen z
Ġw aff
ĠF aul
th day
ĠTh under
sel s
Ġend gÃ¼ltig
Ġheart ily
OU ND
ĠMot iv
Ġdoc uments
ĠBan anen
kÃ¶n nen
ĠÃ¤r gern
ĠTeen ager
an es
ĠSch ubl
uss i
ĠTr ennung
Ġhol te
Ã¼ÃŁ te
Ġwert voll
ĠJoh anna
Ġcy cle
Ġpitch ed
Ġsogen annte
Ġfortun ate
ĠVul kan
Ġbeteil igt
ĠTelefonn ummer
Z e
be an
ru it
Ġrep ro
ĠMal ays
Ġadmir ation
Ġearnest ly
H ome
e ff
f ro
g locke
CH R
ĠM ask
ĠV amp
Ġun pleasant
ĠLe it
ĠSche isse
Ġfin est
ĠKon zept
Ġheut ige
col or
ĠRud i
ĠBrother s
Ġkor rekt
t Ã¼r
ĠS ICH
ĠB ax
ĠB loÃŁ
ĠB umper
us sen
ĠO pt
IN T
Ġwith draw
ul ating
Ġdein s
Ġpe oples
ĠMe eting
Ġfre il
oose velt
ĠRah men
M art
Ġt ails
ĠD in
Ġme als
ma id
eth oven
Ġsk ipper
ĠJust iz
ĠNor ah
Ġbra ins
ĠFel der
ĠÃ¼b lich
ĠRh odes
ĠTab letten
Ġunw ichtig
Ġvent ure
kap utt
Ġpropos al
ĠEntfern ung
Ġamus ement
: --
B all
D P
ĠD C
Ã¼ hn
eh in
ĠL ydia
Ġj ur
um ing
we chs
ate gy
Ġkl ang
Ġcl er
Ġfl ames
Ġsuit case
Ġspann ungsvolle
ĠVerstÃ¤r kung
Ġd in
ĠW agner
Ġp oop
ĠB ri
ĠL IE
Ġli vely
ri ages
Ġen for
ĠFl otte
ĠGl enn
ĠDr ache
ĠPat ricia
ĠOb ama
ĠMed iter
Ġfix ing
ĠProdu ktion
Ġpal m
Ġregular ly
Ġmeas ured
u ate
st il
ĠT roy
ĠR anger
omm od
ol ogen
ĠSt Ã¶r
ĠHe art
Ã¶r dern
Ġbef ohlen
ok u
Ġelse where
Ġsol ar
ĠDE M
Ġcelebr ated
ĠConf erence
ĠAtt ent
ĠLeip zig
ĠW az
ow l
ĠBr ight
Ã¼t ten
ele phant
ĠRau schen
Sh irt
ĠDak ota
k itty
z ahn
on ing
Ġkn allt
Ġor bit
Ġex tend
hl ight
Ġfin ishing
ĠAndre as
Ġprovis ions
ĠFreize it
S am
Ġa gency
Ġs ust
ig ation
ĠBe kannt
ĠTr ansp
Ġrep ubl
ĠBand iten
Ġc ongress
Ã¼ pf
ER N
lie b
ĠVers ager
ias m
Ġpurs uit
ymn as
âĨ Ĵ
ie ft
ĠL ars
Ġan hÃ¶ren
Ġr ennt
Ġpe el
ĠFar b
Ã¨ s
open h
ĠDomin ic
Ġaston ishment
Ġaccompl ished
Ġretire ment
Ġw ilden
it ories
ĠW ard
Ġc ore
id dy
Ġr uff
ĠVer treter
Ġdr Ã¼ckt
Ġpe ek
Ġviel mals
Ġconsequ ence
Ġverbre itet
ĠW ick
et an
ĠT ul
ĠG OT
ĠR oosevelt
Ġr and
ĠSch Ã¤
Ġno ds
Ġaus gesetzt
ict ions
Ã¼t iger
ho ben
Ġpract ically
ĠmÃ¼sst est
Ġsearch ed
ĠI g
ĠK noten
ĠN uss
ast et
Ġuns icher
Ġch ron
Ġres igned
ĠMir iam
Ġerk annte
irm ingham
ĠÃ¶ff nete
ĠSpann ungsvolle
Ġpun ished
Ġgrat uliere
ĠDisk ussion
Ġb acon
ĠG oth
Ġsh iny
Ġum zubringen
ĠWar nung
Ġdr ill
ĠNe uen
Ġbeg annen
Ġson der
pro gramm
Ġber ichtet
ĠWel ten
ĠSa fe
ĠWoll test
Ġutter ly
ĠJos Ã©
ĠRevol ver
" -
A us
S H
g asse
k om
Ġs ab
at ar
Ã¤ uft
ĠZwe it
ĠNor weg
ĠfrÃ¼her en
Ġdesc ent
stoff e
ĠCop y
Ġded icated
L ING
f Ã¤h
Ġs napped
Ġf ass
Ġv ideos
ĠK rab
sch iede
Ġauf rÃ¤umen
und zwanzig
ĠLe gt
ĠBar b
wie gen
olog ists
Ġoffic es
ĠRo z
Ġcor re
Ġbuff alo
Ġk alte
eh Ã¶r
Ġst oÃŁen
ĠO cc
oll ect
Ġsp illed
ĠVer zweif
ĠBe ethoven
Ġtr Ã¤ume
ĠSe en
br r
Ġpe ak
Ġrec y
Ã¤s se
Ġbesser es
ĠCon stitution
Ġformer ly
stra fe
ĠExper ten
Ġkontroll iert
ĠHuren sohn
Ġpist ol
ĠCase y
ĠT ir
ĠB ischof
un er
ĠK ey
Ġwh isk
Ġwar rant
Ġpl att
ĠQu oth
iven ess
ĠHund red
Ġgrab bed
Ġexamin ed
Ġcam el
ĠHud son
Ġmagnific ent
ĠVerspÃ¤t ung
" :
P ar
o ir
Ġst reich
ĠSch inken
ĠEr klÃ¤r
ĠIn form
mal e
av ier
Ã¤n ze
ĠSam urai
AL LY
licher weise
Ġhar ten
ted dy
ĠTor te
ĠRoman ia
ĠJournal ist
Ġliber al
Ġtravell ed
ĠStad ium
ĠEreign is
Ġwarri ors
ĠBezir ks
U CHT
c ons
m ich
p se
Ġn om
el f
Ġan erk
Ġge waschen
Ġmit teilen
ĠVer t
Ġmon sters
Ġbro om
co at
Ġperform ing
Ġbau e
Ġexamin ation
ĠLux em
ĠConfeder ate
Ġles b
ĠKrokod il
9 2
st arts
ĠZ un
Ġsl ed
Ġbre ed
Ġtrain iert
Ġcamp s
Ġdep th
ĠÃĦr ztin
Ġdevelop ing
Ġbehav iour
Ġmessen ger
ĠunabhÃ¤ng ig
ĠScro oge
i ques
m issen
n ames
ĠN erv
ĠR ucksack
Ġab use
qu er
ĠAn lass
ste ig
ĠCh ir
Ġret tet
ĠÃľ BER
ĠMag n
ĠRo hr
ĠCal vin
Ġoper ated
S aint
h aut
v ak
ĠB anken
Ġher auf
die u
gef logen
Ġ9 6
Ġdisc our
Ġprop ose
) :
9 7
m Ã¤nn
Ï ħ
Ġd ough
Ġa ired
Ġc reek
ig ste
ĠG in
Ġso dass
Ġre bu
ĠSch ale
Ġge jagt
Ġup right
ian er
Ġcont rary
Ãľ CK
Ġrepresent ing
ĠGÃ¶t tin
Ġgal ax
k raut
ĠN AT
Ġhe ulen
ĠC over
Ã¤t sch
elt on
ĠPer u
UR E
ĠGet re
Ġeinf achen
orpor ated
ĠB ody
ĠL ein
ĠL eine
Ġr annte
be ute
Ġfr ies
Ġuns ichtbar
ĠLe ft
ĠSchw ieg
Ġfood s
amb ling
AP P
ĠHigh way
Ġsched ule
A ch
l Ã¶sung
o z
r ine
Ġd ot
ver trag
Ġfor ts
ĠBe zug
under ten
Ġsk el
ĠKar a
ĠStud ios
Ġtau cht
Ġner ves
Ġbump ed
t urm
ĠF ight
ĠP uls
Ġauf treten
ĠY ale
Ġaus machen
ang riff
Ġkl appen
ok a
let te
ĠMed al
Ġpat rol
ho oray
Ġschlimm sten
Ġinfe ction
ĠFortschr itt
P ost
Ġw ehren
Ġb Ã¶ser
ĠT aschent
Ġbr Ã¼llt
ĠAus stellung
Ġkeiner lei
ĠVerl angen
yl an
far ben
Ġopt im
bir ds
ĠtrÃ¤um te
auffe ur
8 6
D ear
E ng
m aus
Ġm h
ĠM aine
ag i
ĠP az
Ġst alk
Ġus ers
iss ance
Ġste ering
Ġsc orn
Ġger issen
Ã¤hl te
ĠPe pp
ĠRÃ¼ck zug
Ġtechn ical
ĠAusge zeichnet
ĠMediter ranean
! --
ĠS es
Ġo ars
ĠT um
ic ations
Ġst inken
Ġun bes
Ġwith d
art iges
ath y
Ġfl ashed
OU S
ĠEd gar
Ġdep ending
child ren
ĠNÃ¤ch sten
beweg ung
ĠBever ly
w affen
Ġo ak
ĠA irlines
ĠE b
Ġr ural
Ġall mÃ¤hlich
ĠIn v
ound ed
Ġen qu
ĠMiss us
Ġexpl ains
Ġdifficult ies
Ġgep ackt
Ġlic ense
5 6
g Ã¤nge
Ġt act
ĠM alt
ĠM EN
Ġp ets
ĠG host
Ġfor dern
qu eline
Ġgr inned
sh oes
Ġgesch me
ha ven
ĠGer ede
ĠEl aine
ual itÃ¤t
ĠSuper markt
ĠKommun isten
ĠZerst Ã¶rung
ĠT reat
Ġr Ã¼hr
ĠV OR
Ġor chestra
over lap
ĠSchw uch
ĠFor der
ĠSag te
ĠVan essa
pur ple
Bill board
Ġearthqu ake
an uts
ou rable
Ġg ym
ĠP ont
Ġso da
ĠO nt
ĠY ellow
ĠHe ctor
Ġrel atively
ĠGra fen
Ġtax es
Ġrank s
Ġbeeindruck end
Ġelekt ron
Ġmathemat ics
ĠCind y
h aufen
ch anged
Ġg Ã¶tt
Ġj umper
ĠU ms
Ġun like
art iger
ĠSte igen
ĠAus weg
ĠGed ichte
ĠTrau rige
ĠTar zan
P as
c s
e ckt
f ashion
Ġf asse
im et
Ġre iÃŁt
isten s
Ġhead ache
ĠQ U
Ġrad iation
ĠDien ste
st ift
Ġp airs
ĠT icket
ĠL amm
um ption
ĠV ize
Ġsp ar
Ġsp inning
Ġsu its
ĠHa i
Ã¶s ser
Ġfat al
zahl ung
ĠTab ak
S pe
b its
ĠH ip
Ġz Ã¤hle
ĠF ly
ĠJ A
Ġmir acle
Ġtr igger
Ġhin Ã¼ber
ĠFl ut
Ġsub stance
IM E
Ġentsp annt
Ġruin ieren
Ġfrem de
Ġprefer red
Ġdiss ol
ĠIngen ieur
k m
ĠF ahne
Ġunter brechen
kl Ã¤ren
ehm igung
Ġval ues
Ġtight ly
ĠWerk zeug
ĠGefangen e
Ġcraw ling
ĠUs ually
Ġenthus iasm
Ġerstaun lich
K EN
b Ã¼r
r Ã¤t
ĠM amas
Ġk och
ĠF aden
os ure
Ġat oms
Ġwer fe
sh i
Ġke ucht
Ġcare less
ĠJahr zehn
Ġwhe at
Ġverm ute
Ġdev ices
g om
s ack
Ġd ip
Ġa woke
ĠC ensus
ĠSt ier
Ġzwe iter
Ġser ves
ĠMy th
ĠHel ena
Ġvar i
Ġfil men
Ġaufgeh oben
Ġess ential
Ġarchite ct
P H
b n
f ree
i ago
k op
Ġw asted
ĠL etz
ann ter
ug t
Ġlau nd
row s
ĠJe anne
Ġplan ets
ĠÃ¤r ger
ĠKonsequ enzen
R ob
Ġb ildet
ĠW ELL
Ġc aval
ĠM ol
ĠH ale
ĠB iest
ad ays
ind ustrie
ĠV in
ab s
ĠEs c
ĠBe au
ĠzurÃ¼ck gekehrt
ĠgroÃŁ artige
Ġmoment an
ĠWol ke
ĠGab rie
Ġausges prochen
ĠIllustr ations
ĠdÃ¤ mlich
Ġlif etime
w ache
Ġt ires
it ches
ĠN ils
ĠL iv
we ight
ĠSpiel t
Ġform ation
Ġsupport ing
ĠCont in
ĠKÃ¤mp fen
ĠGi ov
Ġtransl ated
ĠOri ent
le e
ver end
Ġsh orter
ert o
Ġpr Ã¤
Ġstr on
Ġabs ent
Ġorgan isieren
Ġtap es
Ġrefle cted
Ġohn ehin
Ġs inc
ou st
ĠT onnen
ĠZ ischen
ĠAn scheinend
Ġgew inne
Ġafter ward
Ġthank ed
Ġfair ies
ĠMot oren
Ġlay er
Ġwarri or
p ackt
ĠI ke
ĠT amil
ra z
ĠAn sicht
ĠAn spruch
Ġcom rade
Ġent itled
pl ed
Ġtw isted
kr am
ĠAz iz
j our
ĠM h
ĠK onn
Ġout ta
ste uer
ĠDre hen
Ġ14 0
Ġsen den
ĠVerl ierer
ĠMet ern
Ġ192 6
ĠQuad rat
Ġw ounds
ĠSch ott
Ġch ill
ĠAn k
ik h
iv alent
icher heit
Ġind icated
Ġran ch
ĠLau rie
ĠRuss ians
Ġcorn ers
Ġmotor cycle
Ġeigh th
ĠPor no
Ġbrit ischen
Ġunfortun ately
ĠPassag iere
thr ough
v ar
er l
Ġl end
ĠH underte
ĠB od
ert rÃ¤
Ġgesch Ã¤ft
ĠDr ittel
Ġsy nt
Ġdead ly
ĠJapan er
Ġbew undere
ĠKap iert
Ġprov ides
ĠMet ro
Ġentschuld igt
Ġeduc ated
ĠPfe ife
ĠStu fe
ĠSpazier gang
Ġk ichert
de ar
ĠRe akt
Ġgr us
ĠShe ld
Ġacc ommod
ĠIr re
Ġverb orgen
ĠPark platz
ĠComm unity
ĠMel bourne
Ġpolic ies
Ġremind ed
ĠConn or
Ġwander ed
i qu
l u
y ll
ĠM is
ĠC ertainly
Ġver sen
ib ilities
Ġaus ged
ĠSo fia
act ive
ĠMa id
ĠDr Ã¼ck
IS H
Ġkill s
Ġben utz
ĠlÃ¤ ufst
ĠMag d
Ġwhisper ing
Ã¶pf chen
Ġdisgust ing
Ġdiscip line
G ott
S al
Ġr aft
ĠTh irty
ĠBe leid
Ġwhere as
Ġgra pe
ĠGn aden
every thing
ĠBrie ft
en cy
ĠD elta
ĠT Ã¶tet
ink led
Ã¤t tern
att ed
Ġfre ely
ucht ung
ced es
ders on
Ġass ert
rat zt
ĠStr ich
Ġtest en
Ġ192 7
Ġrecogn ition
ĠLy on
Ġo ath
ir us
Ġbe am
ill as
ra ce
ĠEr in
ĠSe ife
air o
ĠTr uck
ete il
ĠÃĦ ch
ĠFol gt
ĠDel hi
ĠWin ston
ĠWes halb
Ġarchite cture
Ġcush ion
Ġl ettuce
ad ers
Ġder selbe
ĠC ord
Ġmus cle
ĠCh ase
IS E
ĠGu ess
St ation
IR L
Ġtrust ed
ĠJugend liche
Ġappar ent
ĠAnkl age
ĠÃĦCH ZT
Ġl ump
ĠB irmingham
Ġge leistet
ak h
Ġfl ushed
Ġfre ier
Ġrest ored
ĠMir anda
Ġgra ben
ĠMist stÃ¼ck
Ġspirit ual
olo ge
ĠFÃ¤h igkeit
ĠA str
ĠB uzz
ĠP uerto
Ġre icher
Ġlos gehen
ĠDe x
ĠLook ing
read s
Ġtro op
ĠFin land
Ġfolgen den
Ġtoss ed
Ġjew el
on ents
ĠT Ã¼re
ĠL ett
Ġan gr
ne igh
ste p
ĠWill i
Ġweiter er
Ġ6 7
ĠLau ren
Ġcatch es
Ã¶rder ung
ĠAth let
ĠEreign isse
Ġdistingu ished
W ar
f red
st ig
ĠG and
Ġhast ened
ĠzurÃ¼ck kommt
ĠBest ie
ĠAre a
Ġgra vely
ĠComm and
ĠChristian ity
B uch
et ic
ag anda
ĠL ov
Ġr ipped
ĠSch ere
sp iele
Ġpe ach
Ġcl ick
Ġins ane
ĠEnt tÃ¤us
ĠSpiel chen
RO G
bour g
Ġreinge legt
ĠKartoff el
ĠSchluch zen
b reat
f indet
u ht
au ge
ĠEr stens
ap se
Ġ19 19
Ġent w
cl osed
ĠIr ren
some one
iess lich
ĠDinosaur ier
Ġhaupt sÃ¤chlich
Ġg oo
Ġas hes
ĠBe k
Ġsing e
Ġgre eted
ĠvÃ¶ geln
US S
Al so
Ġcris ps
ĠGret chen
ĠLeop old
b ac
n ich
ĠW ally
ĠVer fahren
men schen
ĠWie hern
lo e
Ġper il
ĠHÃ¶ hen
Ġhar vest
Ġappro val
ĠSing h
Ġschwier iger
Ġgefl ohen
i he
j unge
Ġt al
Ġm ourn
it ur
Ġso d
Ġall owing
ĠThe odore
ĠVer br
Ġ3 000
ges agt
ĠTr ent
wir kungen
ĠVerk Ã¤ufer
Ġprovid ing
p aÃŁ
ĠK un
Ġe e
Ġwe iten
ro hr
Ġsch uf
ĠO sk
Ġent ry
Ġspe ar
Ġ8 4
Ġfest e
Ġheraus zufinden
wor ld
ĠPriv ate
ĠSkla ve
g reifen
Ġp ige
igh th
Ġbes eit
Ġvers orgt
Ġint im
Ġdec re
sinn ig
Ġentsp annen
Ġrare ly
Ġexplod iert
ĠZivil isation
ĠRath aus
temp or
h Ã¶h
l Ã¤nd
s nee
y ers
in ch
ĠA dieu
ĠF lo
ĠN OW
ĠV ag
Ġall igator
Ġse wing
ĠHe ft
Ġgr Ã¼nden
ĠNe ger
Ġspr ich
Ġsk ip
ĠKar in
ĠBrÃ¤ utig
d ein
m are
Ġm ob
ĠS ide
Ġf Ã¼llen
le iten
Ã¤ mmer
Ġr aff
ĠAn son
Ġ9 3
Ġappear ances
ĠTele gramm
ĠLiebst er
ĠQuiet schen
ĠAzerbai jan
behÃ¶r de
K N
s weet
ĠS ave
ĠN HL
th al
Ġst aat
ĠO thers
ĠBe a
Ġlie ge
ĠHer o
Ġtell y
Ġmin es
gl Ã¤ub
ĠFahr stuhl
Ġcamp us
ĠOther wise
Ġchem istry
ĠBenn ett
ĠFri end
loo kee
A unt
f al
f uÃŁ
à ±
Ġd ive
ĠA ster
ĠB Ã¶ses
Ġre ist
Ġsich ern
qu iet
ip ing
Ġbest anden
atz er
Ġind ul
itch ed
Ġexist ing
Ġakzept iert
Ġinterf ere
ĠLibr ary
ĠS ier
ĠH are
ĠSch eint
ĠVer on
ĠWie se
Ġpro sper
Ġgen u
ru de
Ġprom inent
Ġinst inct
ĠKom bin
ĠnÃ¤her t
ĠSign or
Ġlower ed
Ġgarant iert
ĠLyn n
ĠBrasil ien
M ami
k ern
Ġg ri
Ġn acht
ĠB io
ĠL amb
Ġse ist
Ġle uchten
Ġch ased
Ġcar go
Ġfol ge
Ġquar rel
ĠPet ro
ĠÃ¼bern achten
Ġhapp ier
ĠMur phy
Ġdistrib ution
g ans
g rab
k ein
Ġge lehr
Ġdem selben
ĠNe ug
Ġpre tends
Ġbes prochen
Ġversch le
ĠSk andal
ĠGeis eln
f ur
m ache
Ġt Ã¤uschen
ĠD im
Ã¼ der
Ġdie jenigen
ĠK enny
ĠFreund es
Ġstr ategy
ĠDen ver
Ġ9 2
Ġbewe ist
Ġfold ed
ĠAnwesen heit
ĠVort rag
f olk
ĠD w
ĠB Ã¶r
Ġso eben
ra it
Ġnot hin
op ens
Ġcon text
Ġunter m
Ã¼t ige
ĠAus wahl
ient en
jor ie
ĠFuck ing
ĠRen te
ĠCont ents
ĠBil dern
Ġausprob ieren
m ill
ĠD ete
Ġdas h
sch ten
ĠEs k
app ing
AS S
Ġcirc uit
ĠEIN E
ĠTele vision
Ġgestr itten
Ġelectron ic
S ir
ou bt
Ġf ame
ere monie
ĠJ ock
ĠR inge
ĠR oten
ĠSt alin
Ġus er
Ġbl ond
ount ain
Ġread er
ĠRep ar
Ġmess y
Ġempf ehlen
sta aten
Ġangem essen
Ġimmen se
Ġimpr ison
ĠAis ne
p il
Ġb ind
Ġf en
al al
ĠK inn
Ġde prim
Ġ5 9
Ġ8 9
Ġres idents
ĠCon stance
Ġmo de
ĠGre ater
ĠHung ary
ĠCap it
Ġbeleid igen
ĠWik ipedia
Ġt raum
Ġn immer
ĠS W
ĠM ob
Ġv ine
ĠP ension
Ġhand y
Ġser geant
Ġspeak ers
mon key
ĠErst es
cel and
Ġlog s
Ġcart oon
Ġbless ing
Hen ry
Ġfict ional
g ift
r ous
ĠR i
ĠSt imm
amp oo
ĠNe v
Ġtalk in
bl ut
Ġ8 1
for men
ĠMet ropolitan
Ġut most
ĠUk rain
Ġmagn ets
Ġadvis ed
ĠDevelop ment
Ġc ateg
ĠBe ile
ĠRe v
ac us
Ġown s
ĠÃľber fall
ĠAd olf
Ġerw art
Ġkurz em
ĠfÃ¤hr ste
arr ondiss
Ġbemer kte
eg net
Ġconsequ ences
e z
Ġl ade
ĠK atherine
Ġr ides
ĠUn ten
ins ky
Ġvis ual
Ġanno ying
, -
C OU
ĠD ylan
ĠG ond
Ġan stellen
ul ed
kt ak
Ġwieder um
Ġfun ctions
ief ern
Ġkurz er
ĠTau ben
Ġsele ction
Ġtim ber
kÃ¶n ig
Ġphotograph s
Ġelev ator
n uss
ĠE ifers
ĠK end
Ġhe bt
ĠV II
ant om
ĠZ au
ĠGrand mother
Ġclass ic
ĠSE E
ĠFÃ¤ llen
ĠTok io
Ġfoc used
A ug
st art
ĠS org
ĠA gr
Ġp overty
Ã¤ lle
ĠL ina
Ġre he
ell es
Ġle ct
ĠMar l
Ġcr ib
Ġform ing
Ġverschw enden
ĠSchn abel
ĠRes erv
Ġschuld est
Ġtravel ed
ĠGreg ory
Ġwander ing
ĠVerdamm ter
Ġgekl Ã¤rt
ĠG OOD
ĠF erd
ĠR ound
be k
os ph
Ġab zusch
Ġbo ards
Ġgerade aus
Fr ance
Ġentsp richt
ĠErw achen
Ġsaus ages
ĠCe cil
Ġert Ã¶nt
Ġa pt
ĠW ade
ĠK ot
Ġer ror
ĠPh oe
ĠLad ung
ĠHandt uch
Ġconstit uen
B ig
Ġd ict
ur u
ĠR iley
ĠSch all
ra cted
ĠVer gewalt
Ġerst aunt
ĠBÃ¼ ch
Ġbede ckt
ieg elt
ĠGener ationen
bro ken
Ġexec uted
pick ing
Ġaufget aucht
p oo
ĠB usch
ĠB abe
ent wick
ĠP ommes
Ġst y
ĠO mar
ant i
Ġ7 9
Sch l
Ġfear ful
Ġlift s
yr ics
Ġach iev
hh h
Ġobserv ation
Ġemploy ment
d ist
j ud
Ġi v
Ġb ol
ein mal
ĠP and
ĠDie be
Ġsol ches
Ġ9 1
Ġsub sequ
ĠBall ett
ĠBrau n
ĠSchne cke
Ġbedroh liche
" --
p ose
w urst
ĠT es
ĠN utzen
ĠP ole
Ġre ins
Ġas sh
Ã¤n omen
ĠEl end
Ġdifferent ly
Ġverk lingt
Ġsuccess fully
ĠWolf gang
ĠBeat rice
Ġleaders hip
ĠNix on
ĠAra ber
Ġs way
Ġg rip
it scher
Ġc aps
ĠA cker
Ġsch Ã¤me
Ġden y
la pped
ĠTr Ã¤um
ĠAb machung
keit en
ĠWelt meister
ĠCar la
Ġacc ent
Ġinvest ment
Ġremark s
Ġgere chnet
ĠErk ennt
B o
h on
Ġs Ã¼ÃŁen
ĠM uff
ĠB ak
ĠN ennen
ĠN ature
ĠDe von
ĠSche ibe
Ġexc ess
ĠVers ehen
Ġfur ious
Ġrepresent ative
Ġentde ckte
ĠToil etten
Ġnick name
ĠViol et
ĠBalk on
Ġcomed ian
U K
h ums
k let
Ã¼ stern
ĠT ang
Ġv it
Ġv ort
au chen
ĠSch Ã¼ssel
ess ed
Ġcan vas
og nis
Ġstand ards
Ġs ar
Ġs her
Ġg ap
Ġf ain
Ġf lex
ĠH yd
Ġv ary
Ġan geln
Ġan treten
Ġj unk
Ġkn ot
ĠÃ¼ber sehen
ĠBr ill
ĠSh aron
ĠGu inea
ĠRo om
Ã¶p fer
ĠBu lle
ĠspÃ¼r t
Ġgrat itude
ĠNag el
3 00
Ã Į
Å «
Ġw undern
ĠD achte
ĠM P
ĠB la
ĠP ow
ĠZ oll
Ġcon serv
iff er
ĠGl anz
Ġinter ior
ĠRo xy
Ġsil ently
com une
ĠRau chen
ĠBauern hof
ĠEff ie
t is
om ie
Ġsch ooner
ap o
Ġde af
Ġbo iling
iert es
me al
ĠSonnen untergang
Ġlhr er
ĠElekt ro
Ġunterschied liche
Ġinstit ution
ĠErle b
A lex
M it
l ist
Ġa ster
ll i
Ġf Ã¤ngst
Ã¼r gen
ĠSch Ã¤tze
Ã¤n ken
ons in
Ġdro ht
ĠTre ten
Ġsuggest s
Not hing
apol is
ĠOnt ario
as a
is ely
Ġme ets
ri pp
ĠTÃ¼r ken
str ahl
gn ete
ring ton
Ġrub bed
ĠLaut sprecher
ĠFrise ur
K W
i ors
Ġl inger
Ġk ehren
ĠV ince
we ichen
Ġle itet
AN S
Ġgehe ime
ĠEd el
Ġpast a
ĠHen derson
Ġpen alty
Ġtyp ically
Ġach ieve
Ġhervor ragend
Ġexec ution
Ã¼mp fe
ĠUngar n
K erstin
b ub
k osten
u ana
Ġj ammer
ĠO ption
ĠSp er
ĠFl ip
ĠFl ora
Ġ11 0
Ġanf ing
Ġversuch ten
Ġmoder ne
Ġw aking
el ang
ĠG am
Ġzu gest
pr ima
ĠLu kas
Ġ192 2
Ġwein te
ĠPhilos ophie
ĠFollow ing
s ow
at scht
Ġo pfern
ĠA C
au ten
ĠR iv
ĠTe ch
bst er
ĠzurÃ¼ck geben
Ġho her
Ġherr schen
UF T
N S
Q U
Ġn aval
ĠW Ã¤hl
ĠM etz
ĠG inger
ĠK ehle
Ġzu gehÃ¶rt
ver kehr
ĠLe ader
Ġpr am
ru ppe
Ġschl imme
ĠChar me
ĠHerz lich
ĠStr ategie
Ġfuck in
Ġcro ps
ĠÃĸff ne
ĠZahn arzt
ĠSteven s
ĠFeier abend
Ġauftau chen
Ġswall ow
ĠPitts burgh
w olf
Ġs war
Ġw achte
ĠS ER
is ierte
ĠH un
Ġan legen
Ġun r
Ġab gew
ong o
ĠAuf machen
Ġverst Ã¤r
itz el
amer ikan
ĠCom ic
Ġmoon light
Ġmurder er
Ġamaz ement
Ġdebut ed
Ġencour aged
Ġtel esc
H m
ĠW unden
Ġc ot
ĠSch napp
Ġaus p
any a
ĠmÃ¶glich erweise
ĠSen ior
Ġ192 5
Ġcell ar
Ġsens es
Ġopport un
Ġprim arily
Ġintelle ct
W ER
b ter
d oll
st all
Ġl ung
ĠR ic
ver lÃ¤ss
ĠV III
Ġun re
pp elte
ort ing
rie bs
ip op
ĠMar se
ĠNur se
Ġvis its
ĠGem ahl
ĠMod el
ĠwÃ¼s sten
Ġgee ignet
Ġmaj est
A C
Ġl ungs
ig ern
ĠSch en
ab ad
ĠLe bew
ĠEin tritt
ĠEl ena
Ġph ase
ĠAd v
pro pos
ĠVerl ass
ĠCent ury
ĠZusammen hang
Ġdum men
ĠWÃ¤ lder
Ġcoin s
Ġerober n
ĠUrs ula
gespr Ã¤ch
Ġa frikan
Ġg or
ĠK Ã¼ss
ud em
aw k
ĠMon roe
ĠÃľber zeug
Ġwahr haft
Ġprodu cing
Ġsequ ence
Que en
8 7
s ister
Ġw etten
Ġb ucks
ĠP on
ĠP ir
Ġr ays
Ġer zogen
ain es
ĠIn zwischen
ĠUn geheuer
Ġ5 000
Ġcr ane
mo ans
Ġhistor ic
ĠRand all
Ġweak ness
Ġew ige
Ġmax imum
wes end
Ġbatht ub
a ben
Ġb ugs
ĠW IE
ĠM ache
ĠM ehl
ood les
Ġkl opf
ĠFr isch
ble me
ĠMc Donald
ĠRich ards
zieh ungs
ĠKath arina
ĠSÃ¤ ug
ĠBlÃ¶d mann
M C
Ġm omma
es y
qu artier
ĠÃ¼ber fl
ĠZeit ver
ĠSu z
ĠSpe ise
Ġung erecht
ĠMont real
ĠPie pen
ĠTog ether
f abrik
h umming
ĠW ent
ak o
Ã¼s ste
if iziert
Ġweg gelaufen
ĠBo hr
ĠBis her
UN D
ĠblÃ¶ der
Ġstir ring
Ġaston ished
Ġchrist mas
Ġlach st
Ġbund le
Ġconven ient
Ġdisgra ce
r ou
Ġw ages
Ġhe ars
Ġden se
Ġfr anch
Ġsp it
ĠMe istens
ĠIndian a
Ġdecl are
ĠSchne cken
Ġresult ed
Ġpet rol
ĠSpann ung
ĠArmen ian
ĠerwÃ¤ hnen
Ġnap kin
r ome
Ġt ents
Ġdo d
Ġgl ow
Ġann iversary
ĠStock holm
ĠBrad ley
Ġresc ued
Ġmagnet ic
ĠgnÃ¤d ige
fashion ed
A pp
H o
j agen
Ġbe le
ĠN ationen
Ã¼t zer
Ġshall ow
Ġpar ade
ĠHotel s
ĠPfl ichten
ĠBoot s
ĠGren z
ĠWieder hÃ¶ren
Ġlim bs
n ern
Ġs i
ar u
Ġf ielen
ĠT Ã¤t
am ents
ĠF asch
im an
ĠHe ar
Ġle cture
ĠRe ichen
Ġgeb issen
Ġ6 9
ĠKor an
Ġconqu ered
ĠMais ie
W ait
n te
Ġw are
Ġl akes
us a
ĠP ul
ĠC lose
... (
ĠAn rufe
Ġmehr mals
ĠNimm st
ĠEv an
ĠRos am
Ġzerst Ã¶r
Ġren amed
Ġheil ig
ĠFrem der
ĠBetr ug
Ã¼tte lt
Ġgewe ckt
Ġvergewalt igt
Ġobe yed
V or
r Ã¤ngt
t sch
ĠT Ã¼te
ĠR och
Ġhin fahren
alt ung
ix t
aw l
Ġ7 4
ĠHerz in
zeich nungen
isc onsin
urop a
Ġirgendein em
ĠVerÃ¤nder ungen
ĠbrÃ¤ uchte
P E
Ġt ug
Ġt rop
Ġthe oret
ĠW u
Ġo ption
is i
ĠG ay
ĠF indet
Ġden s
ĠY as
ĠUn verstÃ¤nd
Ġres umed
Ġswe ater
ĠAnn abel
ĠBeh inder
ĠCor ps
Ġinj uries
Ġangel ogen
ĠAsh ley
Ġh umming
Ġg it
ĠM ade
Ġp andem
eh er
Ġver legen
ers pr
ĠBe autiful
lo ve
Ġpe asant
do ing
ĠAb i
ĠSchl Ã¤ge
ĠLos er
Ġtre ibst
ĠÃľber wach
ĠMorgen s
Ġwahr er
ĠGew ehre
Ġpuzz les
Ġangel s
Ġgehor chen
ĠOsk ar
O ma
T ON
n ehm
Ġb ury
ĠD ory
is ationen
ed i
ĠA j
em ed
Ġdu mmer
ĠC OME
ĠHe iÃŁ
ink ing
Ġch oc
Ġste m
ĠNe ed
ĠKÃ¼ mm
ĠGlo bal
Ġdepart ed
ĠPun jab
Ġbacter ia
werf end
g ue
h te
l ater
o hne
Ġin visible
ĠK Ã¶l
Ġwe igh
ann els
Ġvon einander
ĠVer pfl
stell ungs
kl ass
ĠEl ite
cle ars
Ġheart y
Ġsign als
Ġpolit isch
Ġpress ing
ĠHall elu
ĠForm ula
ĠDien sten
ĠHÃ¤us chen
ĠChem ie
Ġcaut ion
Ġgeschw oren
Ġm ith
ĠW ake
ĠP AR
ĠR aff
ĠY a
Ġher oes
ri ka
ĠKr achen
Ġass embly
Ġswe eping
Ã¤u fe
ĠMehr heit
Ġ192 4
Ġresol ution
Ġlink ed
ĠS oo
us ions
ĠSt or
Ġsp iders
rau cht
Ġmar ble
Ġrel uct
Ġfight s
Ġhost ed
ĠRoll stuhl
ĠItalien er
vere ign
ĠKommun ikation
ĠFore ign
might y
I m
ĠI d
ĠL OOK
ĠP od
ĠP orter
Ġr amp
Ġab genommen
age i
iz ierte
Ġ6 2
Ġread ily
gu ess
Ġbomb ard
mein st
ĠGefe cht
ĠÃĦch zen
B AR
Ġc oco
om o
ag ern
ĠL t
ĠC old
Ġvers orgen
ĠLand ung
ĠMon a
Ġwom Ã¶glich
alen der
Ġdumm es
ĠKop ie
ĠShan ghai
agra ph
ive au
ĠGr uÃŁ
aut ion
Ġjung es
ĠBade wanne
Su per
ĠBeile id
M ail
an ad
te ste
ĠH Ã¤ltst
Ġbe wiesen
ĠL uck
ĠL aur
ĠL iga
ĠÃ¼ber tre
ĠUn fortunately
Ġnie ce
ĠNe ffe
amb a
ĠPal mer
Ġteil nehmen
walt ung
ĠFR OM
Ġratt ling
ĠBrid get
Ġunend lich
E ine
P R
R ed
o hnt
ĠD R
ĠW ag
ĠEin heiten
itte lt
ĠFl ash
oot er
Ġass igned
Ġrunter gefallen
Ġ192 3
Ġcollect ing
ĠProdu kte
ĠÃĸff nen
Ġethn ic
N IK
T Y
m ummie
in burgh
ĠT Ã¤nz
ut ing
Ġauf richtig
Ġzur zeit
Ġbet roffen
ĠFÃ¼r sten
ĠFor men
pf els
Ġhope fully
ĠMer cedes
ĠFle cken
ĠWil de
Ġverh indert
Ġschreck lichen
Ġsoul s
Ġschen ke
Ġsom it
ĠWood y
ĠNathan iel
I O
W ould
b b
in sen
Ġau str
Ġer setzt
if ten
sche ch
ĠDen ise
upp s
Ġdri vers
ĠTra ck
Ġtrad ing
spe aking
Ġdur ften
Ġheaven s
Ġbrit ische
ĠTrag Ã¶die
Ġacknow led
Ġanzur ufen
T ag
ĠE g
ro be
Ġaus geben
Ġfe ucht
Ġbef ol
Ġprodu ziert
Ġintrodu ction
ĠspÃ¼r te
Ġkont akt
ĠHaw k
Ġancest ors
ĠNiger ia
s achen
z ure
ĠW isconsin
ĠM eteor
Ġk reat
au ce
ĠJ ap
ĠHe er
Ġgen utzt
Ġgef Ã¼hl
Ġper mit
ĠGesch irr
Ġ6 3
tem per
Ġgemein samen
ĠSchm utz
ĠSat urn
wr iting
ĠUp on
ĠFeder ation
Ġwider lich
Ġpurch ase
h our
re iÃŁ
Ġc off
Ġp hen
Ġte ilt
Ġganz er
Ġsit z
Ġvers ammelt
ĠGeh Ã¶rt
Ġlieb es
ĠCal m
ĠSpan ier
ĠSol ar
schre ib
pent er
Ġsurge on
F O
r ings
Ġ Ã¤lt
ar den
ĠF isher
Ġmal t
ĠRe verend
Ġsw ords
ĠlÃ¤ uten
Ġfact ors
Ġattack ing
Ã¼hst Ã¼cken
Ġspell ing
kiss es
ĠKreat ur
ĠFortschr itte
ĠglÃ¼ck liche
Ã¶ck chen
o a
ĠT igger
Ġre ver
Ġj okes
Ġun b
Ġli ver
ĠMann y
Ġhel m
ĠVor hang
ĠBes atz
ĠMer ry
Ġham burger
ĠVe get
Ġmyth ology
Ġforg etting
Ġbom bs
ĠFif i
Ġagric ultural
M ary
ĠI so
Ġdo se
ĠSch uppen
OR N
ĠMar jorie
Ġins ult
gr uppen
ĠAb gesehen
for dern
ĠSchiff s
Ġquiet schen
ÃĦ TER
Ġschen kt
Ġoccup ation
ĠBenn ie
Ġprepar ations
bÃ¤r mlich
ĠÃ¼berprÃ¼ ft
ĠKna be
Ġstor age
ch ocolate
ĠB ureau
un es
rau ch
ĠÃ¼ber legte
fl Ã¼gel
ĠStr ick
Ġtri ps
ĠTre ffer
ĠMed a
Ġaufz ub
cr ash
quar ium
Ġpurs ued
ĠMi y
Ġfrequ ent
On ly
ĠCind erella
ĠVenezu ela
k ette
n amed
or ph
ĠH uck
ent um
ĠZ ehen
Ġde alt
ĠRe gie
Ġgel iefert
kl opfen
oun ge
Ġ# #
Ġart ific
ĠSel ena
Ġappear ing
Ġveget able
ĠHeb rew
O K
ie th
ĠD rew
ĠK ult
Ġcan al
ert on
Ġraus gehen
Ġread ers
gesch ichten
Ġatt orney
ĠauÃŁer gewÃ¶hn
RA C
Ġbesonder es
ĠlÃ¶ schen
Ġcigaret te
fir ma
Ġrand om
O ur
h abt
h alle
w hel
Ġd rain
Ġh arsh
re fers
il ight
Ġst unden
Ġpe ars
Ġfound ation
[...]
