{"[PAD]":0,"[UNK]":1,"[CLS]":2,"[SEP]":3,"[MASK]":4,"!":5,"\"":6,"#":7,"$":8,"%":9,"&":10,"'":11,"(":12,")":13,"*":14,"+":15,",":16,"-":17,".":18,"/":19,"0":20,"1":21,"2":22,"3":23,"4":24,"5":25,"6":26,"7":27,"8":28,"9":29,":":30,";":31,"<":32,"=":33,">":34,"?":35,"@":36,"A":37,"B":38,"C":39,"D":40,"E":41,"F":42,"G":43,"H":44,"I":45,"J":46,"K":47,"L":48,"M":49,"N":50,"O":51,"P":52,"Q":53,"R":54,"S":55,"T":56,"U":57,"V":58,"W":59,"X":60,"Y":61,"Z":62,"[":63,"\\":64,"]":65,"^":66,"_":67,"`":68,"a":69,"b":70,"c":71,"d":72,"e":73,"f":74,"g":75,"h":76,"i":77,"j":78,"k":79,"l":80,"m":81,"n":82,"o":83,"p":84,"q":85,"r":86,"s":87,"t":88,"u":89,"v":90,"w":91,"x":92,"y":93,"z":94,"{":95,"|":96,"}":97,"~":98,"¡":99,"¢":100,"£":101,"¤":102,"¥":103,"¦":104,"§":105,"¨":106,"©":107,"ª":108,"«":109,"¬":110,"®":111,"¯":112,"°":113,"±":114,"²":115,"³":116,"´":117,"µ":118,"¶":119,"·":120,"¸":121,"¹":122,"º":123,"»":124,"¼":125,"½":126,"¾":127,"¿":128,"À":129,"Á":130,"Â":131,"Ã":132,"Ä":133,"Å":134,"Æ":135,"Ç":136,"È":137,"É":138,"Ê":139,"Ë":140,"Ì":141,"Í":142,"Î":143,"Ï":144,"Ð":145,"Ñ":146,"Ò":147,"Ó":148,"Ô":149,"Õ":150,"Ö":151,"×":152,"Ø":153,"Ù":154,"Ú":155,"Û":156,"Ü":157,"Ý":158,"Þ":159,"ß":160,"à":161,"á":162,"â":163,"ã":164,"ä":165,"å":166,"æ":167,"ç":168,"è":169,"é":170,"ê":171,"ë":172,"ì":173,"í":174,"î":175,"ï":176,"ð":177,"ñ":178,"ò":179,"ó":180,"ô":181,"õ":182,"ö":183,"÷":184,"ø":185,"ù":186,"ú":187,"û":188,"ü":189,"ý":190,"þ":191,"ÿ":192,"Ā":193,"ā":194,"Ă":195,"ă":196,"Ą":197,"ą":198,"Ć":199,"ć":200,"Ĉ":201,"ĉ":202,"Ċ":203,"ċ":204,"Č":205,"č":206,"Ď":207,"ď":208,"Đ":209,"đ":210,"Ē":211,"ē":212,"Ĕ":213,"ĕ":214,"Ė":215,"ė":216,"Ę":217,"ę":218,"Ě":219,"ě":220,"Ĝ":221,"ĝ":222,"Ğ":223,"ğ":224,"Ġ":225,"ġ":226,"Ģ":227,"ģ":228,"Ĥ":229,"ĥ":230,"Ħ":231,"ħ":232,"Ĩ":233,"ĩ":234,"Ī":235,"ī":236,"Ĭ":237,"ĭ":238,"Į":239,"į":240,"İ":241,"ı":242,"Ĳ":243,"ĳ":244,"Ĵ":245,"ĵ":246,"Ķ":247,"ķ":248,"ĸ":249,"Ĺ":250,"ĺ":251,"Ļ":252,"ļ":253,"Ľ":254,"ľ":255,"Ŀ":256,"ŀ":257,"Ł":258,"ł":259,"Ń":260,"er":261,"en":262,"ch":263,"in":264,"Ġt":265,"Ġd":266,"Ġa":267,"Ġs":268,"Ġw":269,"Ġ.":270,"he":271,"Ġ*":272,"ie":273,"st":274,"Ġi":275,"an":276,"Ġm":277,"Ġh":278,"on":279,"as":280,"Ġb":281,"ou":282,"at":283,"Ġ,":284,"re":285,"ll":286,"Ġthe":287,"nd":288,"Ġg":289,"Ġn":290,"es":291,"ĠI":292,"ĠS":293,"ich":294,"ein":295,"it":296,"ar":297,"or":298,"Ġf":299,"ĠD":300,"ĠW":301,"ing":302,"Ġth":303,"Ġo":304,"is":305,"Ġl":306,"ir":307,"OT":308,"MOT":309,"CH":310,"Ġu":311,"ed":312,"Ġc":313,"et":314,"CHI":315,"ĠA":316,"Ġin":317,"ĠM":318,"Ġto":319,"om":320,"Ġp":321,"Ġy":322,"Ġk":323,"Ã¼":324,"al":325,"Ġ?":326,"te":327,"Ġyou":328,"Ġand":329,"ig":330,"ĠH":331,"ĠT":332,"le":333,"Ġv":334,"au":335,"Ġha":336,"ĠB":337,"icht":338,"Ġof":339,"Ġein":340,"ĠE":341,"el":342,"Ġ!":343,"ot":344,"ut":345,"Ã¤":346,"ck":347,"ere":348,"ow":349,"ĠG":350,"Ġdie":351,"Ġbe":352,"ur":353,"'s":354,"un":355,"am":356,"eh":357,"us":358,"Ġist":359,"Ġdas":360,"Ġz":361,"Ġnicht":362,"ĠIch":363,"ĠK":364,"id":365,"ach":366,"..":367,"ay":368,"ĠF":369,"Ġ\"":370,"ĠN":371,"Ġich":372,"Ġit":373,"Ġwas":374,"em":375,"ag":376,"ĠL":377,"Ġon":378,"ve":379,"Ã¶":380,"Ġhe":381,"se":382,"im":383,"and":384,"il":385,"ĠSie":386,"ber":387,"ent":388,"ĠP":389,"Ġdu":390,"Ġthat":391,"Ġe":392,"Ġwe":393,"Ġund":394,"ĠJ":395,"Ġwh":396,"ter":397,"ad":398,"ro":399,"Ġan":400,"Ġso":401,"ann":402,"ah":403,"Ġre":404,"Ġis":405,"Ġder":406,"Ġj":407,"oo":408,"ben":409,"ke":410,"ier":411,"Ġau":412,"ld":413,"ind":414,"ĠC":415,"um":416,"th":417,"ĠR":418,"Ġdo":419,"ion":420,"Ġr":421,"Ġer":422,"ic":423,"all":424,"ill":425,"Ġsch":426,"Ġst":427,"ht":428,"be":429,"ÃŁ":430,"sch":431,"AR":432,"ĠO":433,"'t":434,"Ġver":435,"Ġwir":436,"ten":437,"Ġes":438,"gen":439,"Ġden":440,"Ġzu":441,"ge":442,"Ã¼r":443,"ĠU":444,"ver":445,"Ġfor":446,"ĠV":447,"GE":448,"der":449,"LD":450,"TAR":451,"Ġun":452,"CHILD":453,"GET":454,"TARGET":455,"ist":456,"hr":457,"Ġall":458,"ER":459,"Ġ...":460,"omm":461,"ith":462,"Ġsie":463,"Ġse":464,"ĠSch":465,"sen":466,"AT":467,"lich":468,"ol":469,"hn":470,"ell":471,"eine":472,"Ġno":473,"ce":474,"ung":475,"IN":476,"out":477,"Ġauf":478,"Ġal":479,"Ġge":480,"ĠDas":481,"HER":482,"Ġwar":483,"enn":484,"ight":485,"Ġmit":486,"Ġwith":487,"Ġme":488,"ly":489,"INV":490,"de":491,"os":492,"ome":493,"ff":494,"ra":495,"Ġhat":496,"uch":497,"Ġas":498,"pp":499,"hat":500,"Ġ-":501,"Ġgo":502,"ĠY":503,"xx":504,"Ġ[":505,"ant":506,"ĠThe":507,"Ġwie":508,"ct":509,"Ġher":510,"Ġ'":511,"und":512,"ust":513,"Ġne":514,"ab":515,"Ġat":516,"den":517,"MOTHER":518,"Ġfr":519,"her":520,"ĠZ":521,"Ġmir":522,"Ġ(":523,"Ġda":524,"Ġnot":525,"Ġ1":526,"ould":527,"op":528,"oll":529,"Ġli":530,"ĠSt":531,"Ġim":532,"ĠEr":533,"we":534,"Ġhave":535,"ft":536,"etz":537,"Ġthis":538,"Ġkn":539,"chen":540,"Ġab":541,"ĠDu":542,"Ġmich":543,"ĠWas":544,"ĠHe":545,"ook":546,"Ġsp":547,"Ġare":548,"ast":549,"oh":550,"mer":551,"ĠDie":552,"Ġsh":553,"Ġeine":554,"Ã¶n":555,"Ġle":556,"Ġhis":557,"Ġman":558,"art":559,"ess":560,"ehr":561,"ehen":562,"rau":563,"ers":564,"Ġthey":565,"Ġvon":566,"ap":567,"Ġwill":568,"ĠfÃ¼r":569,"Ġsich":570,"Ġuns":571,"ul":572,"ĠUnd":573,"Ġone":574,"Ġdass":575,"ack":576,"ore":577,"ib":578,"Ġsind":579,"Ġknow":580,"iÃŁ":581,"ĠWir":582,"so":583,"ink":584,"ain":585,"ern":586,"Ġup":587,"Ġaus":588,"ren":589,"ĠEs":590,"Ġch":591,"ak":592,"eah":593,"Ġnoch":594,"Ġcan":595,"our":596,"Ġthere":597,"...":598,"Ġyour":599,"ort":600,"Ġdich":601,"Ġhad":602,"Ġhier":603,"ation":604,"ick":605,"Ġdon":606,"Ġshe":607,"Ġget":608,"Ġwhat":609,"Ġmein":610,"Ġauch":611,"end":612,"etzt":613,"est":614,"Ġmy":615,"Ġ2":616,"Ġhaben":617,"Ġsa":618,"iel":619,"ry":620,"ard":621,"Ġdem":622,"gh":623,"FAT":624,"ĠJa":625,"ĠLe":626,"ST":627,"Ġpl":628,"Ġwer":629,"acht":630,"ood":631,"ze":632,"Ġde":633,"Ġout":634,"hm":635,"Ġmal":636,"ass":637,"ang":638,"Ġkann":639,"Ġlike":640,"Ġhim":641,"ĠIt":642,"ĠTh":643,"ine":644,"ame":645,"qu":646,"ĠIn":647,"ake":648,"OR":649,"Ġdir":650,"rie":651,"Ġsein":652,"ri":653,"Ġor":654,"ĠWe":655,"Ġfrom":656,"'re":657,"fen":658,"ĠAn":659,"Ġ)":660,"Ġbut":661,"ure":662,"Ã¼ber":663,"Ġbin":664,"itt":665,"IG":666,"Ã¼ck":667,"Ġum":668,"one":669,"no":670,"Ġhabe":671,"EST":672,"lau":673,"ank":674,"ATOR":675,"Ġnur":676,"ESTIG":677,"ESTIGATOR":678,"INVESTIGATOR":679,"ik":680,"ound":681,"Ġmus":682,"Ġihr":683,"ong":684,"Ġeinen":685,"isch":686,"ute":687,"Ġgeh":688,"xxx":689,"Ġby":690,"Ġwere":691,"ĠSo":692,"are":693,"Ġsag":694,"cht":695,"ĠVer":696,"Ġvor":697,"ne":698,"own":699,"what":700,"ste":701,"Ġdid":702,"ĠYou":703,"fe":704,".\"":705,"Ġthem":706,"you":707,"Ġges":708,"'m":709,"kay":710,"ug":711,"Ġwor":712,"aus":713,"Ġihn":714,"Ġmach":715,"men":716,"od":717,"ĠAl":718,"ĠWie":719,"Ġkomm":720,"ĠAber":721,"Ġbr":722,"res":723,"Ġaber":724,"nt":725,"ally":726,"Ġja":727,"Ġgot":728,"Ġschon":729,"Ġsoll":730,"nen":731,"Ġsome":732,"ĠÃ¼ber":733,"uh":734,"Ġabout":735,"ive":736,"ep":737,"Ġgut":738,"ate":739,"age":740,"00":741,"Ġlook":742,"ert":743,"ĠBe":744,"Ġthink":745,"Ã¶r":746,"anz":747,"Ġdoch":748,"uck":749,"ĠEin":750,"'ll":751,"Ġex":752,"ĠGe":753,"Ġar":754,"Ġtr":755,"Ġcon":756,"ide":757,"wh":758,"Ġhere":759,"ause":760,"ĠOh":761,"Ġals":762,"Ġwant":763,"Ġsaid":764,"Ġnach":765,"lo":766,"ies":767,"wo":768,"Ġjust":769,"ater":770,"Ġjetzt":771,"ven":772,"ost":773,"ĠSp":774,"yeah":775,"Ġwird":776,"Ġpro":777,"].":778,"Ġhast":779,"Ġsee":780,"Ã¤t":781,"Ġwenn":782,"Ġwould":783,"was":784,"Ġam":785,"ĠUn":786,"ĠNein":787,"ade":788,"Ġdes":789,"ime":790,"kt":791,"ite":792,"ice":793,"ĠkÃ¶n":794,"Ġwho":795,"ĠAr":796,"Ġif":797,"ĠDer":798,"ough":799,"Ġus":800,"onn":801,",\"":802,"igen":803,"Ġ19":804,"lle":805,"ĠweiÃŁ":806,"Ġwhen":807,"other":808,"Ġdann":809,"Ġthen":810,"ien":811,"Ġany":812,"ous":813,"ĠSe":814,"to":815,"itte":816,"imm":817,"och":818,"ĠAnd":819,"ĠRe":820,"Ġnow":821,"Ġwoll":822,"ĠAu":823,"Ġmehr":824,"Ġbo":825,"Ġsay":826,"ire":827,"sel":828,"Ġright":829,"hing":830,"Ġwieder":831,"Ġcom":832,"Ã¼s":833,"ip":834,"ittle":835,"iv":836,"Ġbist":837,"ja":838,"Ġoder":839,"iss":840,"ĠCh":841,"ub":842,"Ġkl":843,"Ġgr":844,"ue":845,"elt":846,"ng":847,"Ġlie":848,"Ġhab":849,"Ġste":850,"that":851,"ia":852,"ĠFr":853,"ud":854,"ser":855,"Ġdown":856,"sp":857,"way":858,"Ġhas":859,"'ve":860,"Ġback":861,"Ġmeine":862,"Ġag":863,"Ġfe":864,"ĠBr":865,"ise":866,"Ġbeen":867,"Ġro":868,"ĠWh":869,"ild":870,"Ġlittle":871,"Ġzur":872,"che":873,"ob":874,"Ġput":875,"la":876,"ther":877,"Ġdar":878,"--":879,"Ġwerden":880,"Ġgoing":881,"ĠHer":882,"pt":883,"Ġoff":884,"ĠWar":885,"per":886,"Ġdein":887,"Ġmuss":888,"ity":889,"iert":890,"ibt":891,"ahr":892,"Ġtime":893,"ĠIhr":894,"ige":895,"if":896,"Ġet":897,"ĠWenn":898,"Ġcould":899,"mal":900,"Ġtheir":901,"ĠDa":902,"Ġmore":903,"Ġover":904,"Ġxxx":905,"hre":906,"ian":907,"ings":908,"br":909,"Ġkein":910,"me":911,"Ġdr":912,"Ġimmer":913,"Ġdenn":914,"Ġgood":915,"ommen":916,"Ġpe":917,"Ġbl":918,"Ġwhich":919,"ose":920,"esch":921,"ree":922,"schen":923,"agen":924,"ĠZe":925,"Ġqu":926,"ov":927,"Ġnie":928,"Ġtoo":929,"ĠMr":930,"Ġalles":931,"Ġvery":932,"iz":933,"the":934,"ght":935,"ww":936,"cause":937,"Ġgeht":938,"orn":939,"Ġbei":940,"ĠWhat":941,"lie":942,"og":943,"Ġgen":944,"ott":945,"ace":946,"assen":947,"inn":948,"ish":949,"ĠMar":950,"yes":951,"Ġent":952,"ĠFre":953,"urch":954,"alk":955,"hl":956,"Ġtwo":957,"Ġfind":958,"Ġnichts":959,"Ġkeine":960,"ord":961,"Ġ20":962,"ase":963,"Ġte":964,"Ġplay":965,"ĠWo":966,"zen":967,"Ġzum":968,"fter":969,"sten":970,"Ġalso":971,"urn":972,"ars":973,"ile":974,"Ġever":975,"Ġen":976,"ett":977,"rei":978,"reat":979,"Ġhin":980,"omet":981,"alt":982,"ĠMann":983,"Ġbet":984,"Ġeinem":985,"ac":986,"Ġmachen":987,"ĠFrau":988,"ger":989,"Ġother":990,"ange":991,"ĠKomm":992,"Ġetwas":993,"ĠÃ":994,"Ġcl":995,"ance":996,"Ġinto":997,"gt":998,"ys":999,"ĠwÃ¤":1000,"Ġcome":1001,"Ġganz":1002,"old":1003,"Ġviel":1004,"ĠBut":1005,"pl":1006,"iter":1007,"ople":1008,"Ġsehr":1009,"ond":1010,"irst":1011,"hnen":1012,"ieren":1013,"ought":1014,"ĠAll":1015,"hen":1016,"ĠNo":1017,"wer":1018,"Ġeiner":1019,"onna":1020,"roÃŁ":1021,"ĠGr":1022,"av":1023,"Ġagain":1024,"ĠShe":1025,"Ġalle":1026,"Ã¤nd":1027,"anke":1028,"Ġway":1029,"Ġgibt":1030,"sh":1031,"ĠMus":1032,"ĠmÃ¼s":1033,"ull":1034,"ans":1035,"ĠTe":1036,"Ġwo":1037,"ect":1038,"eren":1039,"issen":1040,"Ġhow":1041,"Ġwhere":1042,"ĠZeit":1043,"Ġhel":1044,"Ġihm":1045,"ĠPro":1046,"ount":1047,"ble":1048,"bt":1049,"Ġpeople":1050,"ĠkÃ¶nnen":1051,"amp":1052,"Ġvie":1053,"Ġmake":1054,"ĠNe":1055,"ĠwÃ¼r":1056,"Ġgonna":1057,"Ġwork":1058,"iff":1059,"ave":1060,"Ġsu":1061,"Ġbef":1062,"ahren":1063,"Ġgef":1064,"ark":1065,"?\"":1066,"Ġcall":1067,"my":1068,"bst":1069,"Ġbis":1070,"Ġdoes":1071,"Ġhand":1072,"gel":1073,"Ġwell":1074,"Ġday":1075,"ĠIst":1076,"ungen":1077,"do":1078,"Ġsomet":1079,"Ġlos":1080,"ary":1081,"Ġhatte":1082,"Ġwur":1083,"Ġfirst":1084,"ĠKind":1085,"Ġgew":1086,"ool":1087,"aff":1088,"ĠThey":1089,"Ġtake":1090,"ĠMen":1091,"Ġ3":1092,"land":1093,"les":1094,"agt":1095,"ock":1096,"ather":1097,"kommen":1098,"Ġtell":1099,"ĠYeah":1100,"ĠMan":1101,"Ġpr":1102,"ress":1103,"ster":1104,"Ġeuch":1105,"Ġglau":1106,"Ġpart":1107,"Ġsehen":1108,"ischen":1109,"ges":1110,"Ġafter":1111,"Ġsagen":1112,"okay":1113,"heit":1114,"Ġbrau":1115,"ment":1116,"ling":1117,"orgen":1118,"ove":1119,"Ġneed":1120,"lleicht":1121,"ken":1122,"uss":1123,"ial":1124,"ty":1125,"up":1126,"ĠLeben":1127,"tern":1128,"air":1129,"wn":1130,"Ġdurch":1131,"ph":1132,"ĠzurÃ¼ck":1133,"Ġpre":1134,"Ġsc":1135,"ĠDann":1136,"self":1137,"Ġthr":1138,"ely":1139,"ĠThat":1140,"ĠIhnen":1141,"ohl":1142,"man":1143,"Ã¤r":1144,"gend":1145,"Ġcar":1146,"Ġonly":1147,"test":1148,"ĠHey":1149,"get":1150,"ĠBl":1151,"ember":1152,"beit":1153,"ath":1154,"amm":1155,"Ġour":1156,"Ġtun":1157,"Ã¤n":1158,"Ġbeg":1159,"ĠmÃ¼ssen":1160,"Ġdies":1161,"ĠDe":1162,"ady":1163,"ĠAuf":1164,"Ã¼n":1165,"ĠFl":1166,"atch":1167,"aby":1168,"oin":1169,"achen":1170,"able":1171,"Ġye":1172,"ouse":1173,"Ġgehen":1174,"ner":1175,"Ġlet":1176,"ppen":1177,"leich":1178,"cc":1179,"ix":1180,"Ġshould":1181,"Ġevery":1182,"Ġzwe":1183,"Ġob":1184,"Ġunter":1185,"where":1186,"aft":1187,"ory":1188,"ichtig":1189,"ĠOr":1190,"FATHER":1191,"Ġwon":1192,"Ġdam":1193,"Ġad":1194,"Ġmuch":1195,"alten":1196,"Ġmade":1197,"ĠGut":1198,"irl":1199,"klich":1200,"ĠhÃ¤t":1201,"ors":1202,"ingen":1203,"als":1204,"ĠWer":1205,"Ã¶rt":1206,"ĠschÃ¶n":1207,"ĠNicht":1208,"ĠNa":1209,"ĠWarum":1210,"Ġdidn":1211,"ont":1212,"fach":1213,"ons":1214,"ated":1215,"Ġsuch":1216,"Ġkommt":1217,"Ġpass":1218,"ĠTr":1219,"ĠLie":1220,"erst":1221,"Ġthese":1222,"ĠMein":1223,"aut":1224,"Ġdis":1225,"off":1226,"Ġthan":1227,"fer":1228,"ĠgroÃŁ":1229,"there":1230,"Ġbest":1231,"ĠMusik":1232,"Ġfl":1233,"ict":1234,"uld":1235,"oc":1236,"Ġsm":1237,"Ġweg":1238,"du":1239,"pen":1240,"Ġbitte":1241,"ĠThis":1242,"Ġbig":1243,"Ġsomething":1244,"auf":1245,"ĠFreund":1246,"eld":1247,"ĠwÃ¼rde":1248,"thing":1249,"Ġgem":1250,"ĠDanke":1251,"Ġdeine":1252,"ĠmÃ¶":1253,"zu":1254,"orm":1255,"ama":1256,"Ġper":1257,"ĠHier":1258,"chte":1259,"Ġtra":1260,"Ġdiese":1261,"Ġlong":1262,"ĠKl":1263,"lt":1264,"ische":1265,"!\"":1266,"Ġreally":1267,"Ġgu":1268,"Ġjed":1269,"amil":1270,"Ġins":1271,"day":1272,"ions":1273,"ĠWell":1274,"Ġaway":1275,"utter":1276,"ĠHa":1277,"Ġger":1278,"anna":1279,"'d":1280,"dy":1281,"Ġverl":1282,"ÃŁen":1283,"Ġgar":1284,"Ġbefore":1285,"fl":1286,"Ġwent":1287,"ss":1288,"angen":1289,"Ã¤ch":1290,"Ġwurde":1291,"Ġbecause":1292,"ward":1293,"da":1294,"gr":1295,"hed":1296,"ody":1297,"Ġeinfach":1298,"ĠJo":1299,"pr":1300,"ĠOkay":1301,"Ġheute":1302,"ĠTag":1303,"right":1304,"Ġgesch":1305,"Ġgirl":1306,"Ġtalk":1307,"oot":1308,"Ġmean":1309,"red":1310,"igh":1311,"Ġbed":1312,"Ġsel":1313,"ign":1314,"ĠGott":1315,"ister":1316,"Ġrun":1317,"Ġrem":1318,"Ġold":1319,"Ġwerde":1320,"Ġson":1321,"ĠAlso":1322,"iver":1323,"Ġsec":1324,"isten":1325,"Ġend":1326,"Ġgl":1327,"aten":1328,"hne":1329,"ĠSte":1330,"EN":1331,"Ġwollte":1332,"ĠWill":1333,"ious":1334,"ting":1335,"ĠPr":1336,"ĠAb":1337,"zt":1338,"iÃŁt":1339,"akes":1340,"ried":1341,"Ġstill":1342,"ĠThere":1343,"ĠPl":1344,"oss":1345,"anc":1346,"Ġapp":1347,"ler":1348,"ail":1349,"eln":1350,"ts":1351,"ps":1352,"Ġcame":1353,"unden":1354,"ĠSh":1355,"ehmen":1356,"allo":1357,"ru":1358,"Ġbit":1359,"PAR":1360,"ful":1361,"look":1362,"bar":1363,"ĠHerr":1364,"Ġact":1365,"Ġble":1366,"Ġdoing":1367,"Ġbes":1368,"mm":1369,"www":1370,"aking":1371,"keit":1372,"ald":1373,"Ġspe":1374,"ĠkÃ¶nn":1375,"Ġnever":1376,"Ġask":1377,"Ġthought":1378,"mp":1379,"att":1380,"Ġkenn":1381,"ĠVater":1382,"Ã¼hr":1383,"Ã¶ren":1384,"Ġhome":1385,"Ġrep":1386,"Ġhead":1387,"xt":1388,"act":1389,"Ġthree":1390,"Ġ201":1391,"Ġweiter":1392,"ĠSchl":1393,"atz":1394,"ungs":1395,"Ġkommen":1396,"war":1397,"Ġmay":1398,"Ġokay":1399,"eing":1400,"ĠMit":1401,"Ġturn":1402,"Ġwr":1403,"Ã¤ng":1404,"ĠJetzt":1405,"Ġzwei":1406,"Ġihre":1407,"well":1408,"Ġwaren":1409,"Ġir":1410,"Ġmacht":1411,"Ã¤d":1412,"Ġthose":1413,"iden":1414,"Ġgesagt":1415,"Ġwirklich":1416,"ok":1417,"Ġthrough":1418,"iger":1419,"cl":1420,"stell":1421,"immt":1422,"uer":1423,"Ã¤hl":1424,"Ġmany":1425,"sche":1426,"Ġnew":1427,"ved":1428,"Ġwollen":1429,"ĠMe":1430,"ĠwÃ¤re":1431,"ĠEnt":1432,"Ġbook":1433,"Ġlang":1434,"Ġel":1435,"Ġstart":1436,"ĠGes":1437,"Ġthings":1438,"emand":1439,"Ġthing":1440,"Ġsit":1441,"AN":1442,"Ġbel":1443,"Ġcomp":1444,"Ġraus":1445,"Ġeven":1446,"Ġwanna":1447,"ĠIhre":1448,"Ġmust":1449,"eht":1450,"Ġgleich":1451,"Ã¼t":1452,"ving":1453,"Ġ4":1454,"ĠVor":1455,"Ġdamit":1456,"ĠVie":1457,"ĠMa":1458,"ents":1459,"Ġcont":1460,"bei":1461,"Ġke":1462,"ĠDo":1463,"Ġkannst":1464,"ete":1465,"Ġhouse":1466,"Ġwissen":1467,"ĠGl":1468,"das":1469,"ek":1470,"ĠYes":1471,"Ġ5":1472,"Ġanother":1473,"Ã¤hr":1474,"uf":1475,"ens":1476,"ahl":1477,"ates":1478,"ĠAus":1479,"Ġvers":1480,"oth":1481,"Ġcalled":1482,"bl":1483,"Ġcr":1484,"can":1485,"ammen":1486,"esser":1487,"nell":1488,"ĠMenschen":1489,"over":1490,"Ġeat":1491,"gst":1492,"Ġfound":1493,"ition":1494,"ĠMutter":1495,"lease":1496,"Ġgreat":1497,"Ġhelp":1498,"Ġweil":1499,"ult":1500,"Ġstr":1501,"Ġlast":1502,"ĠGen":1503,"Ġchild":1504,"aw":1505,"ait":1506,"Ġseine":1507,"but":1508,"oment":1509,"Ġcomm":1510,"The":1511,"Ġgive":1512,"Ġser":1513,"ied":1514,"ĠHallo":1515,"ĠWelt":1516,"ĠHow":1517,"Ġbring":1518,"Ġlau":1519,"ĠEine":1520,"Ġmov":1521,"Ġmeinen":1522,"laugh":1523,"die":1524,"Ġdone":1525,"bend":1526,"Ġboy":1527,"oy":1528,"Ġbu":1529,"here":1530,"come":1531,"ĠIs":1532,"igt":1533,"Ġwillst":1534,"liche":1535,"Ġklein":1536,"Ġhappen":1537,"ĠLeute":1538,"ha":1539,"ĠHaus":1540,"Ġmin":1541,"achte":1542,"ĠDr":1543,"io":1544,"ĠGesch":1545,"Ġmight":1546,"ale":1547,"Ġwohl":1548,"usammen":1549,"ĠKÃ¶n":1550,"let":1551,"amen":1552,"ump":1553,"Ġits":1554,"fall":1555,"ĠNach":1556,"Ġshow":1557,"ye":1558,"ins":1559,"Ġnight":1560,"schaft":1561,"Ġgel":1562,"ĠDad":1563,"mhm":1564,"ĠGeld":1565,"Ġdieser":1566,"Ġtry":1567,"ĠSche":1568,"ually":1569,"iend":1570,"ummy":1571,"Ġ200":1572,"ĠIm":1573,"ves":1574,"Ġname":1575,"ĠAmer":1576,"ĠhÃ¤tte":1577,"Ġdiff":1578,"now":1579,"Ġleid":1580,"ical":1581,"Ġfriend":1582,"Ġhal":1583,"Ġsl":1584,"ma":1585,"Ġlot":1586,"ĠSchw":1587,"outh":1588,"Ġbre":1589,"Ġaround":1590,"kl":1591,"ĠGer":1592,"ats":1593,"ĠKr":1594,"Ġmost":1595,"Ġown":1596,"Ġgemacht":1597,"ache":1598,"Ġkind":1599,"Ġcare":1600,"ĠBitte":1601,"pe":1602,"ike":1603,"Ã¼hl":1604,"ĠMal":1605,"Ġrein":1606,"ĠQ":1607,"ĠKinder":1608,"Ġanderen":1609,"ds":1610,".]":1611,"Ġrec":1612,"Ġret":1613,"Ġschl":1614,"Ġjemand":1615,"Ġbaby":1616,"oney":1617,"Ġverst":1618,"imes":1619,"Ġwen":1620,"erson":1621,"ope":1622,"ĠHast":1623,"els":1624,"Ġunsere":1625,"IS":1626,"Ġisn":1627,"ina":1628,"ĠEl":1629,"Ġerst":1630,"Ġwater":1631,"ane":1632,"fÃ¼r":1633,"Ġused":1634,"eter":1635,"its":1636,"Ġcount":1637,"ĠHand":1638,"Ġbeing":1639,"Ġfun":1640,"Ġbeh":1641,"Ġsicher":1642,"Ġglaube":1643,"ahre":1644,"ĠOn":1645,"Ġviele":1646,"Ġunser":1647,"ĠIf":1648,"ited":1649,"urt":1650,"Ġgenau":1651,"na":1652,"Ġem":1653,"ĠMeine":1654,"\".":1655,"ĠFe":1656,"Ġzusammen":1657,"ĠBer":1658,"huh":1659,"ms":1660,"Ġyears":1661,"body":1662,"Ġplace":1663,"Ġbetter":1664,"Ġfre":1665,"Ġmag":1666,"ĠAs":1667,"ĠJun":1668,"Ġopen":1669,"entlich":1670,"oren":1671,"itz":1672,"Ġmusst":1673,"rechen":1674,"ĠLos":1675,"uten":1676,"ĠAlles":1677,"schuld":1678,"atter":1679,"ĠMiss":1680,"Ġmother":1681,"Ġtre":1682,"Ġstand":1683,"ĠEng":1684,"zÃ¤hl":1685,"ucht":1686,"ĠÃľ":1687,"uft":1688,"ĠAt":1689,"ever":1690,"led":1691,"EX":1692,"ĠAch":1693,"under":1694,"ction":1695,"Ġselbst":1696,"Ã¶t":1697,"ident":1698,"ways":1699,"Ġfin":1700,"Ġkeinen":1701,"Ġpa":1702,"ief":1703,"Ġlassen":1704,"ĠLand":1705,"Ġgern":1706,"vor":1707,"Ġfeel":1708,"esen":1709,"immer":1710,"Ġgerade":1711,"ince":1712,"Ġpol":1713,"ĠChr":1714,"ient":1715,"ew":1716,"Ġirgend":1717,"ĠVielleicht":1718,"orry":1719,"ĠNacht":1720,"Ġwhile":1721,"tel":1722,"Ġgesehen":1723,"gs":1724,"nis":1725,"hst":1726,"llt":1727,"ander":1728,"Ġvom":1729,"Ġimp":1730,"Ġlife":1731,"Ġtut":1732,"Ġcour":1733,"Ġmen":1734,"Ġkeep":1735,"olle":1736,"ĠAut":1737,"Ġfar":1738,"ret":1739,"Ġear":1740,"fort":1741,"Ġsure":1742,"Ã¤s":1743,"ole":1744,"Ġspr":1745,"Ġandere":1746,"Ġfour":1747,"opf":1748,"Ġbesser":1749,"sam":1750,"Ġwhy":1751,"ipp":1752,"Ġsame":1753,"ee":1754,"ĠAm":1755,"nung":1756,"ations":1757,"AD":1758,"Ġelse":1759,"Ġfall":1760,"EXP":1761,"dem":1762,"Ġnein":1763,"ĠDen":1764,"ĠDon":1765,"tr":1766,"Ġsupp":1767,"ĠPol":1768,"Ġlooks":1769,"ĠMin":1770,"cken":1771,"Ġerm":1772,"ible":1773,"Ġele":1774,"Ġvielleicht":1775,"ĠMÃ¤d":1776,"this":1777,"ĠPap":1778,"Ġdrau":1779,"Ġgeb":1780,"Ġtot":1781,"ielen":1782,"Ġsagte":1783,"Ġlove":1784,"000":1785,"Ġunder":1786,"laughs":1787,"Ġlange":1788,"Ġanything":1789,"ize":1790,"Ġversch":1791,"ĠmÃ¶chte":1792,"Ġschool":1793,"ork":1794,"Ġdoesn":1795,"Ġ18":1796,"ĠÃĦ":1797,"Ġseem":1798,"orth":1799,"ĠGef":1800,"Ġroom":1801,"ĠUm":1802,"apt":1803,"Ġschnell":1804,"Ġdre":1805,"ĠDar":1806,"ĠgehÃ¶rt":1807,"BR":1808,"Ġsaw":1809,"Ġschw":1810,"ared":1811,"bo":1812,"Ġgest":1813,"Ġgegen":1814,"aum":1815,"umber":1816,"glich":1817,"Ġyeah":1818,"ider":1819,"Ġsagt":1820,"von":1821,"Ġuh":1822,"opp":1823,"Ġnice":1824,"Ġmeiner":1825,"Ġnext":1826,"Ġreg":1827,"zie":1828,"row":1829,"form":1830,"FF":1831,"they":1832,"Ġmon":1833,"Ġsing":1834,"iten":1835,"Ġleft":1836,"ĠMon":1837,"ĠSir":1838,"ahn":1839,"ĠMama":1840,"Ġbus":1841,"Ġtold":1842,"ĠFÃ¼r":1843,"cher":1844,"ball":1845,"ĠAls":1846,"dern":1847,"Ġverd":1848,"ĠkÃ¶nnte":1849,"ĠNur":1850,"anden":1851,"put":1852,"ower":1853,"ets":1854,"asst":1855,"atÃ¼r":1856,"oun":1857,"iben":1858,"Ġohne":1859,"ational":1860,"Ġkonn":1861,"ĠNew":1862,"ffen":1863,"Ġze":1864,"ican":1865,"Ġalways":1866,"ced":1867,"Ġ6":1868,"ĠJohn":1869,"ĠInd":1870,"reich":1871,"los":1872,"ĠSon":1873,"ĠScheiÃŁ":1874,"Ġcle":1875,"ĠAbend":1876,"ĠThen":1877,"she":1878,"ĠNot":1879,"atÃ¼rlich":1880,"ĠCar":1881,"ĠArbeit":1882,"Ġans":1883,"uÃŁ":1884,"Ã©":1885,"ĠFor":1886,"Ġfast":1887,"Ġche":1888,"Ġmeinem":1889,"til":1890,"\",":1891,"ders":1892,"Ġ#":1893,"hal":1894,"ĠWhen":1895,"leep":1896,"ces":1897,"Ġinter":1898,"komm":1899,"lock":1900,"uff":1901,"Ġcol":1902,"Ġwatch":1903,"adt":1904,"¿½":1905,"ï¿½":1906,"asse":1907,"Ġfather":1908,"geben":1909,"ĠLass":1910,"Ġdiesen":1911,"ton":1912,"unk":1913,"Ġwom":1914,"Ġzie":1915,"Ġsollte":1916,"aden":1917,"gest":1918,"ĠHause":1919,"Ġtook":1920,"Ġgre":1921,"aupt":1922,"Ġklar":1923,"Ġ_":1924,"ommy":1925,"ĠMrs":1926,"ĠAh":1927,"upp":1928,"aufen":1929,"ĠÃľber":1930,"vel":1931,"Ġuse":1932,"Ġexp":1933,"ĠMÃ¤dchen":1934,"anze":1935,"gar":1936,"Ġhold":1937,"Ġread":1938,"ĠPar":1939,"ross":1940,"ĠFamil":1941,"ows":1942,"eth":1943,"iet":1944,"Ġpoin":1945,"az":1946,"go":1947,"unde":1948,"raw":1949,"Ġsur":1950,"Ġint":1951,"Ġhol":1952,"Ġdiesem":1953,"ilm":1954,"ÃŁe":1955,"ny":1956,"ĠNow":1957,"Ġgone":1958,"ule":1959,"Ġtw":1960,"ĠPh":1961,"ĠEnd":1962,"iere":1963,"ift":1964,"blem":1965,"Ġkrie":1966,"Ġdoor":1967,"ta":1968,"inge":1969,"Ġreal":1970,"ily":1971,"ĠJahr":1972,"llen":1973,"Ġletz":1974,"ĠHar":1975,"Ġph":1976,"ished":1977,"lichen":1978,"of":1979,"ÃŁer":1980,"Ġdrei":1981,"Ġacc":1982,"geb":1983,"ĠweiÃŁt":1984,"Ġdort":1985,"ĠAngst":1986,"Ġthough":1987,"hes":1988,"ird":1989,"Ġdachte":1990,"Ġpassiert":1991,"ased":1992,"Ġwalk":1993,"TE":1994,"oup":1995,"Ġnear":1996,"ĠWhy":1997,"ĠUnter":1998,"Ġdire":1999,"ĠAugen":2000,"ilen":2001,"by":2002,"net":2003,"uchen":2004,"),":2005,"Ġbox":2006,"ĠJack":2007,"ĠKann":2008,"ĠWasser":2009,"ubl":2010,"orning":2011,"Ġnumber":2012,").":2013,"ĠTH":2014,"Ġenough":2015,"ĠEx":2016,"gesch":2017,"Ġmoney":2018,"Ġcoming":2019,"ĠMy":2020,"Ġihnen":2021,"ctor":2022,"Ġwait":2023,"Ġhard":2024,"Ġatt":2025,"ĠKeine":2026,"ĠChrist":2027,"ames":2028,"Ġsw":2029,"ĠWeg":2030,"app":2031,"Ġmar":2032,"ĠZu":2033,"Ġpres":2034,"Ġdieses":2035,"Ġsays":2036,"ĠCl":2037,"Ġhear":2038,"Ġside":2039,"ash":2040,"Ġeyes":2041,"Ġ7":2042,"Ġeinmal":2043,"ĠerzÃ¤hl":2044,"Ġreden":2045,"Ġgoes":2046,"Ġac":2047,"rÃ¼ck":2048,"auen":2049,"Ġoh":2050,"Ã¼nd":2051,"gal":2052,"ĠJahre":2053,"who":2054,"gether":2055,"ĠGeh":2056,"erent":2057,"vent":2058,"Ġwirst":2059,"Ġasked":2060,"ummer":2061,"Ġpaar":2062,"Ġuntil":2063,"ness":2064,"Ġbelie":2065,"Ġsieht":2066,"Ġrichtig":2067,"ĠMÃ¤n":2068,"Ġface":2069,"igkeit":2070,"ckt":2071,"ĠHÃ¶r":2072,"ines":2073,"ife":2074,"Ġ8":2075,"Ġres":2076,"Ġsk":2077,"ired":2078,"ĠBar":2079,"Ġ202":2080,"Ġneu":2081,"cle":2082,"ĠKar":2083,"ĠheiÃŁt":2084,"bab":2085,"Ġkill":2086,"wie":2087,"ĠQu":2088,"Ġrecht":2089,"umm":2090,"Ġsteht":2091,"Ġworld":2092,"MA":2093,"icks":2094,"Ġdist":2095,"Ġplease":2096,"ween":2097,"ennen":2098,"Ã¤um":2099,"Ġred":2100,"eder":2101,"Ã¼h":2102,"schl":2103,"Ġâ":2104,"Ġsmall":2105,"Ġball":2106,"tem":2107,"Ġerf":2108,"Ġmachst":2109,"Ġseen":2110,"Ġdeinen":2111,"uring":2112,"Ġquite":2113,"Ġdarf":2114,"Ġfive":2115,"Ġremember":2116,"Ġeines":2117,"Ã¤ter":2118,"piel":2119,"ĠBes":2120,"ilt":2121,"orge":2122,"Ġyoung":2123,"Ġpie":2124,"Ġmorning":2125,"Ġmil":2126,"ĠGlÃ¼ck":2127,"Ġdifferent":2128,"ures":2129,"ĠMorgen":2130,"Ġwahr":2131,"err":2132,"ĠJahren":2133,"ĠAd":2134,"Ġbere":2135,"mand":2136,"ichte":2137,"Ġknown":2138,"Ġsol":2139,"Ġmind":2140,"Ġdavon":2141,"Ġlooking":2142,"Ã¤us":2143,"ĠWor":2144,"anken":2145,"Ġsecond":2146,"ĠEur":2147,"Ġcourse":2148,"Ġgehe":2149,"ertig":2150,"Ġyear":2151,"ush":2152,"tend":2153,"Ġround":2154,"ĠMay":2155,"gef":2156,"zeit":2157,"Ġwel":2158,"son":2159,"Ġfinden":2160,"Ġlight":2161,"ĠTÃ¼r":2162,"Ġyes":2163,"Ġmorgen":2164,"Ġdog":2165,"zz":2166,"Ġfew":2167,"ĠMach":2168,"Ġtogether":2169,"ude":2170,"ollow":2171,"how":2172,"Ġfamil":2173,"Ã¤lt":2174,"Ġfell":2175,"gessen":2176,"ics":2177,"wischen":2178,"ĠBo":2179,"ĠCome":2180,"Ġnothing":2181,"wa":2182,"ĠSc":2183,"don":2184,"Ġco":2185,"ged":2186,"Ġbesch":2187,"Ġsei":2188,"Ġwind":2189,"urz":2190,"Ġ10":2191,"Ġhands":2192,"why":2193,"ular":2194,"Ġbro":2195,"Ġsound":2196,"olog":2197,"Ġweit":2198,"Ġboth":2199,"ason":2200,"isen":2201,"Ġnun":2202,"Ġeach":2203,"aps":2204,"Ġsollen":2205,"ement":2206,"Ġstay":2207,"ĠChar":2208,"ject":2209,"itten":2210,"Ġseit":2211,"ĠGeb":2212,"ĠEntschuld":2213,"Ġbetween":2214,"ating":2215,"Ġweek":2216,"str":2217,"igung":2218,"Ġ:":2219,"Ġonce":2220,"Ġvoll":2221,"ape":2222,"Ġgeben":2223,"Ġchildren":2224,"Ġganze":2225,"ober":2226,"Ġallein":2227,"Ġheard":2228,"Ġshall":2229,"EL":2230,"Ġsix":2231,"Ġliebe":2232,"Ġbleiben":2233,"Ġhelfen":2234,"ĠTo":2235,"Ġ199":2236,"inter":2237,"ĠRu":2238,"Ġsoon":2239,"Ġupon":2240,"Ã¤h":2241,"Ġchar":2242,"yp":2243,"Ġkam":2244,"Ġyet":2245,"nein":2246,"Ġfire":2247,"ĠLiebe":2248,"ĠLet":2249,"atur":2250,"ĠMoment":2251,"Ġarbeit":2252,"Ġsleep":2253,"Ġpo":2254,"ĠStadt":2255,"ries":2256,"mlich":2257,"ĠHil":2258,"richt":2259,"Ġhimself":2260,"Ġgetting":2261,"cy":2262,"pro":2263,"Ġcons":2264,"Ġkonnte":2265,"ĠIr":2266,"pf":2267,"af":2268,"Ġstud":2269,"aul":2270,"Ġbad":2271,"ĠSag":2272,"innen":2273,"Ġhalf":2274,"ĠCan":2275,"inger":2276,"Ġlar":2277,"annt":2278,"Ġexc":2279,"side":2280,"halten":2281,"Ġbec":2282,"Ġrest":2283,"ium":2284,"ON":2285,"igentlich":2286,"ĠGod":2287,"Ġschle":2288,"Ġmer":2289,"ĠKÃ¶nig":2290,"Ġwithout":2291,"halb":2292,"ouch":2293,"ĠBett":2294,"Ġlooked":2295,"ĠKopf":2296,"ĠdafÃ¼r":2297,"ants":2298,"ĠSohn":2299,"Ġdear":2300,"Ġeinz":2301,"ĠOder":2302,"ĠBen":2303,"Ġdec":2304,"Ġpar":2305,"ĠWieso":2306,"Ġwarum":2307,"Ġperson":2308,"Ġsy":2309,"ax":2310,"Ġ9":2311,"Ġtoday":2312,"Ġflo":2313,"Ã¤llt":2314,"fr":2315,"ĠFamilie":2316,"ĠDiese":2317,"Ġdri":2318,"inner":2319,"Ġtrain":2320,"mus":2321,"Ġben":2322,"Ġgek":2323,"SIS":2324,"hnung":2325,"nee":2326,"Ġleave":2327,"did":2328,"ĠNun":2329,"etzen":2330,"ĠThank":2331,"ĠFall":2332,"Ġpict":2333,"Ġhaft":2334,"Ġfoot":2335,"ters":2336,"Ġwanted":2337,"fte":2338,"icken":2339,"Ġhafta":2340,"ĠSpiel":2341,"Ġstar":2342,"illion":2343,"ppy":2344,"Ġverste":2345,"gan":2346,"vis":2347,"ivers":2348,"not":2349,"Ã¤ft":2350,"Ġhaving":2351,"most":2352,"Ġhappened":2353,"ĠBru":2354,"ĠJust":2355,"Ġfest":2356,"Ġbeim":2357,"ĠSchwe":2358,"ĠVers":2359,"affen":2360,"You":2361,"Ġdabei":2362,"ĠUnited":2363,"ual":2364,"gew":2365,"aptain":2366,"icher":2367,"aken":2368,"ingt":2369,"Ġlater":2370,"Ġpap":2371,"illy":2372,"min":2373,"guck":2374,"Ġhatten":2375,"any":2376,"Ġbisschen":2377,"Ġfollow":2378,"Ġseinen":2379,"Ġsort":2380,"ĠAmerican":2381,"arn":2382,"ĠJunge":2383,"Ġrel":2384,"GMA":2385,"osed":2386,"Ġhigh":2387,"gy":2388,"ĠPapa":2389,"ĠEnde":2390,"ĠFrauen":2391,"oon":2392,"Ġair":2393,"Ġknew":2394,"amer":2395,"ĠPe":2396,"ĠDoch":2397,"lose":2398,"part":2399,"asch":2400,"Ġide":2401,"ĠOrd":2402,"ĠTod":2403,"ĠBob":2404,"Ġtop":2405,"ES":2406,"Ġanim":2407,"Ġdau":2408,"Ġalong":2409,"Ġber":2410,"uth":2411,"Ġbrauchen":2412,"ĠGuten":2413,"eral":2414,"ĠMÃ¤nner":2415,"Ġpret":2416,"Ġcity":2417,"Ġsorry":2418,"Ġstory":2419,"ĠTom":2420,"Ġvo":2421,"ĠKrie":2422,"Ġhoch":2423,"Ġgab":2424,"ĠLu":2425,"Ġfro":2426,"Ġmiss":2427,"Ġwus":2428,"Ġnehmen":2429,"Ġland":2430,"ĠTut":2431,"Ġheart":2432,"Ġass":2433,"Ġmatter":2434,"ci":2435,"ĠAlle":2436,"ĠSchÃ¶n":2437,"Ġerw":2438,"rop":2439,"ĠHat":2440,"Ġhaven":2441,"rat":2442,"ĠMir":2443,"ĠFrank":2444,"ĠOk":2445,"Ġkennen":2446,"eten":2447,"ĠArt":2448,"Ġgenug":2449,"Ġ15":2450,"ette":2451,"Ġfertig":2452,"Ġsonst":2453,"gie":2454,"ream":2455,"ony":2456,"Ġswe":2457,"ertain":2458,"Ġhabt":2459,"ollen":2460,"Ġagainst":2461,"Ġleben":2462,"Ġtalking":2463,"ital":2464,"ĠWeil":2465,"aster":2466,"Ġstop":2467,"mann":2468,"Ġlive":2469,"ĠScheiÃŁe":2470,"ĠJu":2471,"omas":2472,"ĠChe":2473,"ĠGroÃŁ":2474,"lafen":2475,"stem":2476,"iam":2477,"Ġgave":2478,"Ġseid":2479,"cept":2480,"vol":2481,"ĠOrdnung":2482,"ready":2483,"Ġfahren":2484,"ese":2485,"Ġset":2486,"cted":2487,"ently":2488,"inken":2489,"cial":2490,"ehn":2491,"ĠMm":2492,"unt":2493,"ey":2494,"OU":2495,"Ġpop":2496,"Ġhinter":2497,"ĠBist":2498,"Ġdays":2499,"Ġhor":2500,"Ã¼nf":2501,"ĠHel":2502,"einen":2503,"Ġsollten":2504,"Ġrunter":2505,"ĠMich":2506,"Ġverk":2507,"see":2508,"Ġsub":2509,"Ġincl":2510,"oten":2511,"Ġschre":2512,"ither":2513,"Ġhour":2514,"raft":2515,"ĠHerz":2516,"erstand":2517,"for":2518,"Ã¤mp":2519,"iness":2520,"ield":2521,"rew":2522,"eint":2523,"ustr":2524,"reiben":2525,"very":2526,"ĠEd":2527,"Ġmaking":2528,"Ġdad":2529,"Ġready":2530,"inden":2531,"ĠHaben":2532,"ĠSam":2533,"ully":2534,"rab":2535,"Ġcent":2536,"gehen":2537,"uary":2538,"Ġpretty":2539,"ison":2540,"Ġboys":2541,"Ġdied":2542,"Ġwonder":2543,"lef":2544,"less":2545,"ages":2546,"legen":2547,"Oh":2548,"ĠHis":2549,"Ġreach":2550,"Ġwegen":2551,"Ġfamily":2552,"Ġeverything":2553,"Ġbir":2554,"Ġmoment":2555,"Ġform":2556,"arm":2557,"Ġeben":2558,"Ã¼b":2559,"chten":2560,"Ġwenig":2561,"Ġdisc":2562,"Ġbreak":2563,"fess":2564,"bracht":2565,"ĠStr":2566,"ammt":2567,"Ġjeden":2568,"Ġsah":2569,"ĠStra":2570,"Ġtri":2571,"Ġkleine":2572,"ĠBei":2573,"Ġanswer":2574,"Ġoben":2575,"Ġtable":2576,"Ġ198":2577,"ask":2578,"ĠAuto":2579,"wards":2580,"Ġadd":2581,"ĠWeiÃŁt":2582,"Ġeigen":2583,"Ã¶ff":2584,"erest":2585,"ĠWho":2586,"ĠZwe":2587,"ennt":2588,"ĠVon":2589,"Ġstarted":2590,"ĠDes":2591,"Ġeng":2592,"Ġessen":2593,"bur":2594,"aÃŁ":2595,"Ġsprechen":2596,"----":2597,"ĠUhr":2598,"elle":2599,"Ġkomme":2600,"Ġseiner":2601,"TEA":2602,"ager":2603,"ĠnÃ¤ch":2604,"ĠDaddy":2605,"Ġreturn":2606,"Ġlieber":2607,"Ġwasn":2608,"ĠHol":2609,"Ġsofort":2610,"aint":2611,"Ġdazu":2612,"Ġpick":2613,"Ġblack":2614,"Ġlaugh":2615,"ues":2616,"ĠBest":2617,"ĠBaby":2618,"ĠPer":2619,"Ġsaying":2620,"ktion":2621,"It":2622,"utz":2623,"Ġlov":2624,"Ġguck":2625,"Ġdel":2626,"Ġbelieve":2627,"iven":2628,"Ġander":2629,"ĠPart":2630,"Ġschwer":2631,"ica":2632,"Ġwhe":2633,"Ġtoll":2634,"Ġwhole":2635,"Ġdrink":2636,"Ġkr":2637,"ĠNie":2638,"enty":2639,"ĠOne":2640,"ley":2641,"Ġeigentlich":2642,"ĠTHE":2643,"Ġnoise":2644,"isst":2645,"gangen":2646,"Ġhund":2647,"ĠWhere":2648,"Ġborn":2649,"Ġbringen":2650,"ĠBis":2651,"Ġmache":2652,"ots":2653,"Ġfood":2654,"anger":2655,"Ġihren":2656,"utsch":2657,"ĠDank":2658,"ĠMummy":2659,"mmer":2660,"ara":2661,"ĠhÃ¶ren":2662,"Ġtown":2663,"ĠGew":2664,"Ġsince":2665,"Ġnor":2666,"ĠSee":2667,"ker":2668,"ĠHab":2669,"ives":2670,"ĠSpr":2671,"ĠHalt":2672,"lin":2673,"Ġbecame":2674,"Ġdrauf":2675,"ĠKein":2676,"Ġkid":2677,"ĠMad":2678,"ĠSy":2679,"Ġthank":2680,"lex":2681,"LA":2682,"ogen":2683,"ĠhÃ¶r":2684,"Ġsign":2685,"kel":2686,"Ġresp":2687,"ĠWillst":2688,"rain":2689,"bably":2690,"Ġstehen":2691,"Ġdeinem":2692,"ĠYork":2693,"unter":2694,"19":2695,"Ġcut":2696,"ator":2697,"hnt":2698,"Ġdeiner":2699,"ning":2700,"Ġdoll":2701,"ï¿½ï¿½":2702,"Ġwhite":2703,"Ã¶s":2704,"Ġbald":2705,"Ġje":2706,"Ġged":2707,"ĠBruder":2708,"Ġcountry":2709,"ĠReg":2710,"Ġdrin":2711,"Ġsir":2712,"ĠBÃ¼":2713,"Ġ12":2714,"bed":2715,"ĠNamen":2716,"GR":2717,"ĠKn":2718,"Ġbegan":2719,"ises":2720,"ĠSind":2721,"ĠEngl":2722,"ĠStates":2723,"ĠSu":2724,"Ġactually":2725,"Ġvergessen":2726,"Ġging":2727,"Ġten":2728,"ÉĻ":2729,"Âł":2730,"Ġsehe":2731,"ĠWest":2732,"cess":2733,"Ġtrying":2734,"Ġmet":2735,"ying":2736,"Ġchair":2737,"geh":2738,"llig":2739,"Ġgame":2740,"ĠCHI":2741,"ĠRed":2742,"ĠEuch":2743,"Ġmeet":2744,"ised":2745,"ĠgroÃŁe":2746,"Ġind":2747,"heim":2748,"ĠheiÃŁ":2749,"Ġhair":2750,"wort":2751,"Ġcomes":2752,"ille":2753,"Ġword":2754,"||":2755,"ih":2756,"Ġteam":2757,"ĠIde":2758,"Ġbrother":2759,"Ġsong":2760,"orrow":2761,"Ġeh":2762,"Ġ197":2763,"Ġfeet":2764,"Ġfloor":2765,"Ġliegt":2766,"ution":2767,"achten":2768,"ĠDam":2769,"ocal":2770,"Ġappe":2771,"Ġsent":2772,"ship":2773,"ĠAre":2774,"laub":2775,"Ġpoint":2776,"ĠspÃ¤ter":2777,"raum":2778,"ities":2779,"chmal":2780,"Ġflie":2781,"Ġquest":2782,"Ġgetan":2783,"Ġinterest":2784,"ĠGar":2785,"ĠHo":2786,"Ã¤sst":2787,"And":2788,"Ġkurz":2789,"Ġwurden":2790,"vers":2791,"Ġposs":2792,"ĠdaÃŁ":2793,"Ġalmost":2794,"ĠMensch":2795,"ĠlÃ¤":2796,"Ġwichtig":2797,"aught":2798,"Ġersch":2799,"stÃ¤nd":2800,"aur":2801,"Ġgute":2802,"ney":2803,"BRO":2804,"Ġunderstand":2805,"ĠProblem":2806,"Ġwouldn":2807,"ĠMÃ¶":2808,"oes":2809,"Ġdran":2810,"ĠKing":2811,"Ġverb":2812,"Ġart":2813,"ides":2814,"uhig":2815,"ĠJe":2816,"ĠMag":2817,"ĠAuch":2818,"ĠGood":2819,"Ġspielen":2820,"oke":2821,"ana":2822,"Ġwunder":2823,"ĠFreunde":2824,"ga":2825,"ĠFilm":2826,"Ġecht":2827,"ĠGib":2828,"Ġbrauche":2829,"ĠRom":2830,"Ġcur":2831,"Ġfur":2832,"Ã¤l":2833,"Ġhm":2834,"Ġprodu":2835,"Ġlik":2836,"ĠHilfe":2837,"Ġdenke":2838,"Ġster":2839,"weg":2840,"Ġwrong":2841,"ative":2842,"ĠMom":2843,"inz":2844,"ones":2845,"IT":2846,"Ġalready":2847,"Ġwoman":2848,"Ġtimes":2849,"Ġbek":2850,"Ġhoff":2851,"Ġetwa":2852,"ĠHi":2853,"Ġalt":2854,"Ġjob":2855,"use":2856,"ichen":2857,"ĠJan":2858,"Ġwarst":2859,"Ġeas":2860,"Ġvier":2861,"entr":2862,"Ġbuild":2863,"llo":2864,"ahlen":2865,"ĠKat":2866,"amed":2867,"Ġfriends":2868,"ĠLook":2869,"Ġfact":2870,"Ġsqu":2871,"âĮ":2872,"Ġlead":2873,"UN":2874,"Ġduring":2875,"dr":2876,"ĠThomas":2877,"wir":2878,"Ġbede":2879,"rÃ¼ckt":2880,"Ġbehind":2881,"Ġplayed":2882,"Ġpull":2883,"Ġblue":2884,"ches":2885,"Ġplaying":2886,"ĠX":2887,"UR":2888,"orden":2889,"Ġbeide":2890,"ĠZimmer":2891,"Ġpay":2892,"Ġexpl":2893,"Ġlost":2894,"lied":2895,"ĠRight":2896,"ĠCom":2897,"Ġfort":2898,"Ġ30":2899,"will":2900,"wegen":2901,"cks":2902,"ĠDein":2903,"Ġran":2904,"Ġminute":2905,"Ġwusste":2906,"imp":2907,"Ġ17":2908,"Ġdaran":2909,"Ġev":2910,"zeug":2911,"Ġjeder":2912,"oud":2913,"une":2914,"ĠGo":2915,"Ġhalten":2916,"ence":2917,"ING":2918,"Ġoft":2919,"ards":2920,"leid":2921,"Ġru":2922,"allen":2923,"ĠOK":2924,"olk":2925,"ochter":2926,"Ġcup":2927,"ĠNoch":2928,"Ġclose":2929,"ernen":2930,"ĠPat":2931,"Ġfront":2932,"ai":2933,"ĠnÃ¤":2934,"ielt":2935,"ĠWel":2936,"Ġersten":2937,"Ġ~":2938,"Ġganzen":2939,"Ġfal":2940,"ĠKon":2941,"Ġneue":2942,"Ġvis":2943,"Ġidea":2944,"read":2945,"essen":2946,"Ġpicture":2947,"Ġfull":2948,"ĠAfter":2949,"fin":2950,"Ġable":2951,"ĠSehr":2952,"Ġed":2953,"gl":2954,"Ġpaper":2955,"good":2956,"Ġbez":2957,"Ġseinem":2958,"isk":2959,"mit":2960,"gn":2961,"chst":2962,"hol":2963,"Ġcontin":2964,"ichten":2965,"auer":2966,"sy":2967,"cke":2968,"Ġgirls":2969,"Ġanders":2970,"ĠDies":2971,"Ġmove":2972,"di":2973,"ĠDid":2974,"Ġsn":2975,"Ġverm":2976,"ĠMil":2977,"Ġhundred":2978,"tre":2979,"fri":2980,"erv":2981,"Ġbrought":2982,"ided":2983,"fÃ¼hr":2984,"just":2985,"ehl":2986,"schein":2987,"Ġeins":2988,"ĠSoll":2989,"Ġmember":2990,"ellow":2991,"Ġorder":2992,"airs":2993,"nehmen":2994,"Ġgerne":2995,"Ġguess":2996,"Ġturned":2997,"Ġsat":2998,"Ġma":2999,"ĠGanz":3000,"ĠGeschichte":3001,"more":3002,"nst":3003,"Ãł":3004,"haupt":3005,"Ġple":3006,"olly":3007,"ĠSel":3008,"Ġmed":3009,"Ġwarten":3010,"ĠwÃ¤r":3011,"utes":3012,"LO":3013,"ĠCol":3014,"ĠGrund":3015,"Ġprobably":3016,"akt":3017,"Ġmakes":3018,"Ġmeans":3019,"Ġbraucht":3020,"Ġhappy":3021,"Ġgreen":3022,"hy":3023,"ĠhÃ¶":3024,"got":3025,"ĠRuhe":3026,"ĠHund":3027,"pped":3028,"arch":3029,"Ġseemed":3030,"ĠnatÃ¼rlich":3031,"itting":3032,"Ġgotta":3033,"Ġ196":3034,"einander":3035,"ered":3036,"Ġcertain":3037,"ene":3038,"Ġzwischen":3039,"Ġsage":3040,"mals":3041,"ĠdÃ¼r":3042,"Ġgefunden":3043,"Ġoften":3044,"ĠTochter":3045,"stand":3046,"otz":3047,"Ġquick":3048,"AL":3049,"apan":3050,"Ġvorbei":3051,"Ġmusic":3052,"ktor":3053,"Ġdead":3054,"Ġstuff":3055,"teil":3056,"urs":3057,"ĠBuch":3058,"Ġhum":3059,"ĠHÃ¶":3060,"spr":3061,"Ġparty":3062,"Ġprom":3063,"Ġniemand":3064,"Ġpolit":3065,"ĠCon":3066,"ĠgrÃ¶":3067,"ĠLau":3068,"ĠLeo":3069,"Ġkleinen":3070,"ĠSome":3071,"osition":3072,"bs":3073,"ĠHoch":3074,"ĠGet":3075,"Ġsogar":3076,"ĠVerd":3077,"Ġcolor":3078,"Ġmonth":3079,"Ġoffic":3080,"Ġdro":3081,"Ġsondern":3082,"stellen":3083,"iges":3084,"ĠÂ":3085,"ific":3086,"ester":3087,"Ġfine":3088,"ĠNatÃ¼rlich":3089,"Ã¼cklich":3090,"Ġimport":3091,"Ġmouth":3092,"dle":3093,"riv":3094,"ĠUr":3095,"ischer":3096,"ĠdarÃ¼ber":3097,"ĠSache":3098,"What":3099,"ĠRecht":3100,"ĠFeuer":3101,"iful":3102,"ized":3103,"Ġdraw":3104,"ĠFahr":3105,"OTHER":3106,"Ġcat":3107,"ĠTre":3108,"haps":3109,"ĠPhil":3110,"ured":3111,"ĠMacht":3112,"Ġdarauf":3113,"ĠUns":3114,"immen":3115,"aces":3116,"itÃ¤t":3117,"ouble":3118,"ains":3119,"Ġhope":3120,"ĠDinge":3121,"ĠWarte":3122,"weise":3123,"ĠGenau":3124,"ract":3125,"ained":3126,"room":3127,"ists":3128,"ziehen":3129,"head":3130,"Ġverloren":3131,"Ġdeath":3132,"ĠfÃ¼hr":3133,"Ġcompl":3134,"Ġoutside":3135,"ĠGute":3136,"Ġbevor":3137,"ĠCaptain":3138,"ĠBle":3139,"rieben":3140,"hey":3141,"hin":3142,"because":3143,"We":3144,"Ġmovie":3145,"ĠfÃ¼nf":3146,"Ġdanke":3147,"Ġhuh":3148,"Ġlisten":3149,"ĠGed":3150,"Ġtaken":3151,"Ġrum":3152,"ĠEssen":3153,"MCH":3154,"Ġpoor":3155,"Ġaren":3156,"Ġvoice":3157,"chn":3158,"vern":3159,"ĠKommt":3160,"ĠMinuten":3161,"Ġbear":3162,"Ġfight":3163,"ĠTage":3164,"ĠSk":3165,"ĠWort":3166,"Ġfore":3167,"Well":3168,"like":3169,"riff":3170,"Ġglauben":3171,"Ġabs":3172,"ĠNichts":3173,"Ġbott":3174,"ĠDor":3175,"Ġeff":3176,"utt":3177,"Ġ16":3178,"Ġsun":3179,"hi":3180,"Ġstre":3181,"rying":3182,"Ġter":3183,"Ġones":3184,"ogra":3185,"ĠAnt":3186,"Ġcook":3187,"ĠWahr":3188,"Ġneh":3189,"band":3190,"Ġarm":3191,"ĠfÃ¼hl":3192,"ĠKer":3193,"Ġinc":3194,"machen":3195,"Ġwants":3196,"fol":3197,"ĠSchon":3198,"ĠSÃ¼":3199,"Ġverschw":3200,"Ġshort":3201,"ĠspÃ¤t":3202,"Ġcover":3203,"utet":3204,"Ġerinn":3205,"ĠPfer":3206,"Ġstimmt":3207,"ĠWissen":3208,"ury":3209,"ĠSchatz":3210,"Ġcouldn":3211,"ĠSicher":3212,"irat":3213,"ND":3214,"Ġwords":3215,"ĠGerman":3216,"ittel":3217,"ĠDan":3218,"Ġyourself":3219,"ampf":3220,"Ġpiece":3221,"fallen":3222,"Ã¼her":3223,"Ġperfe":3224,"lefon":3225,"ĠEn":3226,"oe":3227,"BROTHER":3228,"zug":3229,"Ġgra":3230,"ĠName":3231,"unch":3232,"Ġbekommen":3233,"ellen":3234,"Ġkom":3235,"ĠPre":3236,"fully":3237,"ieden":3238,"RE":3239,"ĠWith":3240,"Ġschlecht":3241,"ĠSchule":3242,"ende":3243,"sehen":3244,"auber":3245,"Ġlass":3246,"Ġserv":3247,"stag":3248,"ĠDre":3249,"ka":3250,"etter":3251,"ĠEltern":3252,"Ġsiehst":3253,"Ġmusste":3254,"Ġlearn":3255,"ĠJungs":3256,"ĠGold":3257,"chs":3258,"ĠGesicht":3259,"ĠPf":3260,"thank":3261,"Ġaw":3262,"Ġfair":3263,"ĠDeine":3264,"autiful":3265,"Ġgewesen":3266,"Ġgekommen":3267,"aber":3268,"ĠHÃ¤nd":3269,"trau":3270,"ĠwÃ¼rden":3271,"NAN":3272,"Ġlarge":3273,"haft":3274,"Ġline":3275,"selves":3276,"kun":3277,"ately":3278,"ĠOb":3279,"ickt":3280,"ĠMed":3281,"artet":3282,"auft":3283,"Ġunten":3284,"ĠDass":3285,"ĠMark":3286,"Ġfinde":3287,"Ġarbeiten":3288,"Ġspeak":3289,"ĠJul":3290,"ĠPeter":3291,"thers":3292,"ernt":3293,"oche":3294,"ĠDenn":3295,"Ġdenken":3296,"Ġverstehe":3297,"Ġeight":3298,"Ġkenne":3299,"rief":3300,"ĠJapan":3301,"Ġtaking":3302,"Ġdress":3303,"Ġallem":3304,"Ġmyself":3305,"Ġfelt":3306,"scht":3307,"Ġless":3308,"yn":3309,"ĠRep":3310,"Ġwife":3311,"ĠkÃ¶nnten":3312,"ĠSeite":3313,"Ġtele":3314,"ĠgroÃŁen":3315,"Ġrather":3316,"ention":3317,"ĠMot":3318,"ience":3319,"Ġsterben":3320,"ĠLuft":3321,"veral":3322,"ĠJoe":3323,"ĠIdee":3324,"Ġbusiness":3325,"ĠHeute":3326,"Ġtouch":3327,"kst":3328,"Ġsuper":3329,"Ġroad":3330,"Ġmaybe":3331,"gem":3332,"Ġinside":3333,"ĠSieh":3334,"ĠÃ¼berhaupt":3335,"ism":3336,"Ġverw":3337,"ĠPlatz":3338,"sk":3339,"ĠTeil":3340,"Ġla":3341,"Ġminutes":3342,"Ġmid":3343,"Ġbeiden":3344,"Mummy":3345,"ĠYour":3346,"Ġihrer":3347,"ĠArsch":3348,"Ġmark":3349,"bye":3350,"ĠMaj":3351,"idge":3352,"Ġtill":3353,"nah":3354,"Ġhorse":3355,"Ġgrand":3356,"ĠLieb":3357,"ĠUnivers":3358,"ians":3359,"rib":3360,"ĠMax":3361,"Th":3362,"ĠBau":3363,"ĠGeht":3364,"Ġbereit":3365,"Ġblo":3366,"Ã¤ren":3367,"DS":3368,"Ġtree":3369,"ĠMc":3370,"Ġheraus":3371,"Ã¤nger":3372,"Ġmine":3373,"Ġinteress":3374,"Ġpower":3375,"ĠGu":3376,"Ġhung":3377,"teen":3378,"Ġruhig":3379,"ĠSal":3380,"ĠDieser":3381,"uppe":3382,"co":3383,"Ġhot":3384,"Ġdenen":3385,"itch":3386,"ĠMart":3387,"ĠKommen":3388,"But":3389,"Ġref":3390,"Ġstate":3391,"ĠtÃ¶":3392,"Ġchang":3393,"ĠBrit":3394,"urm":3395,"ĠBef":3396,"Ġbag":3397,"ĠSchwester":3398,"rench":3399,"Ġgiven":3400,"org":3401,"Ġship":3402,"Ġegal":3403,"geln":3404,"Ġpubl":3405,"schw":3406,"tet":3407,"zlich":3408,"ĠWirklich":3409,"Ġcold":3410,"laim":3411,"Ġbody":3412,"Ġ14":3413,"ĠPolize":3414,"ĠKir":3415,"ĠGrand":3416,"Ġpresent":3417,"ĠverrÃ¼ckt":3418,"inc":3419,"Ġinclud":3420,"ĠPres":3421,"vie":3422,"Ġcir":3423,"ĠLebens":3424,"Ġange":3425,"IE":3426,"born":3427,"ĠPaul":3428,"Ġage":3429,"vo":3430,"Ġallen":3431,"olf":3432,"Ġteach":3433,"Ġinst":3434,"key":3435,"lassen":3436,"ĠlÃ¤sst":3437,"ispiel":3438,"Ġpat":3439,"Ġcase":3440,"Ġoffen":3441,"ĠMOT":3442,"Yes":3443,"ĠEinen":3444,"ĠWochen":3445,"Ġocc":3446,"Ġbestimmt":3447,"haus":3448,"Ġbirth":3449,"ĠglÃ¼cklich":3450,"Ġlady":3451,"ierte":3452,"ĠUS":3453,"ĠSchiff":3454,"Ġmo":3455,"ĠGre":3456,"Ġletzten":3457,"ric":3458,"II":3459,"Ġcool":3460,"vid":3461,"Ġant":3462,"lieÃŁ":3463,"TER":3464,"Ġlate":3465,"ĠWei":3466,"affe":3467,"ĠPlan":3468,"Ġschlafen":3469,"Ġerste":3470,"Ġago":3471,"Ġguy":3472,"ĠhÃ¤tten":3473,"ĠSpaÃŁ":3474,"par":3475,"Ġgovern":3476,"ĠlÃ¤uft":3477,"Ġothers":3478,"Ġchange":3479,"ĠZum":3480,"Ġsow":3481,"ĠKrieg":3482,"Ġstick":3483,"Ġground":3484,"Ġhurt":3485,"Ġlad":3486,"Ġbeautiful":3487,"ĠdrauÃŁen":3488,"Ġplan":3489,"Ġnorth":3490,"Ġbar":3491,"Ġimportant":3492,"Ġfree":3493,"ĠHere":3494,"stellt":3495,"Ġpage":3496,"Ġdark":3497,"ature":3498,"Ġaller":3499,"Ġeither":3500,"ĠFot":3501,"Ġalone":3502,"Ġtoys":3503,"Ġclass":3504,"Ã¼mmer":3505,"Ġanderes":3506,"iving":3507,"Ġfrei":3508,"Ġkommst":3509,"shall":3510,"ĠJob":3511,"iously":3512,"SI":3513,"ĠStÃ¼ck":3514,"ĠVerst":3515,"ĠGehen":3516,"ĠEm":3517,"ADU":3518,"No":3519,"Ġ11":3520,"ino":3521,"Ġpast":3522,"achsen":3523,"Ġbleibt":3524,"ĠEnglish":3525,"Ġendlich":3526,"Ã¤cht":3527,"ĠStre":3528,"Ġstrong":3529,"bringen":3530,"ierung":3531,"Ġwear":3532,"ais":3533,"Ġ195":3534,"ĠPass":3535,"ĠSpe":3536,"ĠSachen":3537,"Ġseven":3538,"Ġboat":3539,"ĠHimm":3540,"Ġnormal":3541,"ĠGlau":3542,"ĠRo":3543,"entle":3544,"hren":3545,"Ġunserer":3546,"Ġ194":3547,"then":3548,"ances":3549,"Ġcreat":3550,"ĠCount":3551,"ĠRÃ¼ck":3552,"Ġacross":3553,"ĠFlug":3554,"Ġtrue":3555,"owing":3556,"ĠGeorge":3557,"Ġerkl":3558,"ĠwÃ¼n":3559,"usch":3560,"Ġverstehen":3561,"DAD":3562,"arbeit":3563,"licher":3564,"Ġearly":3565,"Ġclear":3566,"Ġmain":3567,"Ġaff":3568,"ĠFrance":3569,"ĠerzÃ¤hlt":3570,"Ġsweet":3571,"Ġinde":3572,"Ġsomeone":3573,"Ġsometimes":3574,"ĠKe":3575,"igin":3576,"Ġrecord":3577,"iting":3578,"Ġfunny":3579,"Ġzeigen":3580,"Ġleg":3581,"ĠAhnung":3582,"Uh":3583,"ron":3584,"Ġhur":3585,"ĠWind":3586,"rochen":3587,"leben":3588,"ondon":3589,"ĠRicht":3590,"kommt":3591,"Ã¶l":3592,"Ġleast":3593,"ĠEngland":3594,"ĠHen":3595,"Ġkap":3596,"ional":3597,"Ġleav":3598,"ĠAug":3599,"Ġna":3600,"Ġarea":3601,"Yeah":3602,"Ġletzte":3603,"Ġlay":3604,"Ġseveral":3605,"Ġlieb":3606,"Ġfav":3607,"afft":3608,"Ġjoin":3609,"ĠDem":3610,"Ġgroup":3611,"Ġanimals":3612,"Ġsil":3613,"ĠÃĸ":3614,"Ġhole":3615,"Ġwarm":3616,"ĠWoche":3617,"Ġcap":3618,"ĠSouth":3619,"ĠÃ¤":3620,"Ġmilk":3621,"ĠNor":3622,"Ġtrau":3623,"ĠSeit":3624,"Ġsuchen":3625,"ĠfÃ¤hr":3626,"Ã¼hle":3627,"anzen":3628,"ĠZug":3629,"Ġgets":3630,"erin":3631,"Ġpur":3632,"Ġwollten":3633,"Ġcried":3634,"ael":3635,"ĠKre":3636,"Ġcra":3637,"istory":3638,"Ġgold":3639,"je":3640,"ĠZie":3641,"ĠItal":3642,"Ġtwenty":3643,"ops":3644,"Ġsug":3645,"Ġprop":3646,"ept":3647,"ĠSchn":3648,"abel":3649,"Ġbew":3650,"Ġleicht":3651,"uren":3652,"ĠFar":3653,"ĠSuper":3654,"ĠNorth":3655,"Ġtom":3656,"kunft":3657,"ĠBed":3658,"bert":3659,"uen":3660,"Ġ100":3661,"ĠmÃ¶glich":3662,"ĠBy":3663,"Ġaf":3664,"Ġ{":3665,"Ġ13":3666,"Ġcamp":3667,"ĠFrage":3668,"Ġwish":3669,"ĠLondon":3670,"ams":3671,"Ã¤ndern":3672,"legt":3673,"ĠWÃ¼r":3674,"MAR":3675,"que":3676,"ĠOrt":3677,"ATE":3678,"Ġerk":3679,"umb":3680,"Ġworking":3681,"ĠSchr":3682,"Ġsister":3683,"Ã¼gen":3684,"Ġfragen":3685,"ĠhÃ¤lt":3686,"itter":3687,"hier":3688,"voll":3689,"halt":3690,"Ġbra":3691,"ĠRuss":3692,"Ġconf":3693,"That":3694,"Ġnett":3695,"Ġverlassen":3696,"Ġfuck":3697,"ĠRob":3698,"wohl":3699,"ĠPrinz":3700,"Ġfish":3701,"Ġgeworden":3702,"rieden":3703,"Ġlaw":3704,"Ġversp":3705,"Ġquestion":3706,"Ã¶rper":3707,"ĠSer":3708,"Ġwomen":3709,"Ã¼ÃŁ":3710,"sc":3711,"ĠGra":3712,"uche":3713,"Ġstra":3714,"Ġsagst":3715,"ĠKom":3716,"Ġ2020":3717,"ello":3718,"ĠBlut":3719,"ĠIhren":3720,"ĠDarf":3721,"ĠGem":3722,"Ġgun":3723,"ĠSta":3724,"pa":3725,"Ġrece":3726,"Ġdah":3727,"Ġihrem":3728,"formation":3729,"does":3730,"Ġwall":3731,"RI":3732,"Ã¤ngt":3733,"ĠSw":3734,"Ġrele":3735,"Ġtrinken":3736,"Ġbuy":3737,"Ġkeiner":3738,"Ġmeinst":3739,"inks":3740,"pril":3741,"ĠLicht":3742,"asche":3743,"Ġtried":3744,"ĠBeispiel":3745,"ĠdÃ¼rfen":3746,"ante":3747,"have":3748,"Ġquiet":3749,"kehr":3750,"kr":3751,"jetzt":3752,"ĠFrench":3753,"LE":3754,"bum":3755,"ikan":3756,"rt":3757,"Ġclot":3758,"ĠSelbst":3759,"ĠFern":3760,"ohin":3761,"dest":3762,"ĠWal":3763,"partment":3764,"Ġclean":3765,"bel":3766,"cil":3767,"ĠThese":3768,"ĠStunden":3769,"udden":3770,"Ġhon":3771,"ding":3772,"bre":3773,"Ġmess":3774,"ĠMor":3775,"Ġneuen":3776,"Ġconsider":3777,"Ġnah":3778,"ada":3779,"20":3780,"stens":3781,"ika":3782,"roll":3783,"irt":3784,"ibst":3785,"ĠDavid":3786,"ĠDeutsch":3787,"Ġblood":3788,"Ġheld":3789,"ĠHaupt":3790,"AS":3791,"Ġeure":3792,"fahren":3793,"Ġtotal":3794,"zogen":3795,"ĠParis":3796,"Ġ25":3797,"ĠPark":3798,"Ġpers":3799,"uhhuh":3800,"Mama":3801,"ĠMary":3802,"Ġbur":3803,"ĠAlex":3804,"Ġholen":3805,"ĠSm":3806,"Ġpartic":3807,"lossen":3808,"uzz":3809,"ĠCal":3810,"ĠBet":3811,"Ġfig":3812,"Ġsold":3813,"mÃ¶":3814,"Ġamong":3815,"gas":3816,"Ġherself":3817,"rest":3818,"Ġopp":3819,"inging":3820,"Ġjump":3821,"Ġsea":3822,"]?":3823,"imme":3824,"à¤":3825,"PAT":3826,"ĠauÃŁer":3827,"Ġho":3828,"Ġlo":3829,"ĠAugust":3830,"uk":3831,"ĠPolizei":3832,"Ġguys":3833,"ĠWorld":3834,"ĠEntschuldigung":3835,"Ġroll":3836,"ued":3837,"ĠEvery":3838,"ived":3839,"Ġterr":3840,"alth":3841,"ĠSei":3842,"iraten":3843,"ĠParty":3844,"ĠJed":3845,"Ġyellow":3846,"Ġsystem":3847,"ices":3848,"ounds":3849,"ĠfrÃ¼her":3850,"Ġcompany":3851,"ĠComm":3852,"Ġdeal":3853,"ĠSchuld":3854,"Ġdep":3855,"ĠNov":3856,"tember":3857,"unge":3858,"owed":3859,"stern":3860,"Ġreason":3861,"Ġ}":3862,"Ġrock":3863,"unkt":3864,"Ġ$":3865,"Ġexpect":3866,"St":3867,"Ġkilled":3868,"Ġbringt":3869,"Ġziemlich":3870,"Ġfol":3871,"ĠNimm":3872,"ĠWann":3873,"fahr":3874,"ĠErm":3875,"ieÃŁ":3876,"ĠKap":3877,"fang":3878,"Ġvill":3879,"ĠBall":3880,"ĠAg":3881,"Ġfinished":3882,"He":3883,"Ġdaugh":3884,"Ġbecome":3885,"abb":3886,"iding":3887,"ĠBill":3888,"orts":3889,"ĠLou":3890,"Ġhoffe":3891,"Ġglad":3892,"hand":3893,"Ġpen":3894,"Ġcor":3895,"Ġcoll":3896,"ĠMillion":3897,"ĠOf":3898,"Ġwarte":3899,"ulation":3900,"when":3901,"Ġpack":3902,"sie":3903,"FFFF":3904,"ousand":3905,"ĠApp":3906,"avy":3907,"ĠMat":3908,"Ġhalt":3909,"Ġthinking":3910,"Ġconc":3911,"PLA":3912,"ĠTeuf":3913,"mon":3914,"Ġsen":3915,"uation":3916,"Ã¤nder":3917,"Ġalte":3918,"Ġeg":3919,"Ġtakes":3920,"Ġtea":3921,"Ġ50":3922,"Ġ\\":3923,"Ġlangu":3924,"zer":3925,"Ġtoy":3926,"Ġstopp":3927,"ĠDing":3928,"ĠKÃ¼":3929,"ically":3930,"ima":3931,"Ġlived":3932,"two":3933,"mas":3934,"ĠHarry":3935,"ĠSchau":3936,"ĠTelefon":3937,"Ġsend":3938,"osp":3939,"ĠMel":3940,"ĠMist":3941,"Ã¡":3942,"Ġdest":3943,"ĠKont":3944,"Ġverg":3945,"ĠkÃ¤mp":3946,"ilder":3947,"Ãĥ":3948,"vest":3949,"Ġwood":3950,"ĠMarch":3951,"Ġnehme":3952,"Ġalten":3953,"lung":3954,"Ġdinner":3955,"friend":3956,"Ġang":3957,"Ġliving":3958,"ĠDamit":3959,"ENT":3960,"ĠBro":3961,"ĠGeneral":3962,"cker":3963,"rig":3964,"Ġcann":3965,"uge":3966,"ĠgrÃ¶ÃŁ":3967,"irm":3968,"ĠBild":3969,"ĠVerze":3970,"Ġbetr":3971,"Ġkept":3972,"ĠRest":3973,"ĠErde":3974,"ĠBecause":3975,"Ġcatch":3976,"ĠSan":3977,"ĠSand":3978,"Ġattack":3979,"ĠSchnell":3980,"Ġjemanden":3981,"Ã¤re":3982,"Ġbedeutet":3983,"ĠJune":3984,"Ġlieben":3985,"raid":3986,"Ġtem":3987,"Ġprov":3988,"Ã¼ssel":3989,"ĠRad":3990,"Ġ193":3991,"tra":3992,"ĠcH":3993,"ox":3994,"Ġorgan":3995,"Ġusually":3996,"falls":3997,"ĠApril":3998,"ĠJes":3999,"Ġbooks":4000,"inning":4001,"ring":4002,"Ġ--":4003,"Ġproblem":4004,"ĠInter":4005,"ĠEins":4006,"ĠIndian":4007,"rol":4008,"Ġfrag":4009,"Ġwrite":4010,"ĠSep":4011,"Ġsitting":4012,"ĠKannst":4013,"ollege":4014,"sinn":4015,"isse":4016,"Ġreicht":4017,"ior":4018,"Ġstood":4019,"Ġrunning":4020,"YM":4021,"Ġice":4022,"hÃ¶ren":4023,"Ġmeisten":4024,"ĠJanuary":4025,"aged":4026,"Ġadv":4027,"Ġband":4028,"Ġthousand":4029,"usst":4030,"ienen":4031,"ode":4032,"Ġsurpr":4033,"Ġhit":4034,"ĠWagen":4035,"Ġvielen":4036,"laf":4037,"Ġfix":4038,"amera":4039,"ius":4040,"owers":4041,"ĠFuÃŁ":4042,"ays":4043,"ĠGegen":4044,"Ġwindow":4045,"Ġkaum":4046,"rad":4047,"ĠWahrheit":4048,"ehm":4049,"Ġgedacht":4050,"Ġlaut":4051,"gang":4052,"ĠbloÃŁ":4053,"ĠPerson":4054,"ufen":4055,"stead":4056,"Ġfly":4057,"attle":4058,"velop":4059,"atten":4060,"ĠSorgen":4061,"Ġfootball":4062,"Ġchance":4063,"amb":4064,"Ġmot":4065,"Ġhar":4066,"hel":4067,"ĠtÃ¶ten":4068,"Ġblock":4069,"ĠWeihn":4070,"Ġcorn":4071,"bere":4072,"ĠTy":4073,"Ġtrouble":4074,"ĠSchre":4075,"omb":4076,"Ġherum":4077,"vision":4078,"CDS":4079,"ĠBel":4080,"Ġhil":4081,"Ġobject":4082,"ĠFreundin":4083,"ĠEt":4084,"Ġtrans":4085,"ĠBra":4086,"isches":4087,"ĠAuÃŁer":4088,"ĠÃ¼":4089,"Ġricht":4090,"ften":4091,"prochen":4092,"AP":4093,"Ġgehst":4094,"ĠHimmel":4095,"Ġbesten":4096,"Ġanf":4097,"ted":4098,"Ġehr":4099,"Ġgovernment":4100,"ĠKlar":4101,"Ġmom":4102,"Ġnamed":4103,"Ġnose":4104,"Ã¼ss":4105,"Ġtruck":4106,"ging":4107,"ausen":4108,"Ġunseren":4109,"ĠSen":4110,"LOI":4111,"ĠRober":4112,"Ġjung":4113,"Ġking":4114,"Ġbirthday":4115,"ĠDurch":4116,"Ġbeson":4117,"rag":4118,"iller":4119,"ĠHal":4120,"ories":4121,"ccess":4122,"Ġsand":4123,"enny":4124,"Ġletter":4125,"ppe":4126,"ĠLeid":4127,"ĠNational":4128,"zy":4129,"ility":4130,"zeich":4131,"ĠHm":4132,"YMATE":4133,"Ġkriegen":4134,"PLAYMATE":4135,"ision":4136,"Ġmount":4137,"inde":4138,"Ġsett":4139,"Ġdoctor":4140,"Ġreplied":4141,"ĠEle":4142,"ĠLord":4143,"Ġdesc":4144,"Ġsomebody":4145,"AND":4146,"cer":4147,"Ġgestern":4148,"Ġwerd":4149,"Ġphone":4150,"order":4151,".'":4152,"ĠIN":4153,"ĠMer":4154,"ĠSek":4155,"ham":4156,"aste":4157,"Ġpost":4158,"VE":4159,"ĠKÃ¶nnen":4160,"Ġafraid":4161,"Ġspec":4162,"ollar":4163,"Ġzwar":4164,"though":4165,"Ġsouth":4166,"omin":4167,"Ġdarling":4168,"Ġtreffen":4169,"Ġanswered":4170,"Ã¤gt":4171,"otzdem":4172,"ÅĴ":4173,"Ġsolltest":4174,"Ã¶se":4175,"ĠSpan":4176,"ĠSeptember":4177,"Ġhell":4178,"ĠIntern":4179,"ĠEhe":4180,"blick":4181,"ĠTeufel":4182,"Ġspricht":4183,"Ġclim":4184,"ĠYOU":4185,"Ġcross":4186,"ĠArm":4187,"ĠSar":4188,"ĠBritish":4189,"Ġreleased":4190,"ras":4191,"oose":4192,"itze":4193,"ĠEurope":4194,"Ã¤sident":4195,"Ġhours":4196,"ĠStud":4197,"ex":4198,"ĠHoff":4199,"Ã¼g":4200,"ĠWow":4201,"poin":4202,"Ġ..":4203,"Ġsudden":4204,"alright":4205,"Ġthemselves":4206,"ĠChance":4207,"ality":4208,"Ġglaub":4209,"ĠRich":4210,"ument":4211,"chter":4212,"Ġstark":4213,"ĠSol":4214,"Ġoper":4215,"ĠNovember":4216,"iratet":4217,"Ġkiss":4218,"OM":4219,"liches":4220,"ĠgefÃ¤llt":4221,"dersehen":4222,"Ã¼ll":4223,"Ġdaughter":4224,"con":4225,"Ġzehn":4226,"Ġpain":4227,"ele":4228,"iste":4229,"ĠTyp":4230,"Ġspecial":4231,"unny":4232,"wel":4233,"ored":4234,"wick":4235,"wor":4236,"ĠKerl":4237,"Ġmarried":4238,"ĠEure":4239,"Ġpoints":4240,"fessor":4241,"ĠwÃ¤hr":4242,"ĠAlter":4243,"ĠfrÃ¼h":4244,"oph":4245,"Ã¤u":4246,"Ġlangsam":4247,"onnen":4248,"ĠZwei":4249,"ĠIhrer":4250,"ĠNiemand":4251,"Ġvar":4252,"ĠBur":4253,"ĠÃĦr":4254,"llustr":4255,"addy":4256,"ieÃŁen":4257,"Ġfallen":4258,"Ġsex":4259,"Ã¼tzen":4260,"Ġcharac":4261,"Ġfit":4262,"ĠGeburt":4263,"ĠnÃ¤chsten":4264,"ĠwÃ¤ren":4265,"ĠCH":4266,"Ġdou":4267,"Ġwithin":4268,"ĠGefÃ¼hl":4269,"Ġguten":4270,"Ġclos":4271,"ĠBoden":4272,"ho":4273,"Ġclothes":4274,"weil":4275,"erence":4276,"Ġkleiner":4277,"ĠWunder":4278,"Ġalright":4279,"ĠWiedersehen":4280,"ĠEar":4281,"genommen":4282,"Ġlock":4283,"ĠPlease":4284,"uit":4285,"Ġcow":4286,"Ġseries":4287,"ford":4288,"ienst":4289,"com":4290,"makes":4291,"kann":4292,"ĠvÃ¶":4293,"ĠSchul":4294,"ĠOct":4295,"Ġtired":4296,"uc":4297,"ĠKla":4298,"bles":4299,"ĠKÃ¶rper":4300,"recht":4301,"ĠkÃ¼mmer":4302,"ĠEv":4303,"Ġju":4304,"ĠWeiÃŁ":4305,"ĠIrgend":4306,"ĠmuÃŁ":4307,"rict":4308,"ple":4309,"gebracht":4310,"ĠVielen":4311,"dann":4312,"Ġnational":4313,"ĠwÃ¤hrend":4314,"ĠFen":4315,"oop":4316,"ĠVerb":4317,"iol":4318,"Ġsoft":4319,"ĠFle":4320,"stit":4321,"Ġlives":4322,"Ġdiv":4323,"ĠJames":4324,"burg":4325,"ague":4326,"ened":4327,"ĠLasst":4328,"ĠhÃ¼b":4329,"Ġwann":4330,"ĠCr":4331,"ĠVolk":4332,"tell":4333,"Ġhus":4334,"anch":4335,"ĠFest":4336,"ĠVerdammt":4337,"ieb":4338,"ya":4339,"Ġseems":4340,"FCH":4341,"Ġwild":4342,"ĠJim":4343,"ĠTor":4344,"Ġpig":4345,"ering":4346,"ĠTraum":4347,"Ã¶tet":4348,"ammer":4349,"ĠRock":4350,"Ġnine":4351,"asure":4352,"affee":4353,"ĠWollen":4354,"Ġra":4355,"ĠCounty":4356,"ossen":4357,"may":4358,"Ġok":4359,"ĠHerren":4360,"ips":4361,"ardon":4362,"ĠAnn":4363,"Ġpassed":4364,"orben":4365,"unken":4366,"Ã¼cht":4367,"LL":4368,"ĠDec":4369,"Ġfield":4370,"Ġhors":4371,"scheinlich":4372,"wÃ¼r":4373,"Ã¤ndert":4374,"Ġrain":4375,"ĠHave":4376,"ĠKampf":4377,"Ġknows":4378,"ĠArme":4379,"ĠKlein":4380,"ĠFebr":4381,"scheid":4382,"oops":4383,"Ġeasy":4384,"Ġmoved":4385,"ugen":4386,"ĠCity":4387,"Ġperhaps":4388,"Ã¤ume":4389,"Sch":4390,"Ġah":4391,"ĠHÃ¤nde":4392,"fast":4393,"ĠMeer":4394,"Ġmonths":4395,"ĠMichael":4396,"Ġann":4397,"Ġdet":4398,"arr":4399,"Ġmeines":4400,"unic":4401,"Ġdeep":4402,"za":4403,"Ġwelche":4404,"ĠMund":4405,"lagen":4406,"play":4407,"Ġpot":4408,"Ġalbum":4409,"ĠNachricht":4410,"Ġsuppose":4411,"Ġpossible":4412,"ograph":4413,"Ġsechs":4414,"Ġwhether":4415,"ET":4416,"ilence":4417,"Ġworked":4418,"ĠerzÃ¤hlen":4419,"Ġstraight":4420,"ĠStraÃŁe":4421,"kte":4422,"iled":4423,"Ġled":4424,"ĠNummer":4425,"vin":4426,"Ġcal":4427,"schÃ¶n":4428,"Ġguter":4429,"Ġcheck":4430,"Ġfalsch":4431,"Ġgetr":4432,"Ġeye":4433,"gth":4434,"Ġsingle":4435,"ĠSim":4436,"iment":4437,"Ġriver":4438,"ehst":4439,"Ġtomorrow":4440,"ĠWoher":4441,"ĠIdi":4442,"ston":4443,"ĠImmer":4444,"Ġpress":4445,"Ġgefallen":4446,"ament":4447,"Ġcannot":4448,"wÃ¤r":4449,"oul":4450,"Ġhowever":4451,"actly":4452,"Ġeating":4453,"Ġsuccess":4454,"ĠOff":4455,"Ġinv":4456,"gle":4457,"Ġelect":4458,"ĠJer":4459,"ĠAustr":4460,"Ġgegeben":4461,"eil":4462,"Ġfle":4463,"hello":4464,"Ġbath":4465,"ĠPal":4466,"ooh":4467,"Ġkids":4468,"Ġfand":4469,"Ġeinige":4470,"Ġaut":4471,"Ġexper":4472,"imin":4473,"Ġcoup":4474,"ĠUh":4475,"Ġsche":4476,"Ġgener":4477,"Ġgarden":4478,"Ġkrank":4479,"ĠStunde":4480,"Ġorigin":4481,"ĠgefÃ¤hr":4482,"ĠOctober":4483,"zial":4484,"inder":4485,"Ġcommon":4486,"Ġgebe":4487,"ahlt":4488,"ĠZukunft":4489,"Ġlernen":4490,"Ġdamals":4491,"Ġversuchen":4492,"Ġdiffic":4493,"Ġlow":4494,"Ġlust":4495,"Ġreached":4496,"laimed":4497,"ĠDeutschland":4498,"Ġabove":4499,"zieh":4500,"ills":4501,"ÃĥÅĴ":4502,"ĠSehen":4503,"mar":4504,"enden":4505,"ourn":4506,"Ġwaiting":4507,"Ġdarum":4508,"Ġhierher":4509,"ĠJeder":4510,"ĠNÃ¤":4511,"Ġfunktion":4512,"Ġyours":4513,"itet":4514,"Ġweh":4515,"Ġsimp":4516,"musik":4517,"ĠKranken":4518,"Ġheiraten":4519,"ĠBlack":4520,"ĠOhne":4521,"Ġappro":4522,"Ġtowards":4523,"ĠVors":4524,"Ġstol":4525,"Ġdevelop":4526,"joy":4527,"Ġmanchmal":4528,"iers":4529,"Ġton":4530,"ĠGel":4531,"ĠkÃ¶nnt":4532,"Ġeinzige":4533,"ĠHung":4534,"ĠMo":4535,"Ġtest":4536,"ĠDollar":4537,"ĠSorge":4538,"Ġfres":4539,"Ġzer":4540,"Ġeigenen":4541,"Ġ24":4542,"Ġshot":4543,"ĠChamp":4544,"mitt":4545,"ĠHÃ¼":4546,"ehler":4547,"Ġforward":4548,"which":4549,"Ġcos":4550,"Ġslow":4551,"ks":4552,"lang":4553,"Ġhusband":4554,"Ġdaddy":4555,"ĠJuly":4556,"Ġkaputt":4557,"ĠAustral":4558,"stairs":4559,"ĠÃ¶ff":4560,"Ġtoward":4561,"ĠPost":4562,"ĠRos":4563,"Ġarms":4564,"Ġya":4565,"ĠMond":4566,"ED":4567,"ĠSeine":4568,"ample":4569,"Ġequ":4570,"ĠTages":4571,"Ġkleines":4572,"ĠAny":4573,"Ġnoises":4574,"Ġlots":4575,"work":4576,"umen":4577,"het":4578,"Ġdanger":4579,"Ġgrow":4580,"Ġhuman":4581,"ĠKaffee":4582,"Ġsnow":4583,"ĠHello":4584,"Ġsounds":4585,"ĠDeshalb":4586,"RO":4587,"ĠSex":4588,"Ġkaufen":4589,"Ġshoes":4590,"ĠErst":4591,"Ġung":4592,"itzen":4593,"Ġdat":4594,"Ġputs":4595,"ula":4596,"ĠLassen":4597,"isper":4598,"ology":4599,"ĠSagen":4600,"ĠWil":4601,"ĠZur":4602,"Ã¤ngen":4603,"Ġschau":4604,"Ġsitzen":4605,"Ġtro":4606,"Ġrad":4607,"Ġkit":4608,"Ġwollt":4609,"Ġstat":4610,"Ġmillion":4611,"Ġspielt":4612,"lebt":4613,"ivil":4614,"ĠFin":4615,"Ġest":4616,"Ġlovely":4617,"ĠDecember":4618,"auch":4619,"Ġschwar":4620,"Ġlonger":4621,"schied":4622,"Ġdepartment":4623,"Ġalleine":4624,"Ġbreat":4625,"Ġabsol":4626,"ĠSorry":4627,"emy":4628,"ĠHall":4629,"ĠWilliam":4630,"bor":4631,"Ġputting":4632,"ĠSold":4633,"Ġbrauchst":4634,"ideo":4635,"Ġweniger":4636,"ĠBilly":4637,"Ġsight":4638,"ĠPferd":4639,"ĠAngel":4640,"Ġniemals":4641,"ments":4642,"ĠOber":4643,"ĠDieses":4644,"Ġgemein":4645,"Ġschaffen":4646,"Ġ21":4647,"ĠEis":4648,"ĠRes":4649,"wood":4650,"Ġtreat":4651,"igkeiten":4652,"sicht":4653,"Ġfavor":4654,"ĠGeheim":4655,"ĠBrau":4656,"mb":4657,"Ġeffect":4658,"ĠMommy":4659,"Ġgro":4660,"Ġneben":4661,"ĠÃ¼berall":4662,"Ġreturned":4663,"lichkeit":4664,"Ġcry":4665,"Ġgentle":4666,"usp":4667,"berg":4668,"Ġverlie":4669,"Ġforgot":4670,"ĠVerl":4671,"ĠHotel":4672,"ĠTisch":4673,"ĠOl":4674,"ĠTsch":4675,"Ġscheint":4676,"Ġbas":4677,"Ġversucht":4678,"ĠProble":4679,"ĠSein":4680,"Ġcouple":4681,"ĠhÃ¤ttest":4682,"Ġbegin":4683,"box":4684,"Ġformer":4685,"Ġcirc":4686,"ala":4687,"Ġquickly":4688,"iny":4689,"ĠRobert":4690,"Ã¼rger":4691,"view":4692,"ĠhÃ¶rt":4693,"ita":4694,"ĠKan":4695,"ĠOnkel":4696,"zimmer":4697,"anda":4698,"Ã¤nge":4699,"Ġbird":4700,"Ġboard":4701,"Ġpolice":4702,"ery":4703,"ĠMillionen":4704,"ĠGeschÃ¤ft":4705,"Ġsuff":4706,"Ġbroken":4707,"rel":4708,"Ġstri":4709,"ĠUniversity":4710,"Ġcaught":4711,"ĠBus":4712,"ĠnÃ¤mlich":4713,"ĠDort":4714,"ieur":4715,"leg":4716,"jor":4717,"ĠFebruary":4718,"aters":4719,"Ġthird":4720,"Ġreport":4721,"ĠChristmas":4722,"Ġluck":4723,"Ġmist":4724,"Ġhang":4725,"Ġthrow":4726,"ails":4727,"Ġregion":4728,"sych":4729,"ena":4730,"med":4731,"kn":4732,"Ġschlimm":4733,"rote":4734,"Ġfeeling":4735,"ĠTell":4736,"ĠfÃ¤llt":4737,"ume":4738,"ĠViel":4739,"Ã¶tzlich":4740,"ĠFein":4741,"ĠJesus":4742,"Ġesc":4743,"Ġnochmal":4744,"ĠBand":4745,"ĠRoman":4746,"utzen":4747,"Ġseat":4748,"Ġzerst":4749,"Ġbuilding":4750,"Ġeverybody":4751,"ĠTO":4752,"ĠFil":4753,"ids":4754,"des":4755,"Ġmatch":4756,"Ġneeds":4757,"ĠFragen":4758,"ĠBank":4759,"ida":4760,"Ġring":4761,"Ġvisit":4762,"Ġstation":4763,"Ġlacht":4764,"Ġengine":4765,"phone":4766,"irty":4767,"ogel":4768,"Ġtrees":4769,"ĠLehr":4770,"ĠVerg":4771,"Ġirgendwie":4772,"Ãľ":4773,"Ġknock":4774,"rift":4775,"Ġisland":4776,"Ġain":4777,"Ġblau":4778,"annte":4779,"ĠPfl":4780,"Ġevening":4781,"Ġtelevision":4782,"Ġpriv":4783,"ehlt":4784,"illa":4785,"Ġoffice":4786,"with":4787,"Ġschreiben":4788,"Ġzw":4789,"Ġplaces":4790,"Ġdrive":4791,"Ġsad":4792,"abe":4793,"iant":4794,"Ġ40":4795,"ĠfÃ¤hrt":4796,"fore":4797,"arf":4798,"Ġverstanden":4799,"Ġsuggest":4800,"Ġziehen":4801,"ÃŃ":4802,"Ġunserem":4803,"dom":4804,"ĠSonst":4805,"ĠMaybe":4806,"ĠDoktor":4807,"Ġnews":4808,"ĠPrÃ¤sident":4809,"ĠFrom":4810,"An":4811,"inen":4812,"Ġcre":4813,"Ġchurch":4814,"aced":4815,"Ġvillage":4816,"Ġdiscover":4817,"Ġbuilt":4818,"Ã¼cke":4819,"Ġpublic":4820,"ĠSicherheit":4821,"used":4822,"your":4823,"Ġsick":4824,"Ġmommy":4825,"ĠAnna":4826,"ĠTer":4827,"Ġaufs":4828,"Ġview":4829,"antwort":4830,"ĠArzt":4831,"Ġnerv":4832,"Ġschuld":4833,"cent":4834,"ĠhÃ¤":4835,"Ġbeste":4836,"Ġfindet":4837,"ĠWohnung":4838,"Ġhop":4839,"Ġfing":4840,"--------":4841,"unity":4842,"anne":4843,"GRA":4844,"yl":4845,"Ġpark":4846,"volution":4847,"reifen":4848,"indet":4849,"Ġhinten":4850,"ched":4851,"ĠBin":4852,"Ġnearly":4853,"Ã¼hrt":4854,"Ġahead":4855,"iche":4856,"Ã¼ben":4857,"gu":4858,"vocal":4859,"noch":4860,"ĠVerzeih":4861,"Ġfrog":4862,"ĠGleich":4863,"eddy":4864,"Ġernst":4865,"Ġopened":4866,"Ġsal":4867,"Ġforget":4868,"pre":4869,"ĠStimmt":4870,"Ġprogr":4871,"Ã¶p":4872,"Ġwritten":4873,"ĠvÃ¶llig":4874,"endet":4875,"Ġfear":4876,"Ġshout":4877,"Ġnimm":4878,"Ġstanding":4879,"Ġlebt":4880,"ags":4881,"ami":4882,"ĠMajest":4883,"serv":4884,"Ġcaus":4885,"Ġglass":4886,"Ġstopped":4887,"ĠblÃ¶":4888,"zent":4889,"ĠBaum":4890,"Ġplayer":4891,"bes":4892,"ĠÂ¶":4893,"Ġenjoy":4894,"itik":4895,"Ġfollowed":4896,"Ġchanged":4897,"ĠHeil":4898,"ĠSonne":4899,"Ã¼nst":4900,"Ġliegen":4901,"rian":4902,"ĠBrown":4903,"ases":4904,"ĠÃĦh":4905,"Ġclub":4906,"ĠGest":4907,"bin":4908,"iety":4909,"Ġtonight":4910,"AM":4911,"ĠSil":4912,"int":4913,"stehen":4914,"alent":4915,"roffen":4916,"Ġhey":4917,"Ġanyway":4918,"Ġhig":4919,"ĠPort":4920,"Ġdirect":4921,"aret":4922,"Ġjuice":4923,"Ġdecided":4924,"Ġinstead":4925,"ancy":4926,"Ġverdammt":4927,"Ġkost":4928,"In":4929,"esterday":4930,"ĠCharlie":4931,"ĠUnsere":4932,"Ġdoubt":4933,"Ġty":4934,"agon":4935,"ĠWald":4936,"Ġstir":4937,"say":4938,"dent":4939,"'.":4940,"ĠFehler":4941,"ID":4942,"some":4943,"ault":4944,"Ġtust":4945,"Ġfill":4946,"Ġwert":4947,"ĠLi":4948,"Ġmeant":4949,"ĠFenster":4950,"abt":4951,"Ġtelling":4952,"ĠFranc":4953,"erne":4954,"ĠKenn":4955,"Ġdeut":4956,"unsch":4957,"Ġfliegen":4958,"Ġcray":4959,"ĠJungen":4960,"druck":4961,"ĠTon":4962,"Ġlist":4963,"bahn":4964,"ĠMartin":4965,"Ġdi":4966,"ĠHenry":4967,"Ġcost":4968,"Ġhungry":4969,"Ġbow":4970,"Ġsupposed":4971,"CK":4972,"Ġrequ":4973,"Ġwhom":4974,"ĠTagen":4975,"Le":4976,"Ġsail":4977,"ĠLa":4978,"Ġbroke":4979,"asen":4980,"Ġspl":4981,"US":4982,"achts":4983,"ipe":4984,"Ġsolche":4985,"ĠSiehst":4986,"Ġshoot":4987,"indest":4988,"Ġstellen":4989,"Ġjede":4990,"ĠEast":4991,"Ġempf":4992,"ums":4993,"Ġusing":4994,"ĠTier":4995,"ceed":4996,"krie":4997,"Ġaufge":4998,"Ġworden":4999,"ption":5000,"ospital":5001,"Ġretten":5002,"Ġfollowing":5003,"cially":5004,"amin":5005,"ĠHinter":5006,"ĠBeh":5007,"Ġwhatever":5008,"ĠLang":5009,"ico":5010,"Ġcareer":5011,"Ġdisapp":5012,"bare":5013,"stein":5014,"ĠAnfang":5015,"iÃŁen":5016,"weis":5017,"ansp":5018,"Ġlaufen":5019,"ĠAcht":5020,"Ġposition":5021,"ĠThanks":5022,"Ġride":5023,"unst":5024,"Ġsollst":5025,"Ġkennt":5026,"ĠschÃ¶ne":5027,"Ġindeed":5028,"Ġparticular":5029,"ĠMhm":5030,"ĠSchlaf":5031,"Ġseason":5032,"mother":5033,"Ġvorher":5034,"Ġpupp":5035,"noon":5036,"Ġmachte":5037,"Ġfellow":5038,"Ġlanguage":5039,"nicht":5040,"ĠDir":5041,"Ġbank":5042,"Ġanger":5043,"Ġsupport":5044,"Ġkitchen":5045,"Ġcoun":5046,"uhe":5047,"ĠCor":5048,"Ġspiel":5049,"Ġcarry":5050,"ahnsinn":5051,"Ġtragen":5052,"bie":5053,"aust":5054,"Ã¤tz":5055,"ifty":5056,"Ġpasst":5057,"Ġprison":5058,"erei":5059,"Ġsim":5060,"ĠHu":5061,"ĠSchluss":5062,"Ġbewe":5063,"Ĥ¬":5064,"aren":5065,"Ġeher":5066,"geht":5067,"aser":5068,"ĠMehr":5069,"Ġbreakfast":5070,"Ġadded":5071,"Ġverp":5072,"Ġcareful":5073,"ĠMother":5074,"Ã¤umen":5075,"ĠPresident":5076,"Ġextra":5077,"ĠIhrem":5078,"hof":5079,"Ġloc":5080,"Ġexample":5081,"idence":5082,"Ġworks":5083,"iar":5084,"Ġhous":5085,"ĠTu":5086,"ĠEinz":5087,"ĠProbleme":5088,"Ã¤m":5089,"Ġworry":5090,"reichen":5091,"Ġvertrau":5092,"ellschaft":5093,"Ġprote":5094,"Ġdecl":5095,"Ġsave":5096,"ÃĦ":5097,"ety":5098,"Ġausge":5099,"bled":5100,"reg":5101,"Ġstatt":5102,"Ġpieces":5103,"looks":5104,"Ġmiddle":5105,"ragt":5106,"Ġ22":5107,"anten":5108,"etten":5109,"ites":5110,"ĠâĤ¬":5111,"Ġincluding":5112,"ĠWahl":5113,"uz":5114,"holen":5115,"ias":5116,"artig":5117,"ĠQue":5118,"ĠUnser":5119,"ĠBrief":5120,"Ġstore":5121,"Ġtu":5122,"board":5123,"Ġ23":5124,"ĠwÃ¼rdest":5125,"Ġbottom":5126,"maybe":5127,"fÃ¤":5128,"ĠHeim":5129,"Ġheavy":5130,"Ġappear":5131,"aker":5132,"Ġur":5133,"Ġlegs":5134,"ĠÃ¼br":5135,"itty":5136,"Ġwrote":5137,"Ġanyone":5138,"pper":5139,"ohlen":5140,"iday":5141,"ĠST":5142,"Ġturns":5143,"ĠProfessor":5144,"mach":5145,"Ġbesonders":5146,"Ġnennen":5147,"Ġheim":5148,"osh":5149,"ĠEmp":5150,"ĠTja":5151,"Ġnennt":5152,"Ġfilm":5153,"Ã¶hn":5154,"ĠPa":5155,"Ġwin":5156,"ogn":5157,"werk":5158,"Ġmiles":5159,"ĠTra":5160,"Ġafternoon":5161,"Ġearth":5162,"ĠDick":5163,"Ġstren":5164,"volle":5165,"Ġnich":5166,"Ġsilly":5167,"reen":5168,"Ġgegangen":5169,"imal":5170,"osit":5171,"Ġauth":5172,"ission":5173,"IR":5174,"Ġpract":5175,"ushed":5176,",'":5177,"Ġcake":5178,"ĠMeister":5179,"ihen":5180,"Ã¤tze":5181,"ĠReise":5182,"Ġverlieren":5183,"Ġstrange":5184,"ischt":5185,"ĠMons":5186,"Ġ0":5187,"UD":5188,"Ġmad":5189,"ĠFranz":5190,"Ġnin":5191,"Ġlinks":5192,"ĠHowever":5193,"ĠMos":5194,"vier":5195,"Ġshut":5196,"Ġorange":5197,"Ġemp":5198,"wig":5199,"Ġperfect":5200,"night":5201,"chtest":5202,"ĠHerzen":5203,"ĠLike":5204,"Ġbread":5205,"ĠSa":5206,"Ã¶st":5207,"ismus":5208,"Ã¤chlich":5209,"met":5210,"Ġacht":5211,"resent":5212,"ĠBoot":5213,"Ġbereits":5214,"Ġquar":5215,"stellung":5216,"Ġweeks":5217,"Ġdeshalb":5218,"ĠTwo":5219,"alle":5220,"Ġham":5221,"isc":5222,"Ġwolltest":5223,"Ġkalt":5224,"ĠLo":5225,"ĠBleib":5226,"ĠFirst":5227,"Ġvorstellen":5228,"Ġexcept":5229,"Ġgeneral":5230,"ĠHin":5231,"Ġexactly":5232,"ĠAk":5233,"ĠMet":5234,"Ġtrotzdem":5235,"iod":5236,"ĠMenge":5237,"asp":5238,"ĠEurop":5239,"Ġsummer":5240,"iles":5241,"Ġsafe":5242,"hold":5243,"Ġgeschafft":5244,"ician":5245,"acken":5246,"Ġwhose":5247,"Ġhistory":5248,"Ġschme":5249,"ingly":5250,"ĠBÃ¼ro":5251,"ishing":5252,"ĠAmerica":5253,"uter":5254,"ĠTeam":5255,"Ġhappens":5256,"lla":5257,"Ġperform":5258,"ĠTem":5259,"ĠBerlin":5260,"irn":5261,"ĠChi":5262,"ATI":5263,"Ã¼st":5264,"chsel":5265,"Ġcharacter":5266,"ĠTiere":5267,"Ġfroh":5268,"Ġburn":5269,"ĠSomm":5270,"Ġ...\"":5271,"Ġbelong":5272,"So":5273,"Ġspace":5274,"ĠMinister":5275,"Ġzuerst":5276,"ĠBeweg":5277,"Ġmel":5278,"uppen":5279,"ĠSchm":5280,"Ġcast":5281,"Ġmajor":5282,"line":5283,"Ġval":5284,"ĠStimme":5285,"Ġwid":5286,"ĠZiel":5287,"ĠnÃ¤chste":5288,"Ġtape":5289,"Ġverh":5290,"ĠTake":5291,"ĠWaffen":5292,"ĠMadame":5293,"Ġbutter":5294,"Ġbought":5295,"ierten":5296,"onder":5297,"Ġshop":5298,"Ġverschieden":5299,"asket":5300,"Ch":5301,"ĠStein":5302,"ec":5303,"would":5304,"ĠhÃ¼bsch":5305,"Ġspir":5306,"rieb":5307,"Ġexclaimed":5308,"ĠFol":5309,"Ã¤rt":5310,"Ġtick":5311,"Ġdenkst":5312,"Ġgiving":5313,"ified":5314,"ĠKraft":5315,"child":5316,"yle":5317,"ĠRepubl":5318,"ĠFort":5319,"Ġtrad":5320,"Ġsetzen":5321,"ĠKleid":5322,"ĠBig":5323,"Ġ192":5324,"andy":5325,"ĠÃ¤h":5326,"Ġverhe":5327,"ibe":5328,"offee":5329,"Ġdirekt":5330,"aha":5331,"sichtig":5332,"sit":5333,"Ġpopulation":5334,"ĠGeburtstag":5335,"tempt":5336,"ĠMont":5337,"ĠErnst":5338,"alen":5339,"Ġbab":5340,"Ġsecret":5341,"ression":5342,"Ġbright":5343,"ĠManchmal":5344,"roy":5345,"ĠAng":5346,"ef":5347,"Ġtruth":5348,"RA":5349,"ĠStelle":5350,"ierig":5351,"ĠRichard":5352,"Ã¤ngst":5353,"ĠGreat":5354,"ktiv":5355,"Ã¶re":5356,"ĠCarol":5357,"Ġyesterday":5358,"ĠChef":5359,"Ġcertainly":5360,"Ã¼de":5361,"Ġholding":5362,"undert":5363,"ĠWillkommen":5364,"singing":5365,"ĠOp":5366,"arp":5367,"Ġservice":5368,"iforn":5369,"Ġwatching":5370,"wagen":5371,"ĠlÃ¤nger":5372,"Ã¶hnt":5373,"ĠgroÃŁer":5374,"erk":5375,"Ġentf":5376,"ĠFinger":5377,"wich":5378,"Ġworth":5379,"Ġfigure":5380,"ĠFisch":5381,"Ġgeschrieben":5382,"lymp":5383,"Ġfalls":5384,"Ġstreet":5385,"ruct":5386,"ĠFel":5387,"Ġbase":5388,"ato":5389,"ĠHelen":5390,"omp":5391,"Ġanimal":5392,"Ġcho":5393,"ground":5394,"ĠRaum":5395,"Ġcause":5396,"ĠLust":5397,"ĠHÃ¶ren":5398,"Ġiss":5399,"Ġbrown":5400,"schlag":5401,"icle":5402,"Ã¼cken":5403,"Ġintern":5404,"Ġgebracht":5405,"zwe":5406,"ĠJane":5407,"wand":5408,"ĠGesetz":5409,"Ġsowie":5410,"inos":5411,"Ġreceived":5412,"ĠLady":5413,"Ġrisk":5414,"ĠChina":5415,"ĠgetÃ¶tet":5416,"Ġcentury":5417,"bild":5418,"Ġfarm":5419,"Ã¼ge":5420,"wohn":5421,"ĠSchlÃ¼ssel":5422,"ago":5423,"ĠDorf":5424,"Ġspo":5425,"ising":5426,"Ġhasn":5427,"Ġlesen":5428,"unn":5429,"Why":5430,"ki":5431,"wow":5432,"Ġpretend":5433,"ĠRie":5434,"Ġ=":5435,"uel":5436,"ĠBÃ¼rger":5437,"dd":5438,"ĠAfr":5439,"Ġleider":5440,"Ġtief":5441,"Ġcurr":5442,"rodu":5443,"Ġsell":5444,"ĠJimm":5445,"ĠkÃ¤mpfen":5446,"ĠAuÃŁerdem":5447,"Ġcaptain":5448,"Ġparents":5449,"phant":5450,"Ġarri":5451,"ĠGeschen":5452,"Ġill":5453,"ĠHerrn":5454,"Ġcontrol":5455,"hem":5456,"ĠSec":5457,"ĠRat":5458,"rogen":5459,"Ġmembers":5460,"Ġcarried":5461,"Ġhart":5462,"Ġbell":5463,"ĠKell":5464,"Ġstuck":5465,"ICH":5466,"time":5467,"Ġdan":5468,"ĠForm":5469,"ĠChristian":5470,"ĠMex":5471,"trag":5472,"Ġdistrict":5473,"wann":5474,"rem":5475,"ĠFrei":5476,"mÃ¶glich":5477,"Ġdifficult":5478,"ĠSter":5479,"ĠOF":5480,"ĠdrÃ¼ben":5481,"ĠEuer":5482,"ĠJemand":5483,"ĠLeuten":5484,"ĠnÃ¤her":5485,"Ġdev":5486,"Ġarr":5487,"aterial":5488,"ĠSomet":5489,"zus":5490,"amous":5491,"meister":5492,"isa":5493,"Ġexist":5494,"ĠBud":5495,"Ġalter":5496,"Ġneck":5497,"ĠMonsieur":5498,"give":5499,"ĠFred":5500,"laublich":5501,"ĠVogel":5502,"ĠHabt":5503,"ĠSzen":5504,"Ã¶sen":5505,"Ġnatur":5506,"Ġsitzt":5507,"Ġlustig":5508,"Ġsomewhere":5509,"ĠWinter":5510,"ĠVerzeihung":5511,"Ġpaint":5512,"ressed":5513,"ĠSant":5514,"Ġgucken":5515,"buch":5516,"ĠViele":5517,"ĠMachen":5518,"Ġcompan":5519,"Ġnet":5520,"Ġlift":5521,"iele":5522,"Ġentschuld":5523,"Ġkamen":5524,"Ġagre":5525,"Ġdefin":5526,"Ġdenkt":5527,"There":5528,"Ġmur":5529,"ĠplÃ¶tzlich":5530,"Ġevent":5531,"rÃ¤":5532,"Ġleaving":5533,"ĠheiÃŁen":5534,"APTER":5535,"port":5536,"ba":5537,"Ġzeig":5538,"Ġdig":5539,"ĠBobby":5540,"Ġerled":5541,"ĠFro":5542,"ĠKÃ¶nn":5543,"Ġmoving":5544,"Ġappeared":5545,"ĠGeist":5546,"ĠWait":5547,"otte":5548,"ĠWen":5549,"Ġeast":5550,"ĠNin":5551,"llustration":5552,"ĠAnw":5553,"sa":5554,"Ã¶rder":5555,"Ġpassen":5556,"abl":5557,"ĠWein":5558,"ĠAND":5559,"ization":5560,"inkt":5561,"ĠSit":5562,"cuse":5563,"itel":5564,"Ġwartet":5565,"Ġbringe":5566,"CE":5567,"ĠBrÃ¼":5568,"Ġ2018":5569,"ades":5570,"ĠMac":5571,"Ġduck":5572,"Ġvol":5573,"ĠSinn":5574,"Ġpink":5575,"ĠGottes":5576,"pecially":5577,",--":5578,"turn":5579,"ĠSchwar":5580,"Ġcontinued":5581,"ii":5582,"yd":5583,"50":5584,"Ġselber":5585,"enne":5586,"Ã¼ng":5587,"18":5588,"ĠKÃ¤":5589,"ĠSarah":5590,"Ġpictures":5591,"ĠMaria":5592,"Ġsetz":5593,"erd":5594,"ĠOlymp":5595,"Ġlasse":5596,"Ġneigh":5597,"ĠDafÃ¼r":5598,"Ġdream":5599,"Ġnimmt":5600,"ĠAp":5601,"Ġrul":5602,"Ġpopular":5603,"ocol":5604,"ĠFrieden":5605,"Ġought":5606,"Ġfail":5607,"Ġeveryone":5608,"Ġliebt":5609,"Ġdahin":5610,"Ġcomplet":5611,"Ġspend":5612,"Ġcollect":5613,"laus":5614,"UT":5615,"Ġkennst":5616,"Ġspoke":5617,"heiten":5618,"Ġimag":5619,"ĠMike":5620,"Ġflowers":5621,"Ġbusy":5622,"Ġgenommen":5623,"Ġverdamm":5624,"ĠHandy":5625,"Ġprofess":5626,"Ġwest":5627,"Ã¼sse":5628,"Ġjedes":5629,"Ġteeth":5630,"ĠCHAPTER":5631,"ĠTrau":5632,"ĠBerg":5633,"ĠEven":5634,"Ġport":5635,"wÃ¤rts":5636,"ĠRa":5637,"istor":5638,"name":5639,"isp":5640,"ĠAust":5641,"ĠHochzeit":5642,"Ġfifty":5643,"uhl":5644,"Ã¼ssen":5645,"Ġirgendwo":5646,"field":5647,"Ã¤ngnis":5648,"ĠNatur":5649,"Ġfurther":5650,"Ã¤ndig":5651,"ĠMum":5652,"ĠBund":5653,"ĠVerschw":5654,"ĠMitt":5655,"atsch":5656,"Ġwee":5657,"Ġkonnten":5658,"Ġrechts":5659,"Ġsuddenly":5660,"ĠShow":5661,"Ġtue":5662,"Don":5663,"house":5664,"Ġmass":5665,"ĠHÃ¶rt":5666,"ĠSchmer":5667,"ively":5668,"Ġkon":5669,"ĠIdiot":5670,"Ġfinish":5671,"Ġallowed":5672,"Ich":5673,"Ġbauen":5674,"ĠTex":5675,"Ġfunktioniert":5676,"Ġcommune":5677,"gere":5678,"back":5679,"ĠGibt":5680,"Ġmix":5681,"iced":5682,"utzt":5683,"ĠMittel":5684,"ucker":5685,"ĠJose":5686,"baby":5687,"Ġsusp":5688,"Ġhospital":5689,"gemacht":5690,"ĠWorte":5691,"Ġwalked":5692,"gin":5693,"ĠâĨ":5694,"ĠCharles":5695,"wegs":5696,"ipped":5697,"Ġpuzz":5698,"ĠBere":5699,"ĠAugenblick":5700,"Ġmm":5701,"Ġtrust":5702,"Ġdanach":5703,"kar":5704,"loch":5705,"Ġrot":5706,"ĠwunderschÃ¶n":5707,"12":5708,"ils":5709,"Ġanymore":5710,"ĠÃ¤ndern":5711,"Ġlaughs":5712,"Ġtyp":5713,"ĠPan":5714,"lace":5715,"ĠAunt":5716,"ĠEntscheid":5717,"ĠGren":5718,"Ã¼te":5719,"Ġdarfst":5720,"Ġbased":5721,"ĠSus":5722,"Ġeinge":5723,"ĠKirche":5724,"Ġbeginning":5725,"Ã¤hlt":5726,"Ã¼ÃŁe":5727,"Ġ2021":5728,"Ġinvest":5729,"Ġehrlich":5730,"Ġaccept":5731,"uhr":5732,"lieÃŁen":5733,"10":5734,"Ġcreated":5735,"Ã¶tig":5736,"ĠNick":5737,"ĠDire":5738,"Ġsense":5739,"Ġjedem":5740,"ĠmÃ¼sst":5741,"ĠAnne":5742,"Ġlunch":5743,"ĠBetty":5744,"Ġcapital":5745,"ilar":5746,"Ġperiod":5747,"ĠDel":5748,"nahme":5749,"Ġtype":5750,"points":5751,"Ġcomfort":5752,"Ġtau":5753,"ĠStop":5754,"ĠHunger":5755,"Ġjunge":5756,"ĠVier":5757,"ĠBring":5758,"Ġgames":5759,"Ġcompet":5760,"ghed":5761,"cing":5762,"ĠJung":5763,"ffe":5764,"Ġkriegt":5765,"ĠPrinzess":5766,"sm":5767,"li":5768,"ĠerklÃ¤ren":5769,"ĠGedanken":5770,"ral":5771,"Ġalthough":5772,"Ġgrass":5773,"ĠlieÃŁ":5774,"Ġut":5775,"Ġcars":5776,"Ġlose":5777,"Ġanybody":5778,"pping":5779,"Ġmaster":5780,"ĠPeople":5781,"anner":5782,"por":5783,"Ġstolz":5784,"Ġlen":5785,"ads":5786,"Ġauthor":5787,"ĠKunst":5788,"ĠStar":5789,"ĠDame":5790,"ĠBad":5791,"ierst":5792,"ounced":5793,"ĠLuc":5794,"umpel":5795,"Ġgefragt":5796,"Ġrie":5797,"Illustration":5798,"Ġfat":5799,"Ġweren":5800,"oder":5801,"Ġcard":5802,"istan":5803,"ĠAuft":5804,"ording":5805,"Daddy":5806,"ackt":5807,"Ġgehabt":5808,"orgt":5809,"agegen":5810,"Ġstell":5811,"ĠfÃ¼hle":5812,"Ġthirty":5813,"Ġvict":5814,"wen":5815,"Ġsingen":5816,"Ġlocal":5817,"ĠTim":5818,"onel":5819,"OL":5820,"sw":5821,"ales":5822,"Ġschm":5823,"Ġfeed":5824,"igg":5825,"ï¿½ï¿½ï¿½ï¿½":5826,"ĠOma":5827,"ĠMonate":5828,"ĠDrei":5829,"Ġhorses":5830,"bte":5831,"Ġcoffee":5832,"Ġlikes":5833,"Ġhoney":5834,"Ġ26":5835,"gesehen":5836,"ĠEtwas":5837,"Ġbitten":5838,"Ġconst":5839,"Ġerh":5840,"Ġrub":5841,"ĠgefÃ¤hrlich":5842,"ĠLat":5843,"ĠDamen":5844,"ires":5845,"Ġschreck":5846,"Ġklingt":5847,"ĠRaus":5848,"want":5849,"gasps":5850,"Ġtall":5851,"ĠZeug":5852,"verstÃ¤nd":5853,"Ġrelig":5854,"Ġbottle":5855,"Ġdry":5856,"izes":5857,"ival":5858,"Ġinteressiert":5859,"Ġerfahren":5860,"ĠGermany":5861,"Ġgrad":5862,"ĠmÃ¼de":5863,"Ġabge":5864,"Ġ27":5865,"frau":5866,"Ġerwartet":5867,"ĠMajestÃ¤t":5868,"ĠHam":5869,"aith":5870,"Ġremark":5871,"ĠNord":5872,"Ġcrying":5873,"Ġseeing":5874,"dre":5875,"Ġfinger":5876,"ultur":5877,"ĠStand":5878,"abor":5879,"ĠAuge":5880,"Ġrace":5881,"Ġtail":5882,"ĠHigh":5883,"ĠCent":5884,"Ġpounds":5885,"ĠRay":5886,"Ġplays":5887,"à²":5888,"ĠStan":5889,"ĠWieder":5890,"Ġconvers":5891,"Ġwalking":5892,"Ġcorner":5893,"imit":5894,"ĠPo":5895,"ĠGlas":5896,"Ġmoon":5897,"Ġitself":5898,"Ġjack":5899,"ĠTur":5900,"How":5901,"Ãĸ":5902,"asant":5903,"Ġinvol":5904,"ĠStimmen":5905,"sings":5906,"Ġfut":5907,"elte":5908,"Ġgesprochen":5909,"Ġself":5910,"Ġincre":5911,"ios":5912,"Ġinformation":5913,"ĠRog":5914,"Ġnahm":5915,"ĠMasch":5916,"ĠUncle":5917,"Ġdesign":5918,"ĠFir":5919,"ĠJud":5920,"Ġdropped":5921,"ĠfÃ¼hren":5922,"Ġaccount":5923,"Ġsieben":5924,"ĠTante":5925,"ĠInsel":5926,"edy":5927,"Ġparts":5928,"Ġentire":5929,"Ġneues":5930,"ĠSeht":5931,"ĠIsland":5932,"spiel":5933,"Ã¼llt":5934,"ĠSCH":5935,"ĠEntschuldigen":5936,"ĠVorsicht":5937,"ĠBlue":5938,"iern":5939,"lieÃŁlich":5940,"Ġque":5941,"riage":5942,"ĠPet":5943,"Ġfamous":5944,"schn":5945,"grund":5946,"ĠErzÃ¤hl":5947,"ĠWeiter":5948,"ĠhÃ¶re":5949,"Ġmis":5950,"Ġletters":5951,"uert":5952,"ata":5953,"Ġgetroffen":5954,"Ġplant":5955,"ĠRiver":5956,"Ġate":5957,"Ġfucking":5958,"Ġpush":5959,"Ġdistance":5960,"noise":5961,"Ġlaughed":5962,"Ġgenauso":5963,"Ġirgendwas":5964,"Ġlachen":5965,"Ġdumm":5966,"folg":5967,"ettet":5968,"Ġloud":5969,"antast":5970,"Ġgeboren":5971,"Ġhing":5972,"ĠRegen":5973,"zw":5974,"Ġmod":5975,"ola":5976,"clock":5977,"ear":5978,"Ġsky":5979,"ĠrÃ¼ber":5980,"Ġmilit":5981,"Ġwem":5982,"Ã¤ÃŁ":5983,"Ġholds":5984,"Ġthou":5985,"Ã¼ÃŁen":5986,"oof":5987,"itzer":5988,"If":5989,"Ġtap":5990,"round":5991,"bing":5992,"ĠClub":5993,"cul":5994,"Ġtie":5995,"GRAND":5996,"atsÃ¤chlich":5997,"ĠRoy":5998,"Ġshape":5999,"scheiden":6000,"Ġwet":6001,"Ġrespect":6002,"unicip":6003,"rik":6004,"Ġattention":6005,"beiter":6006,"Ġcheese":6007,"gabe":6008,"fre":6009,"ror":6010,"Ġmem":6011,"ĠpersÃ¶n":6012,"Ġplate":6013,"Ġverkaufen":6014,"Al":6015,"ĠCarl":6016,"ĠTony":6017,"soci":6018,"ĠCo":6019,"ĠLee":6020,"Ġmeeting":6021,"They":6022,"ĠScott":6023,"Ġshare":6024,"ĠHouse":6025,"ĠBesuch":6026,"ibly":6027,"ĠDarum":6028,"ĠâĮ":6029,"yr":6030,"Ġcounty":6031,"Ġcab":6032,"Ġbat":6033,"hington":6034,"ĠZauber":6035,"Ġfehlt":6036,"Ġgrew":6037,"Ġpicks":6038,"ville":6039,"Ġhealth":6040,"Ġnecess":6041,"Ġsmell":6042,"ĠHÃ¤t":6043,"Ġgestorben":6044,"rufen":6045,"Ã¤ger":6046,"ĠSchne":6047,"mine":6048,"Ġcop":6049,"Ġstep":6050,"ining":6051,"ĠEntschuldige":6052,"Ġrid":6053,"Ġerinnern":6054,"Ġlch":6055,"Ġdanc":6056,"Ġverdient":6057,"Ġpresident":6058,"iko":6059,"Ġpock":6060,"mir":6061,"ousin":6062,"ichtet":6063,"Ġerwar":6064,"Ġhinein":6065,"Ġtechn":6066,"gekommen":6067,"ĠErd":6068,"Ġbekannt":6069,"ĠLiebling":6070,"wÃ¼rd":6071,"fst":6072,"Ġmurder":6073,"gra":6074,"down":6075,"Ġcountries":6076,"zentr":6077,"Ġwriting":6078,"ĠBier":6079,"ĠNase":6080,"Ġdance":6081,"Ġvorne":6082,"ora":6083,"Ġrecogn":6084,"ĠWeihnachten":6085,"ĠKle":6086,"reche":6087,"punkt":6088,"ĠRuf":6089,"olt":6090,"aun":6091,"Ġrabb":6092,"ĠBesch":6093,"ĠBlick":6094,"STER":6095,"cel":6096,"ĠÃ¤hn":6097,"Ġwunderbar":6098,"gut":6099,"ĠgehÃ¶ren":6100,"Ġschreit":6101,"Ã¤ul":6102,"ĠMÃ¶glich":6103,"Ġsilence":6104,"Ġproper":6105,"schte":6106,"Ġpassieren":6107,"ĠGefÃ¤ngnis":6108,"Ġforce":6109,"ĠMeinung":6110,"Ġverr":6111,"Ã¤che":6112,"Ġï¿½":6113,"Ġdelight":6114,"ĠTV":6115,"ugs":6116,"aper":6117,"Ġ2019":6118,"ĠLÃ¶":6119,"Ġdagegen":6120,"ĠRolle":6121,"omen":6122,"Ġhall":6123,"Ġleaves":6124,"Ġarmy":6125,"ĠKindern":6126,"11":6127,"Ġchicken":6128,"Ja":6129,"Ġliked":6130,"ĠBeste":6131,"Ġnen":6132,"Ġbekommt":6133,"schieden":6134,"Ã¼hm":6135,"ĠhÃ¶rte":6136,"ĠlÃ¤ch":6137,"Ġspecies":6138,"Ġ28":6139,"tschaft":6140,"ĠProdu":6141,"ĠÃ¼b":6142,"Ġinfl":6143,"ĠKÃ¶nigin":6144,"alley":6145,"ĠHaut":6146,"Ġherr":6147,"ĠHor":6148,"lÃ¤":6149,"Ġvorsichtig":6150,"ĠSommer":6151,"Ġcommand":6152,"Ġvoller":6153,"Ġcell":6154,"Ġ2017":6155,"Ġteacher":6156,"yep":6157,"stadt":6158,"Ġears":6159,"ĠbÃ¶se":6160,"zept":6161,"ĠNÃ¤he":6162,"ĠGeheimnis":6163,"ĠLied":6164,"light":6165,"ĠHon":6166,"ĠLittle":6167,"anny":6168,"Ġunbed":6169,"Ġnames":6170,"âĮĭ":6171,"Ġattempt":6172,"ĠLouis":6173,"bald":6174,"izen":6175,"itor":6176,"Ġstars":6177,"ĠPrinzessin":6178,"ĠRegierung":6179,"ona":6180,"\")":6181,"conom":6182,"Ġsilver":6183,"ieg":6184,"Ġlevel":6185,"Ġnon":6186,"ĠStell":6187,"Ġhattest":6188,"._":6189,"Be":6190,"ĠBern":6191,"bis":6192,"hres":6193,"ses":6194,"Ġconcern":6195,"ĠWashington":6196,"ĠDich":6197,"Ġ(\"":6198,"âĮī":6199,"Ġmention":6200,"Ġblow":6201,"icro":6202,"Ġfavorite":6203,"ĠWohin":6204,"ĠMÃ¤nn":6205,"itar":6206,"ĠFlugzeug":6207,"ĠMany":6208,"Ġbezahlen":6209,"Ġbege":6210,"Ġvan":6211,"uts":6212,"Ġjud":6213,"Ġbirds":6214,"bon":6215,"OW":6216,"Ġeggs":6217,"Ġgewinnen":6218,"Ġfem":6219,"ĠDis":6220,"va":6221,"big":6222,"Ġbull":6223,"Ġanx":6224,"ĠPers":6225,"Ġphot":6226,"ĠDach":6227,"Ġwash":6228,"Ã¶h":6229,"Ġcream":6230,"Ġinclude":6231,"Ġbekomm":6232,"CAR":6233,"Ġshowed":6234,"UDENT":6235,"ĠSchwein":6236,"isf":6237,"Ġdue":6238,"Ġschick":6239,"ĠBu":6240,"ĠGesellschaft":6241,"ĠComput":6242,"ĠKumpel":6243,"Ã¼nden":6244,"Ġfif":6245,"Ġtraurig":6246,"ĠAct":6247,"Ġwieso":6248,"ĠRing":6249,"pty":6250,"please":6251,"ĠFraser":6252,"liegen":6253,"Ġschneller":6254,"ĠReich":6255,"Ġtrack":6256,"Ġneeded":6257,"ĠAmy":6258,"ĠKling":6259,"Ġwonderful":6260,"ĠWaffe":6261,"Ġcond":6262,"ĠVersuch":6263,"unkel":6264,"ĠWegen":6265,"ĠSher":6266,"rolle":6267,"Ġsearch":6268,"Ġverliebt":6269,"Ġlag":6270,"ĠWoll":6271,"Ġgell":6272,"ĠKur":6273,"mel":6274,"ĠGlauben":6275,"ĠKais":6276,"ements":6277,"reek":6278,"asc":6279,"ĠEll":6280,"Ġ/":6281,"STUDENT":6282,"aa":6283,"Ġpolic":6284,"ym":6285,"Ġalive":6286,"iker":6287,"Ġrich":6288,"aven":6289,"len":6290,"ĠBE":6291,"Ġversuch":6292,"arl":6293,"teid":6294,"yy":6295,"esse":6296,"hab":6297,"ĠBlumen":6298,"ĠLachen":6299,"ined":6300,"Ġord":6301,"ĠBeg":6302,"anor":6303,"Ġfuture":6304,"Ġcapt":6305,"ĠVoll":6306,"ĠkÃ¼mmern":6307,"itions":6308,"auspiel":6309,"Ġfinally":6310,"ote":6311,"Ġglaubst":6312,"Ġtit":6313,"Ġsepar":6314,"Ġfolgen":6315,"ĠNÃ¤ch":6316,"fern":6317,"ĠBert":6318,"Ġgewonnen":6319,"Ġsubject":6320,"ĠSau":6321,"Ġtanzen":6322,"Ġgib":6323,"Ġkey":6324,"Ġpaid":6325,"ĠFÃ¼hr":6326,"warum":6327,"ari":6328,"ended":6329,"ĠSeid":6330,"gleich":6331,"Ġviol":6332,"usion":6333,"ĠArch":6334,"ĠschÃ¶nen":6335,"Ġquestions":6336,"ĠWelche":6337,"Ġep":6338,"ĠIndia":6339,"ban":6340,"ĠNeu":6341,"Ġinteresting":6342,"uhige":6343,"Ġconne":6344,"Ġinterested":6345,"ĠJon":6346,"boy":6347,"ĠAntwort":6348,"ĠLaden":6349,"overn":6350,"yer":6351,"Ġkompl":6352,"IA":6353,"aded":6354,"bour":6355,"wenn":6356,"ĠII":6357,"Ġident":6358,"Ġvideo":6359,"Ġbill":6360,"ĠDonn":6361,"Ġshouldn":6362,"Ġwenigstens":6363,"bell":6364,"blems":6365,"ĠNehmen":6366,"ĠHabe":6367,"haben":6368,"Ġtwel":6369,"cious":6370,"rasch":6371,"Ġcrayon":6372,"Ġcrow":6373,"Ġscr":6374,"ĠMotor":6375,"ĠLin":6376,"inosaur":6377,"Ġlying":6378,"ĠHÃ¶lle":6379,"scher":6380,"Ġhasse":6381,"izza":6382,"ĠSport":6383,"Ġcrazy":6384,"Ġcharge":6385,"ĠSeele":6386,"Ġsens":6387,"ATT":6388,"Ġach":6389,"rupt":6390,"Ġhate":6391,"ĠUSA":6392,"amat":6393,"ationen":6394,"Ġbelow":6395,"book":6396,"ĠAir":6397,"ĠDet":6398,"Ġfurcht":6399,"viously":6400,"ini":6401,"ĠMonat":6402,"omes":6403,"ĠFotos":6404,"Ġwerdet":6405,"Ġhost":6406,"ĠOld":6407,"utenant":6408,"pardon":6409,"Ġvern":6410,"ustom":6411,"Ġrede":6412,"zig":6413,"ĠSl":6414,"wanna":6415,"uhoh":6416,"Ġextre":6417,"ĠMost":6418,"Ġglo":6419,"ionship":6420,"eds":6421,"ĠArab":6422,"ivid":6423,"beite":6424,"ĠPil":6425,"ĠTest":6426,"Ġeduc":6427,"schr":6428,"ĠmÃ¶gen":6429,"ocolate":6430,"enten":6431,"sey":6432,"Ġserious":6433,"Ġnone":6434,"ĠBull":6435,"ĠGericht":6436,"Ġsla":6437,"Ġgives":6438,"Ġthee":6439,"ĠKleine":6440,"Ġactiv":6441,"Ġloved":6442,"aped":6443,"stes":6444,"Mommy":6445,"Ġstub":6446,"Ġespecially":6447,"ĠFather":6448,"ĠSieht":6449,"laubt":6450,"ĠGal":6451,"Ġstarts":6452,"ĠHaare":6453,"Ġhide":6454,"Ġverbr":6455,"Ã¨":6456,"ĠnÃ¶tig":6457,"tens":6458,"Ġsheep":6459,"wart":6460,"Ġblind":6461,"Ġlog":6462,"ĠstÃ¤ndig":6463,"ĠVir":6464,"Ġreading":6465,"pielt":6466,"Ġkick":6467,"ĠRau":6468,"Ġproblems":6469,"Ġclosed":6470,"ĠAss":6471,"Ġdut":6472,"ĠfÃ¼hrt":6473,"schaf":6474,"athan":6475,"ĠVerste":6476,"Ġharm":6477,"Ġunbe":6478,"ĠkÃ¶nntest":6479,"IL":6480,"ĠMut":6481,"ĠVict":6482,"ĠFer":6483,"Ġphys":6484,"ĠcHFFFF":6485,"Ġspot":6486,"Ġverheiratet":6487,"aining":6488,"Ġpray":6489,"Ġpal":6490,"ĠTypen":6491,"reten":6492,"Ġapproach":6493,"medi":6494,"ĠTour":6495,"Ġbeat":6496,"ĠNothing":6497,"ĠFreude":6498,"ĠSing":6499,"ĠBezieh":6500,"ĠRichtung":6501,"ĠEhre":6502,"Ġsimilar":6503,"ĠSign":6504,"ably":6505,"Ġofficer":6506,"urr":6507,"wait":6508,"ĠBilder":6509,"iling":6510,"finden":6511,"ĠToll":6512,"Ġsmile":6513,"ae":6514,"ĠMilch":6515,"Ġrichtige":6516,"Ġdef":6517,"lage":6518,"Ġsuit":6519,"Ġglaubt":6520,"Ġ2010":6521,"Ġrau":6522,"ĠIT":6523,"Ġfool":6524,"ĠReally":6525,"ĠPen":6526,"ĠStraÃŁen":6527,"roh":6528,"ĠKil":6529,"ĠGast":6530,"Ġbridge":6531,"ĠRÃ¼cken":6532,"ĠStock":6533,"Ġrepresent":6534,"ĠSonnen":6535,"Ġsurprise":6536,"ĠAha":6537,"ĠFuck":6538,"ĠKor":6539,"ĠSchlag":6540,"ĠâĨĴ":6541,"Ġsharp":6542,"Ġhinaus":6543,"Ġwheel":6544,"Ġ29":6545,"Ġposit":6546,"Ġarbeitet":6547,"Ġdrop":6548,"chan":6549,"Ġforest":6550,"ternehmen":6551,"ĠKlasse":6552,"ĠsÃ¼ÃŁ":6553,"iebt":6554,"Ġclever":6555,"Ġkling":6556,"rot":6557,"ji":6558,"standen":6559,"Ġrose":6560,"ĠFamilien":6561,"GRANDMOTHER":6562,"tended":6563,"Ġslowly":6564,"lant":6565,"Ġprocess":6566,"Ġwahrscheinlich":6567,"Ġhilft":6568,"Ã¤fte":6569,"Ġfingers":6570,"_,":6571,"asion":6572,"Ġ2022":6573,"ĠFoto":6574,"Ġhalte":6575,"ĠEner":6576,"ppt":6577,"Ġcamera":6578,"Ã¼tzt":6579,"ĠKrankenhaus":6580,"IM":6581,"Now":6582,"ĠSzene":6583,"Ġlargest":6584,"ournal":6585,"ĠPreis":6586,"Ġegg":6587,"essie":6588,"Ġscared":6589,"upid":6590,"Ġprep":6591,"seh":6592,"Ġwide":6593,"ĠEiner":6594,"aring":6595,"ĠCaliforn":6596,"ĠDien":6597,"ĠmÃ¼sste":6598,"Ġpeace":6599,"has":6600,"Ġselt":6601,"Ġdick":6602,"Ġbigger":6603,"ansport":6604,"Ġchief":6605,"ĠVertrau":6606,"Ġaufz":6607,"Ġbezahlt":6608,"indung":6609,"ĠWolf":6610,"Ġbasket":6611,"Ġeigene":6612,"ĠLeg":6613,"ĠUnion":6614,"Ġsquare":6615,"Ġanz":6616,"Ġcourt":6617,"Ġmunicip":6618,"Ġwhisper":6619,"Ġ60":6620,"Ġterm":6621,"ĠBahn":6622,"ieten":6623,"ĠWird":6624,"ĠDep":6625,"Ġzeigt":6626,"ĠDuring":6627,"ĠWH":6628,"Ġsowieso":6629,"ĠRei":6630,"hlen":6631,"atte":6632,"ĠSund":6633,"Ġbang":6634,"Ġearn":6635,"15":6636,"Do":6637,"ausend":6638,"Ġserved":6639,"Ġpra":6640,"ĠAlice":6641,"laufen":6642,"ĠMajor":6643,"spe":6644,"Ġdirection":6645,"aschen":6646,"ĠJugend":6647,"schaften":6648,"wise":6649,"Ġprob":6650,"eit":6651,"ĠRose":6652,"achtet":6653,"ĠTee":6654,"ris":6655,"jekt":6656,"Ġpurp":6657,"cri":6658,"Ġ...?":6659,"ĠLaut":6660,"eum":6661,"ĠFoot":6662,"Ġmonkey":6663,"Ġshows":6664,"Ġgelernt":6665,"RY":6666,"ĠHolz":6667,"Ġunbedingt":6668,"Ġshr":6669,"ĠDeck":6670,"ishm":6671,"REL":6672,"igens":6673,"Ġutter":6674,"Ġrepe":6675,"ĠFreiheit":6676,"ĠWitz":6677,"ĠTerr":6678,"ĠSchauspiel":6679,"abeth":6680,"ĠHÃ¤us":6681,"coun":6682,"17":6683,"ochen":6684,"ĠEier":6685,"ĠCos":6686,"ĠWarten":6687,"ĠNob":6688,"ĠGive":6689,"ĠRel":6690,"watch":6691,"ĠCalifornia":6692,"etting":6693,"FRI":6694,"Ġhelped":6695,"Ġasleep":6696,"urst":6697,"asser":6698,"Ġgather":6699,"ĠErinner":6700,"Ã¼hst":6701,"arbeitet":6702,"ĠAc":6703,"doch":6704,"Ġunterwegs":6705,"Re":6706,"amt":6707,"ĠBre":6708,"Ġener":6709,"Ġcovered":6710,"Ġwav":6711,"val":6712,"Ġangef":6713,"Ġtravel":6714,"hast":6715,"ĠVan":6716,"ĠSchicks":6717,"Ġkriegst":6718,"ĠLauf":6719,"Is":6720,"Ġwa":6721,"law":6722,"Ġner":6723,"ĠÃĦrger":6724,"Ġconversation":6725,"Ġamount":6726,"ĠLeague":6727,"mo":6728,"ateg":6729,"Ġanfangen":6730,"ĠVÃ¶":6731,"14":6732,"atives":6733,"13":6734,"Ġren":6735,"ĠBart":6736,"Ġshore":6737,"Ġjoined":6738,"Ġshit":6739,"ĠPop":6740,"licht":6741,"Ġmodern":6742,"ially":6743,"ĠJean":6744,"Ġbye":6745,"ĠÃ¼bern":6746,"po":6747,"Ġterrible":6748,"CHT":6749,"ĠVergiss":6750,"Ġ2016":6751,"worten":6752,"Ġlaughing":6753,"Ġsinging":6754,"Ã¼gel":6755,"tha":6756,"Ġdra":6757,"ĠMaggie":6758,"ĠwÃ¤rst":6759,"ĠMarie":6760,"Ġcaused":6761,"gramm":6762,"Ġverletzt":6763,"ĠAN":6764,"Ã¼ler":6765,"ĠStreet":6766,"set":6767,"ĠGefahr":6768,"vater":6769,"Ġertr":6770,"ĠGeben":6771,"ĠSoldaten":6772,"ĠSchool":6773,"gestellt":6774,"Ġspread":6775,"Ġblank":6776,"ĠSong":6777,"Ġvarious":6778,"Ġstudy":6779,"ĠWhite":6780,"DE":6781,"HE":6782,"ĠSetz":6783,"hÃ¶r":6784,"ĠGeschenk":6785,"ĠFlor":6786,"ĠAchtung":6787,"My":6788,"hundert":6789,"ATIVE":6790,"Ġapple":6791,"ampe":6792,"ĠZeiten":6793,"cts":6794,"Ã¤ulein":6795,"ĠGespr":6796,"Ġdogs":6797,"Ġstage":6798,"Ġarbeite":6799,"acing":6800,"CHER":6801,"ĠIts":6802,"ĠGemein":6803,"Ġarrang":6804,"ĠBoss":6805,"Ġ2011":6806,"Ġthanks":6807,"alter":6808,"Ġasking":6809,"Ġspent":6810,"ĠPferde":6811,"ĠSue":6812,"Ġlikely":6813,"yond":6814,"Ġpicked":6815,"Ġangerufen":6816,"Ġimmedi":6817,"ĠDenk":6818,"Ġwinter":6819,"Ġways":6820,"AY":6821,"Ġconsidered":6822,"ĠPfe":6823,"kre":6824,"Ã¤ge":6825,"Ġelephant":6826,"ĠCollege":6827,"Ġleise":6828,"ugg":6829,"ĠAmerika":6830,"Ġanderer":6831,"ĠOur":6832,"ĠGovern":6833,"Ġrefer":6834,"ĠErn":6835,"ĠOver":6836,"Ġfright":6837,"gefÃ¤hr":6838,"hood":6839,"lor":6840,"mond":6841,"ĠEisen":6842,"Ġforth":6843,"Ġspeed":6844,"wind":6845,"Ġolder":6846,"pes":6847,"ĠKarte":6848,"ĠHals":6849,"Ġnatural":6850,"outs":6851,"Ġmachine":6852,"ĠFluss":6853,"Ġredest":6854,"cient":6855,"van":6856,"Ġgutes":6857,"ĠFleisch":6858,"Ġtwelve":6859,"Ġ%":6860,"mutter":6861,"viel":6862,"ĠHut":6863,"ĠPubl":6864,"take":6865,"irr":6866,"ĠFalls":6867,"ĠfÃ¼rs":6868,"orter":6869,"ĠMÃ¼ll":6870,"ĠUN":6871,"ĠAnge":6872,"ĠÃľberrasch":6873,"Ã¼nft":6874,"Ġsize":6875,"ĠPolitik":6876,"Ã»":6877,"Ġresult":6878,"schluss":6879,"ĠJapanese":6880,"mittel":6881,"Ġsleeping":6882,"ĠMonaten":6883,"ela":6884,"Ã¤umt":6885,"Ġturning":6886,"Ġlower":6887,"annen":6888,"RELATIVE":6889,"counter":6890,"three":6891,"ikt":6892,"ĠWould":6893,"ĠAbs":6894,"Ġtat":6895,"antly":6896,"Ġschn":6897,"rael":6898,"isy":6899,"Ġentered":6900,"ĠSchle":6901,"Ġstories":6902,"Ġpolitician":6903,"ĠGlaubst":6904,"Ġlearned":6905,"platz":6906,"Ã¶hnen":6907,"Ġgerettet":6908,"hÃ¤lt":6909,"ĠBesser":6910,"Ã¼gt":6911,"ĠFrancis":6912,"ĠCle":6913,"ĠFrankreich":6914,"Ġnobody":6915,"ĠKatze":6916,"Ġmountain":6917,"ĠQueen":6918,"ĠTexas":6919,"jo":6920,"ĠFrÃ¤ulein":6921,"All":6922,"oman":6923,"ĠPriv":6924,"ĠHistory":6925,"ĠgroÃŁes":6926,"Ġhardly":6927,"Ġkomisch":6928,"Ġsle":6929,"ĠTanz":6930,"Ġtalked":6931,"Ġgas":6932,"ĠBas":6933,"ĠKal":6934,"ĠSchuhe":6935,"Sh":6936,"stra":6937,"Ã¼tz":6938,"ky":6939,"Ġentde":6940,"ĠBesche":6941,"ĠListen":6942,"uted":6943,"Ġ2014":6944,"This":6945,"ila":6946,"Ġstarb":6947,"Ã¤lter":6948,"Ġspring":6949,"Ġcro":6950,"Ġeuer":6951,"dam":6952,"Ġabsolute":6953,"Ġfresh":6954,"ĠNachbar":6955,"ĠEhr":6956,"omat":6957,"ĠState":6958,"Ã¼tze":6959,"Ġav":6960,"Ġstone":6961,"essel":6962,"ĠfÃ¼hlen":6963,"ĠArmee":6964,"Ã¤nde":6965,"ĠBewegung":6966,"Ġchoo":6967,"ĠWohn":6968,"Ġ\"'":6969,"Ġdeclared":6970,"ĠTheir":6971,"ĠArschloch":6972,"ĠVictor":6973,"ois":6974,"kan":6975,"Ġversprochen":6976,"ĠThr":6977,"Ġinte":6978,"ĠSat":6979,"ĠSprache":6980,"onen":6981,"Ġewig":6982,"Ġrufen":6983,"ĠGarten":6984,"Ġpocket":6985,"ĠOnly":6986,"Ġdauert":6987,"Ġbehalten":6988,"ĠCath":6989,"ulture":6990,"frieden":6991,"Ã³":6992,"Ġschicken":6993,"Ġprogram":6994,"ĠCoun":6995,"ĠOt":6996,"amma":6997,"Ġdirty":6998,"Ġcru":6999,"legenheit":7000,"ends":7001,"Ġban":7002,"Ġpet":7003,"ĠZurÃ¼ck":7004,"ĠHÃ¤":7005,"eman":7006,"ĠSP":7007,"aughty":7008,"Ġlength":7009,"ĠSpann":7010,"ĠBoy":7011,"ĠheiÃŁe":7012,"ĠAdam":7013,"manden":7014,"isted":7015,"Ġspoon":7016,"ĠInternational":7017,"Ġmeat":7018,"rick":7019,"Ġgeschickt":7020,"aked":7021,"Ġsagten":7022,"Ġrole":7023,"iana":7024,"ĠBefehl":7025,"fit":7026,"oint":7027,"Ġbehand":7028,"Ġsituation":7029,"aurant":7030,"Ġinsp":7031,"ĠTommy":7032,"ĠKeiner":7033,"Ġcoat":7034,"ĠAnton":7035,"ĠEuropa":7036,"ĠLad":7037,"Ġfrage":7038,"ĠTechn":7039,"ĠBlÃ¶":7040,"ĠRot":7041,"ech":7042,"ushing":7043,"ĠLast":7044,"Ġnieder":7045,"ĠberÃ¼hm":7046,"ĠLaura":7047,"kin":7048,"Ġpromise":7049,"Ġdestroy":7050,"Ġtemper":7051,"ano":7052,"ĠJeden":7053,"anced":7054,"Ġverf":7055,"Ġsaf":7056,"wr":7057,"ĠLes":7058,"gress":7059,"ĠMeter":7060,"ĠaufhÃ¶ren":7061,"acy":7062,"ĠRichtig":7063,"Ġhalb":7064,"zeitig":7065,"Ġpath":7066,"inda":7067,"Ġerre":7068,"ehrt":7069,"resse":7070,"ĠHof":7071,"ĠBundes":7072,"Ġbroad":7073,"ĠBeine":7074,"Ġdrawing":7075,"ĠMarc":7076,"Ġgeschehen":7077,"Ġspirit":7078,"face":7079,"Ġsatisf":7080,"zwischen":7081,"lieben":7082,"Ġaffect":7083,"gers":7084,"bau":7085,"Ġdank":7086,"vey":7087,"Ġcand":7088,"Ġbud":7089,"schau":7090,"Ġanrufen":7091,"ĠGreen":7092,"Ġfahre":7093,"Ġcircle":7094,"ĠSure":7095,"ĠRadio":7096,"LT":7097,"Ġaccident":7098,"Ġgebaut":7099,"ribed":7100,"Ã¼d":7101,"Ġbattle":7102,"Ġgegessen":7103,"Ġbefre":7104,"ĠKÃ¼che":7105,"Ġworse":7106,"ruf":7107,"ĠJeff":7108,"ĠEuro":7109,"Ġthy":7110,"dass":7111,"ĠEntscheidung":7112,"Ġverkauft":7113,"Ġgift":7114,"imming":7115,"ugh":7116,"ĠTax":7117,"ĠWohl":7118,"ĠâĢ":7119,"ĠMill":7120,"Ġuncle":7121,"ĠLaw":7122,"ĠInformation":7123,"ragen":7124,"Ġfinal":7125,"Ġintrodu":7126,"ĠEgal":7127,"Ġgere":7128,"Ġsimple":7129,"cast":7130,"Ġwohnen":7131,"ĠBab":7132,"Ġjungen":7133,"Ġdeter":7134,"Ġlaid":7135,"Ġforty":7136,"Ġsuche":7137,"Ġreich":7138,"ĠJulia":7139,"Ġbound":7140,"ĠBay":7141,"Ġprin":7142,"ĠWand":7143,"zeichnet":7144,"passen":7145,"ria":7146,"elbe":7147,"ĠAustralia":7148,"ĠChines":7149,"SO":7150,"ĠOper":7151,"--\"":7152,".,":7153,"nes":7154,"Ġsprach":7155,"ĠverÃ¤ndert":7156,"Ġmussten":7157,"Ġzieht":7158,"ĠTro":7159,"ĠwÃ¼":7160,"ĠHunde":7161,"lem":7162,"Ġverstehst":7163,"ĠunmÃ¶glich":7164,"Ġlegen":7165,"Ġ2015":7166,"Ġfahr":7167,"Ġlines":7168,"Ġerreichen":7169,"ĠGÃ¤":7170,"ĠLA":7171,"prÃ¼":7172,"ĠSmith":7173,"UF":7174,"ĠTat":7175,"Ġleader":7176,"ĠHoffnung":7177,"ĠComputer":7178,"Ġnumbers":7179,"ÃŁt":7180,"aka":7181,"sequ":7182,"Ġcalling":7183,"ĠRen":7184,"fÃ¼hren":7185,"Ġdirected":7186,"She":7187,"ĠBell":7188,"ables":7189,"Ġdiscuss":7190,"ĠStill":7191,"ĠSystem":7192,"Ġdiscovered":7193,"etzte":7194,"ĠTurn":7195,"Ġlebe":7196,"iÃŁe":7197,"Ġagreed":7198,"ko":7199,"Ġsoul":7200,"Ġguard":7201,"ciety":7202,"ique":7203,"ĠLehrer":7204,"ĠRiesen":7205,"lass":7206,"Ġ2013":7207,"ĠCup":7208,"Ġrom":7209,"kins":7210,"Ġentscheiden":7211,"Ġgod":7212,"ĠNer":7213,"Ġweiss":7214,"Ġgelesen":7215,"ĠBefore":7216,"TUR":7217,"Ġgekauft":7218,"Ġdriving":7219,"Ġhill":7220,"Ġiron":7221,"ĠOther":7222,"ĠDaniel":7223,"ĠBord":7224,"Ġschaff":7225,"Ġplaced":7226,"Ġdarin":7227,"]!":7228,"Ġbite":7229,"Ġperfekt":7230,"ĠPak":7231,"itung":7232,"open":7233,"Ġarg":7234,"prechen":7235,"laden":7236,"Ġaction":7237,"Ġrap":7238,"Ġversuche":7239,"Ġmovies":7240,"Ġerinnere":7241,"ously":7242,"ography":7243,"ĠMÃ¶glichkeit":7244,"ĠBonn":7245,"cean":7246,"Ġenemy":7247,"Ġwelcome":7248,"rid":7249,"Ġbeein":7250,"Ġgespielt":7251,"ĠÅ":7252,"Ġniemanden":7253,"ensus":7254,"ehren":7255,"car":7256,"Ġwach":7257,"Ġ2012":7258,"Ġcrit":7259,"Ġrespons":7260,"Ġangry":7261,"eins":7262,"Ġinform":7263,"ĠDi":7264,"lei":7265,"Ġmiteinander":7266,"Ġneun":7267,"ĠTw":7268,"ĠChris":7269,"iegel":7270,"izin":7271,"ĠTasche":7272,"ĠSituation":7273,"Ġve":7274,"Ġfehl":7275,"Ġbee":7276,"Ġbeyond":7277,"ohol":7278,"ĠWÃ¤hr":7279,"ĠMuss":7280,"ĠMore":7281,"aturday":7282,"zul":7283,"Ġcomputer":7284,"these":7285,"ĠColonel":7286,"sta":7287,"ĠBÃ¼cher":7288,"ande":7289,"ĠSince":7290,"Ġign":7291,"ĠTheater":7292,"Ġtiny":7293,"bit":7294,"ĠÃ¼berras":7295,"Ġsteps":7296,"Ġchem":7297,"ĠDeut":7298,"oming":7299,"Ġseh":7300,"Ġheut":7301,"ights":7302,"URS":7303,"wing":7304,"ĠRede":7305,"ĠSekunden":7306,"pin":7307,"igaret":7308,"opping":7309,"anders":7310,"Ġfighting":7311,"Ġprivate":7312,"redit":7313,"Ġformed":7314,"ĠEuropean":7315,"ĠRoger":7316,"ĠgrÃ¶ÃŁte":7317,"Ġkm":7318,"ĠSchicksal":7319,"four":7320,"ĠBor":7321,"ending":7322,"Ġsau":7323,"ĠDreh":7324,"Ġarrived":7325,"Ġdollars":7326,"itude":7327,"utch":7328,"ĠTschÃ¼ss":7329,"rich":7330,"Ġsteckt":7331,"col":7332,"ĠStaat":7333,"Ġpan":7334,"ĠKost":7335,"Ġschen":7336,"Ġdressed":7337,"Fr":7338,"ĠOpfer":7339,"ĠLar":7340,"icious":7341,"pekt":7342,"Ġfindest":7343,"ĠFÃ¼nf":7344,"Ġeconom":7345,"ĠZuh":7346,"ucky":7347,"30":7348,"ĠPlay":7349,"uchs":7350,"ĠgegenÃ¼ber":7351,"IC":7352,"ĠWahnsinn":7353,"thur":7354,"Ġschwierig":7355,"ĠDoes":7356,"ĠgrÃ¶ÃŁer":7357,"Ġgemeinsam":7358,"'?":7359,"ionen":7360,"ĠWhile":7361,"Ġsoldiers":7362,"Ġverschwinden":7363,"ĠRy":7364,"fÃ¼hrer":7365,"ĠDabei":7366,"Ġradio":7367,"Ġentsp":7368,"Ġ2000":7369,"eless":7370,"200":7371,"Ġumbringen":7372,"ĠVery":7373,"Ġstupid":7374,"Ġlief":7375,"Ġentwick":7376,"bung":7377,"Ġhi":7378,"Ġsocial":7379,"ĠErw":7380,"Ġrabbit":7381,"Ġrufe":7382,"ĠSuch":7383,"ĠBescheid":7384,"Ġ&":7385,"Ġfil":7386,"ĠbeschÃ¤ft":7387,"ĠHE":7388,"asons":7389,"Ġchocolate":7390,"ĠKapit":7391,"Ġfragte":7392,"elen":7393,"Ã¤tzchen":7394,"ĠSE":7395,"Ġstorm":7396,"Ġplane":7397,"ovon":7398,"ĠHur":7399,"ĠSpanish":7400,"ĠcHFFFFFF":7401,"Ġtax":7402,"ĠZeig":7403,"Ġcoast":7404,"ĠLieber":7405,"pol":7406,"Ġpri":7407,"ĠHit":7408,"ĠWhich":7409,"ĠSunday":7410,"ĠFig":7411,"asing":7412,"Ġthrew":7413,"Ġimpro":7414,"ĠManche":7415,"uern":7416,"ĠDoctor":7417,"Ġraised":7418,"ĠText":7419,"utig":7420,"achel":7421,"lam":7422,"teilen":7423,"ĠZeichen":7424,"nam":7425,"ĠLage":7426,"Ġrough":7427,"Ġbeside":7428,"acher":7429,"ĠJoh":7430,"zi":7431,"Ġemplo":7432,"ĠOpa":7433,"Ġhistor":7434,"ppel":7435,"Ġupstairs":7436,"Ġrob":7437,"Ġmarket":7438,"Ġgilt":7439,"Ġmedic":7440,"lier":7441,"ĠGuck":7442,"ongress":7443,"ĠWeise":7444,"ĠNic":7445,"ĠEarth":7446,"Ġwohin":7447,"ĠTrain":7448,"Ġdrew":7449,"ĠBon":7450,"entral":7451,"Ġmissing":7452,"ĠHau":7453,"ĠEigentlich":7454,"aly":7455,"ĠMitte":7456,"iziert":7457,"isters":7458,"mbol":7459,"Ġstraw":7460,"ashion":7461,"Ġflying":7462,"ĠErfolg":7463,"ĠEmm":7464,"Ġeasily":7465,"Ġpolitical":7466,"Ġwatched":7467,"Ġbreath":7468,"ĠChic":7469,"Ġindust":7470,"ibr":7471,"ĠThree":7472,"ours":7473,"sieht":7474,"16":7475,"ĠGÃ¶t":7476,"Ġhappening":7477,"ĠEcht":7478,"Ġregular":7479,"ĠLiebes":7480,"Ġgrau":7481,"drÃ¼ck":7482,"ĠBunny":7483,"Ġ2008":7484,"Peter":7485,"Ġfolk":7486,"Mum":7487,"Ġhouses":7488,"LY":7489,"Ġsieh":7490,"geladen":7491,"à¬":7492,"ĠKno":7493,"Ġchamp":7494,"Ġmeint":7495,"ĠWol":7496,"ĠMod":7497,"Ġnar":7498,"ords":7499,"welt":7500,"Ġcivil":7501,"ĠTal":7502,"Ġrail":7503,"Ġdemand":7504,"offer":7505,"Ġheil":7506,"ĠKamera":7507,"Ġthick":7508,"Ġries":7509,"opfen":7510,"ĠgehÃ¶r":7511,"ĠMass":7512,"Ġonto":7513,"ĠJones":7514,"ĠHans":7515,"Ġsandwich":7516,"ĠAuss":7517,"ĠNed":7518,"west":7519,"soll":7520,"zte":7521,"iegen":7522,"lands":7523,"ĠschÃ¶ner":7524,"Ġcolors":7525,"Ã¼nstler":7526,"inary":7527,"Ã¤ude":7528,"Ġwart":7529,"steigen":7530,"ĠWissenschaft":7531,"pass":7532,"alitÃ¤t":7533,"Ġdifference":7534,"Ġfangen":7535,"Ã¼re":7536,"ashed":7537,"ĠRoll":7538,"ĠKlavier":7539,"Ġunc":7540,"Ġpulled":7541,"Ġoriginal":7542,"lad":7543,"Ġpsych":7544,"angt":7545,"ĠwÃ¼s":7546,"ĠBot":7547,"Ġhandle":7548,"Ġdeliver":7549,"Ġended":7550,"Ġclock":7551,"ĠVerstanden":7552,"Ġweather":7553,"Ġpuzzle":7554,"Ġschlagen":7555,"gypt":7556,"Ġtrip":7557,"Ġagree":7558,"ĠRem":7559,"ĠVaters":7560,"Ġmilitary":7561,"Ġspell":7562,"ĠBein":7563,"ĠSanta":7564,"ĠGang":7565,"Ġescape":7566,"Ġgebrau":7567,"ĠKaiser":7568,"ĠBeruf":7569,"ĠDist":7570,"roat":7571,"denken":7572,"Ġgesund":7573,"pfel":7574,"Ġcrew":7575,"oups":7576,"Ġjour":7577,"Ã¤rm":7578,"ingu":7579,"ros":7580,"Ġmat":7581,"Ã¼nde":7582,"Ġdriver":7583,"Ġbeob":7584,"Ġbesuchen":7585,"ĠProzent":7586,"ĠWE":7587,"ls":7588,"Ġkne":7589,"ĠPunkt":7590,"isiert":7591,"Ġcrowd":7592,"isation":7593,"Ġdefe":7594,"Ġsingt":7595,"Ġnachher":7596,"ĠFrem":7597,"Ġfilled":7598,"ĠBack":7599,"SS":7600,"setzen":7601,"Ġprofessional":7602,"irk":7603,"ĠArmen":7604,"Ġfurchtbar":7605,"Ġnee":7606,"Ġplann":7607,"ĠWien":7608,"Ġweap":7609,"iction":7610,"geld":7611,"hang":7612,"Ġbabies":7613,"Ġzahlen":7614,"Ġhiding":7615,"iot":7616,"Ar":7617,"Ġproud":7618,"ĠErinn":7619,"ĠSteve":7620,"ĠJimmy":7621,"fel":7622,"iest":7623,"Ġschlimmer":7624,"Ġabgesch":7625,"ĠBrot":7626,"ĠFirma":7627,"Ġwearing":7628,"Ġlim":7629,"Ġthreat":7630,"vell":7631,"Ġnature":7632,"ĠBom":7633,"laughing":7634,"ĠIsrael":7635,"Ġskin":7636,"ĠRegeln":7637,"treten":7638,"ĠKleiner":7639,"aine":7640,"ĠÃĦhm":7641,"ĠRus":7642,"...?":7643,"tin":7644,"also":7645,"Ġrauf":7646,"those":7647,"ĠCap":7648,"ĠHaar":7649,"Ġmeaning":7650,"ĠAbout":7651,"Ġannounced":7652,"eden":7653,"ĠMid":7654,"ĠRein":7655,"ctions":7656,"urer":7657,"Ġzweite":7658,"Ġrief":7659,"Ġtriff":7660,"ĠLoch":7661,"Ġbeach":7662,"Ġthinks":7663,"selben":7664,"Not":7665,"Ġregard":7666,"kten":7667,"onstr":7668,"ĠSchloss":7669,"Ġgate":7670,"ĠZusammen":7671,"five":7672,"ĠTau":7673,"Ġblocks":7674,"ĠExcuse":7675,"Ġwoods":7676,"Ġbelieved":7677,"Ġbewegen":7678,"Ġsurv":7679,"Ġenergy":7680,"feld":7681,"Ġcollege":7682,"Ġfalling":7683,"othe":7684,"oms":7685,"ĠHann":7686,"ĠCamp":7687,"Ġprotect":7688,"Ġstarting":7689,"Ġpleasure":7690,"Ġsetzt":7691,"Ġ2009":7692,"Ã¤chtig":7693,"Ġwound":7694,"Ġcompletely":7695,"Ġproduced":7696,"ĠItalien":7697,"Ġrelation":7698,"Ġhigher":7699,"berry":7700,"ĠPur":7701,"Ġmanner":7702,"Ġbekam":7703,"Ġsauber":7704,"Ġruf":7705,"Ġmoves":7706,"Ã¼hstÃ¼ck":7707,"oved":7708,"Ġnotice":7709,"Ġproject":7710,"Ġpuppet":7711,"ĠHÃ¤l":7712,"Ġverab":7713,"uhen":7714,"Ġbrauch":7715,"Ġnote":7716,"ĠJoseph":7717,"gesetzt":7718,"Then":7719,"Ġobser":7720,"Ġunglaublich":7721,"action":7722,"Ã¼llen":7723,"tÃ¤us":7724,"SISTER":7725,"bern":7726,"ĠFal":7727,"Ġtherefore":7728,"igs":7729,"Ġsurprised":7730,"kopf":7731,"erweise":7732,"Ġdangerous":7733,"ucks":7734,"Ġtolle":7735,"Ġamer":7736,"Ġhielt":7737,"Ġhuge":7738,"ua":7739,"ieben":7740,"Ġmissed":7741,"oÃŁen":7742,"ĠCont":7743,"ĠCour":7744,"Ġweitere":7745,"klÃ¤r":7746,"ĠMount":7747,"Ġschauen":7748,"Ġ500":7749,"Ġfeat":7750,"ĠEliz":7751,"Ġtradition":7752,"Ġseines":7753,"ĠBauch":7754,"ĠJerry":7755,"ĠPut":7756,"Ġherein":7757,"ĠBeim":7758,"tert":7759,"ĠWeile":7760,"ĠPartner":7761,"nahmen":7762,"Ġfruit":7763,"stop":7764,"keep":7765,"ui":7766,"Ġcere":7767,"Ġbother":7768,"Ġunver":7769,"vious":7770,"Ġstream":7771,"ĠKore":7772,"Ġbess":7773,"ĠMaster":7774,"fa":7775,"Ġgeliebt":7776,"Ġbemer":7777,"ĠstÃ¶hnt":7778,"Ġfreund":7779,"Ġinn":7780,"Ġapart":7781,"ĠMarg":7782,"vocalizes":7783,"Ġlid":7784,"ĠServ":7785,"Ġestabl":7786,"dog":7787,"etztes":7788,"Ġofficial":7789,"OO":7790,"ohen":7791,"ĠJac":7792,"Ġscene":7793,"Ġgoin":7794,"fle":7795,"ux":7796,"Ġspeaking":7797,"Ġrate":7798,"Ġanywhere":7799,"igr":7800,"Ġmor":7801,"indern":7802,"Ġshel":7803,"ĠSchÃ¼ler":7804,"Ġanst":7805,"ruction":7806,"ĠChurch":7807,"ĠEnergie":7808,"bra":7809,"zust":7810,"ĠOut":7811,"ĠNever":7812,"such":7813,"ikaner":7814,"Ġhadn":7815,"ĠAcc":7816,"Ġaussehen":7817,"Ġmeinte":7818,"Ġunless":7819,"Ġ2007":7820,"nisse":7821,"Ġmotor":7822,"Ġarch":7823,"Ġtaste":7824,"Ġdate":7825,"ĠGeorg":7826,"ĠÃ¶":7827,"rect":7828,"ĠWichtig":7829,"Ġ80":7830,"Ġexpected":7831,"Ġdrehen":7832,"ipper":7833,"ĠGewalt":7834,"ĠWild":7835,"ĠUnfall":7836,"wohner":7837,"Mar":7838,"ĠStrom":7839,"Ã±":7840,"ĠDay":7841,"incip":7842,"Ġlion":7843,"ĠEines":7844,"bu":7845,"Ġquarter":7846,"Ġtower":7847,"Ġbesteht":7848,"Ġadult":7849,"Ġslight":7850,"ĠfÃ¼hlt":7851,"heart":7852,"Ġsongs":7853,"ĠFarbe":7854,"ledge":7855,"ĠTri":7856,"ĠDou":7857,"ĠspÃ¼r":7858,"Ġshirt":7859,"Ġwand":7860,"SIB":7861,"ĠStat":7862,"Ġ190":7863,"Ġsimply":7864,"ĠÃľberraschung":7865,"Ġarticle":7866,"Ġbeginnt":7867,"ĠRoss":7868,"cour":7869,"ĠHum":7870,"iete":7871,"ĠGegend":7872,"ĠwÃ¼nschte":7873,"Ġinternational":7874,"inne":7875,"ĠKim":7876,"Ġpossess":7877,"irgend":7878,"Ġrichtigen":7879,"ffff":7880,"ĠSchwert":7881,"ĠDienst":7882,"ĠBeck":7883,"ĠGot":7884,"ĠGlo":7885,"ĠBi":7886,"iform":7887,"Ġlhr":7888,"Ġactor":7889,"ĠstÃ¤r":7890,"Ġsumm":7891,"Ġmostly":7892,"ĠVerk":7893,"Ġthus":7894,"ura":7895,"endung":7896,"picks":7897,"ĠCam":7898,"ĠKen":7899,"Ġroof":7900,"ĠwÃ¼tend":7901,"sive":7902,"UNG":7903,"Ġfault":7904,"Ġdeg":7905,"Ġ2006":7906,"Ġfantast":7907,"Thomas":7908,"Ġfern":7909,"Ġneedta":7910,"dad":7911,"ĠNik":7912,"sence":7913,"Ġmaterial":7914,"Ġgefahren":7915,"Ġexperience":7916,"ĠChicago":7917,"Ġwed":7918,"Ġsucht":7919,"ĠZieh":7920,"Ġkont":7921,"minister":7922,"Ġimmediately":7923,"lauf":7924,"Ġwohnt":7925,"Ġpun":7926,"Ġdust":7927,"Ġnest":7928,"ĠWÃ¤hrend":7929,"ĠKingdom":7930,"Ġscar":7931,"Ã¤ck":7932,"Ġtight":7933,"Ġkriege":7934,"Ġruft":7935,"puts":7936,"Ġsom":7937,"Ġgenannt":7938,"hip":7939,"Ġopport":7940,"ĠRuth":7941,"ĠSaturday":7942,"Ġbleibe":7943,"Ġhonest":7944,"Ġweder":7945,"ĠGÃ¼te":7946,"aks":7947,"shire":7948,"ĠBrÃ¼der":7949,"Ġwake":7950,"ĠKrank":7951,"brechen":7952,"mark":7953,"ĠWeihnachts":7954,"Ġcheek":7955,"oring":7956,"Ġnecessary":7957,"father":7958,"Ġhau":7959,"itzt":7960,"ĠHex":7961,"Ġhapp":7962,"Ġak":7963,"Ġcabin":7964,"Ġflat":7965,"Ġap":7966,"Ġerg":7967,"ĠNachrichten":7968,"ĠME":7969,"ental":7970,"Ġdasselbe":7971,"jÃ¤hr":7972,"ĠSerge":7973,"ĠhÃ¤ltst":7974,"iron":7975,"pect":7976,"ĠSummer":7977,"ĠEinfach":7978,"Ġsan":7979,"Ġern":7980,"Ã¼mm":7981,"Ġhotel":7982,"Ġmult":7983,"ĠDER":7984,"asten":7985,"ĠArthur":7986,"Ġdum":7987,"ordon":7988,"Ġaud":7989,"Ġleer":7990,"Ġfaith":7991,"ehle":7992,"Ã¤hne":7993,"ĠComp":7994,"ulen":7995,"Ġempty":7996,"ĠmÃ¶chten":7997,"Ġpleasant":7998,"Ġallow":7999,"lief":8000,"ĠÃĸff":8001,"ĠHilf":8002,"Ġcurrent":8003,"TEACHER":8004,"ĠWunsch":8005,"ĠMission":8006,"ĠFeind":8007,"annten":8008,"astic":8009,"stÃ¼ck":8010,"Ġtwice":8011,"Ġinj":8012,"Ġterms":8013,"hÃ¤ng":8014,"igger":8015,"iti":8016,"Ġduty":8017,"mh":8018,"ĠCouncil":8019,"ĠTÃ¶":8020,"Ġsinger":8021,"Ġnehm":8022,"zahl":8023,"fly":8024,"mommy":8025,"Ġgroups":8026,"ĠRevolution":8027,"ĠAtlant":8028,"ĠwÃ¼rd":8029,"Ġirgendwann":8030,"Ġpublished":8031,"ĠJwww":8032,"Ġexplain":8033,"Ġpleased":8034,"Ġnam":8035,"ĠNet":8036,"ĠMord":8037,"ĠVerm":8038,"ĠProv":8039,"Ġarrest":8040,"ĠGrÃ¶":8041,"ores":8042,"Ġjoy":8043,"Ġbrachte":8044,"Ġdeck":8045,"ĠAB":8046,"Ġsmoke":8047,"ĠGruppe":8048,"ĠJohnny":8049,"Ġcoach":8050,"Ġunivers":8051,"schreiben":8052,"ĠVergn":8053,"ĠGener":8054,"Ġexcited":8055,"ĠScot":8056,"ĠRam":8057,"Ġamaz":8058,"ĠPier":8059,"Ġassist":8060,"lig":8061,"hest":8062,"Ġbleibst":8063,"ĠschlÃ¤ft":8064,"ĠHÃ¤lfte":8065,"ĠKapitÃ¤n":8066,"Ġplain":8067,"Ġredet":8068,"Ġdessen":8069,"ĠChild":8070,"Ġinf":8071,"ators":8072,"Ġedge":8073,"Ġnaughty":8074,"ĠAutos":8075,"ults":8076,"bruch":8077,"Ġjourney":8078,"Ġcustom":8079,"Ã¤hrt":8080,"Ġdinosaur":8081,"ĠHy":8082,"ĠTun":8083,"Ġansehen":8084,"Ġsnake":8085,"Ġoffer":8086,"Ġhurry":8087,"ikum":8088,"IF":8089,"han":8090,"reut":8091,"Ġflower":8092,"Ġareas":8093,"ulf":8094,"urf":8095,"emals":8096,"AH":8097,"urity":8098,"ĠInternet":8099,"brother":8100,"Ġganzes":8101,"Ġselten":8102,"Ã¶sung":8103,"ĠON":8104,"ĠMÃ¤r":8105,"Ġusual":8106,"UNK":8107,"samkeit":8108,"ointed":8109,"Ġsettle":8110,"ĠMau":8111,"Ġcheer":8112,"ĠKontakt":8113,"Ġbrief":8114,"Ġgeschlafen":8115,"macht":8116,"Ġballo":8117,"Ġgrown":8118,"ĠGentle":8119,"Ã¤chter":8120,"Die":8121,"ĠSÃ¼d":8122,"Ġentschuldigen":8123,"ĠSkla":8124,"ĠKug":8125,"Ġfeiern":8126,"Ġmicro":8127,"ĠUp":8128,"Ã¼chtig":8129,"Ġwit":8130,"ĠHem":8131,"ĠJag":8132,"ĠRome":8133,"Ġpound":8134,"ĠTot":8135,"oted":8136,"hh":8137,"ooper":8138,"Gr":8139,"ĠGab":8140,"Ġmum":8141,"Ġhid":8142,"Ġstock":8143,"ĠFernsehen":8144,"ĠThema":8145,"takes":8146,"Ġerfol":8147,"Ġwitz":8148,"Ġmunicipality":8149,"NT":8150,"ohn":8151,"zin":8152,"ĠBye":8153,"annel":8154,"ĠStart":8155,"after":8156,"seits":8157,"ĠBrÃ¼cke":8158,"ims":8159,"Ġjedoch":8160,"Ġnix":8161,"itation":8162,"ĠBrun":8163,"ĠHir":8164,"far":8165,"Ã¤ten":8166,"ĠFab":8167,"Ġentfernt":8168,"riffen":8169,"Ġversteckt":8170,"ĠWalter":8171,"hor":8172,"Ġteddy":8173,"ĠLisa":8174,"Ġbegle":8175,"Ġlights":8176,"Ġadvent":8177,"mos":8178,"antas":8179,"linge":8180,"Ġpurpose":8181,"UM":8182,"ĠCast":8183,"stelle":8184,"ckte":8185,"Ġdeines":8186,"Ġindivid":8187,"Ġpit":8188,"Ġzufrieden":8189,"Ġextrem":8190,"ĠtatsÃ¤chlich":8191,"Ġschne":8192,"Ġstrength":8193,"Ã¼he":8194,"ĠtrÃ¤gt":8195,"ĠPerhaps":8196,"ĠTa":8197,"uster":8198,"ibility":8199,"Ġhallo":8200,"Ġlake":8201,"Ġheads":8202,"ĠKlo":8203,"ĠfÃ¼rchte":8204,"Ġruin":8205,"ĠAfrica":8206,"ĠschieÃŁen":8207,"sl":8208,"kerl":8209,"ti":8210,"VER":8211,"ushes":8212,"Ġjemals":8213,"Ġerhalten":8214,"Ġdisp":8215,"Ġeager":8216,"Ġrank":8217,"ĠBeeil":8218,"Ġklingelt":8219,"beh":8220,"Ġoccur":8221,"itan":8222,"ĠCanada":8223,"same":8224,"iser":8225,"Ġoccup":8226,"ĠRussian":8227,"Ġverfol":8228,"ĠItaly":8229,"elebr":8230,"Ġsugar":8231,"Ġlebend":8232,"gent":8233,"gaben":8234,"ĠHold":8235,"Ġgrab":8236,"ĠPsych":8237,"ĠErfahr":8238,"Ġverz":8239,"Ġawful":8240,"Ġbi":8241,"istic":8242,"Ġofficers":8243,"Ġlocated":8244,"agement":8245,"ĠSchutz":8246,"ĠWood":8247,"Ġkostet":8248,"Ġtears":8249,"ĠBib":8250,"HT":8251,"Ġpromised":8252,"ĠBald":8253,"ĠEcke":8254,"Ġtrick":8255,"Ġow":8256,"ĠSchwanz":8257,"ĠGrandma":8258,"Ġtong":8259,"ĠJew":8260,"Ġnahe":8261,"Ġevidence":8262,"inke":8263,"Ġshoe":8264,"aving":8265,"ube":8266,"richten":8267,"chem":8268,"cr":8269,"Ġearlier":8270,"bisschen":8271,"vert":8272,"Ġscient":8273,"ĠSchritt":8274,"Ġsupper":8275,"ishes":8276,"ĠMister":8277,"schre":8278,"Ġamerikan":8279,"ossible":8280,"Ġgestohlen":8281,"ĠEinzige":8282,"ĠAufgabe":8283,"apa":8284,"ĠItalian":8285,"oured":8286,"Ġrese":8287,"ĠzerstÃ¶rt":8288,"Ġtone":8289,"Ã¤ne":8290,"ĠDruck":8291,"ĠBeziehung":8292,"Ġfreue":8293,"somet":8294,"yed":8295,"ĠSun":8296,"merk":8297,"schung":8298,"Ġsmart":8299,"ĠKol":8300,"Ġstruck":8301,"Ġchoice":8302,"Ġisst":8303,"ĠMilit":8304,"ĠBal":8305,"Ġgrowing":8306,"ĠHose":8307,"Ġehe":8308,"Ġwicht":8309,"Ġdefinit":8310,"Ġplants":8311,"Ġjemandem":8312,"cries":8313,"ĠhÃ¤ngen":8314,"ĠWach":8315,"ĠNat":8316,"ĠOhren":8317,"Ġcensus":8318,"Ġschrecklich":8319,"ĠCould":8320,"Ã¤tzen":8321,"ĠMonster":8322,"while":8323,"Ġderen":8324,"Ġguns":8325,"Ġopening":8326,"Ġvorbe":8327,"Ġsour":8328,"ĠEgypt":8329,"ĠSchnee":8330,"Ġordered":8331,"Ġguest":8332,"immung":8333,"istics":8334,"ĠSonnt":8335,"Ġdare":8336,"KE":8337,"ĠFur":8338,"Ġgesucht":8339,"uell":8340,"ĠWÃ¤re":8341,"ĠLeon":8342,"Ġcondu":8343,"ĠBravo":8344,"ify":8345,"ĠMinute":8346,"mitted":8347,"zil":8348,"Ġruns":8349,"Ġstret":8350,"Ġnoticed":8351,"Ġdur":8352,"Ġswimming":8353,"Ġdun":8354,"Ġhinge":8355,"alte":8356,"ĠOoh":8357,"ĠhÃ¤ngt":8358,"Ġliter":8359,"auty":8360,"ichst":8361,"ĠLucy":8362,"Ã¶pfe":8363,"STE":8364,"Ġdefen":8365,"Ġmensch":8366,"ometer":8367,"ĠMik":8368,"ĠKuh":8369,"ado":8370,"ĠHÃ¤nden":8371,"Ġromant":8372,"ĠBraut":8373,"ĠPri":8374,"Ġmagic":8375,"Ġbackground":8376,"Ġgolden":8377,"ĠZuf":8378,"ĠFried":8379,"Ġgearbeitet":8380,"stÃ¤ndig":8381,"SOA":8382,"NA":8383,"ader":8384,"Ġspoken":8385,"Ġmyster":8386,"ĠSometimes":8387,"Ġstirbt":8388,"ĠTher":8389,"Ġsele":8390,"Ġ35":8391,"ĠVerein":8392,"bten":8393,"Ġcarefully":8394,"Ġexpand":8395,"Ġjen":8396,"Ġbrill":8397,"water":8398,"ĠUrlaub":8399,"ĠSay":8400,"Ġinvolved":8401,"Ġscream":8402,"ĠMitg":8403,"Ã¼ch":8404,"Ġrule":8405,"wan":8406,"Ġplenty":8407,"ĠLandes":8408,"ĠScher":8409,"Ġsaved":8410,"aled":8411,"Ġfounded":8412,"ĠSchuss":8413,"odes":8414,"Ġmitnehmen":8415,"Ġ300":8416,"Ġpersonal":8417,"Ġerwarten":8418,"Ġnachdem":8419,"Ġfein":8420,"ĠFlasche":8421,"ĠVergangen":8422,"brau":8423,"Ġneg":8424,"ĠChief":8425,"ifer":8426,"ĠChinese":8427,"Ġvorbere":8428,"Ġseltsam":8429,"Ġangel":8430,"Ġrepar":8431,"Ġversion":8432,"zub":8433,"ĠUnsinn":8434,"fÃ¤llig":8435,"ĠAngeb":8436,"Ġfarmer":8437,"ĠStaats":8438,"bro":8439,"ĠDrogen":8440,"ĠSeiten":8441,"ĠPapier":8442,"Leo":8443,"mÃ¤ÃŁ":8444,"ĠRand":8445,"ĠAuftrag":8446,"ĠTob":8447,"Ġgoodness":8448,"Ġshoulder":8449,"Ġbleib":8450,"ĠGesprÃ¤ch":8451,"ĠKoffer":8452,"zehn":8453,"OS":8454,"ĠOhr":8455,"Ġlucky":8456,"Ġschwe":8457,"Ġbestimm":8458,"ĠAlexander":8459,"elly":8460,"asty":8461,"Ġcart":8462,"looking":8463,"Ġsorgen":8464,"Ġseien":8465,"ĠMÃ¤nnern":8466,"Ġbrush":8467,"ĠWetter":8468,"ĠGebÃ¤ude":8469,"Ġpair":8470,"ĠEngel":8471,"wehr":8472,"Ġsauer":8473,"Ġversteht":8474,"Ġyouth":8475,"Ġdeswegen":8476,"Ġladies":8477,"Ġlistening":8478,"Ġobwohl":8479,"ĠBew":8480,"ĠÃ¼brig":8481,"Ġtaught":8482,"ruck":8483,"ination":8484,"eg":8485,"ĠKolle":8486,"ĠhÃ¶rst":8487,"ĠÃ¤hnlich":8488,"ĠNar":8489,"ahres":8490,"satz":8491,"zing":8492,"Ġlips":8493,"Ġcenter":8494,"ĠSimon":8495,"ĠParl":8496,"Ġunf":8497,"ples":8498,"ĠZeitung":8499,"ĠDutch":8500,"hah":8501,"iens":8502,"sterreich":8503,"ĠVerstehst":8504,"Ġdise":8505,"ĠQuatsch":8506,"Ġlangen":8507,"ĠschÃ¶nes":8508,"zuh":8509,"sell":8510,"riere":8511,"imer":8512,"ĠDumm":8513,"Ġbegann":8514,"schiff":8515,"ito":8516,"schrift":8517,"Ġhervor":8518,"ĠpersÃ¶nlich":8519,"ca":8520,"ĠFeld":8521,"Ġredu":8522,"opher":8523,"ĠSur":8524,"Ġverwand":8525,"Ġcrack":8526,"Ġentlang":8527,"ĠFour":8528,"Ġancient":8529,"chester":8530,"ĠKommst":8531,"flug":8532,"ĠHolly":8533,"illen":8534,"Ġsmaller":8535,"Ġelection":8536,"Ġsolange":8537,"ĠKlappe":8538,"ĠParte":8539,"ĠGlÃ¼ckw":8540,"Ġverdienen":8541,"Ġwisst":8542,"chnet":8543,"Ġstellt":8544,"ĠFrÃ¼hstÃ¼ck":8545,"Un":8546,"ĠZust":8547,"ĠVÃ¶gel":8548,"whoops":8549,"ando":8550,"Ġexh":8551,"Ġoppos":8552,"king":8553,"Ġchap":8554,"Ġsides":8555,"Ġleisten":8556,"Ġspann":8557,"Right":8558,"host":8559,"Ã¤nen":8560,"ĠVal":8561,"reibe":8562,"Ġsolchen":8563,"ograf":8564,"ĠKontrolle":8565,"edet":8566,"ĠBrad":8567,"ĠLieutenant":8568,"ĠEdward":8569,"Ġepis":8570,"ĠPenn":8571,"ĠPrin":8572,"ĠKarl":8573,"rin":8574,"RYA":8575,"Ġ()":8576,"ĠCharl":8577,"orfen":8578,"Ġplat":8579,"Ġbrain":8580,"ĠAfri":8581,"Ġknife":8582,"Ġbless":8583,"gott":8584,"ĠTeddy":8585,"sonst":8586,"Ġkeeping":8587,"Ã¤lte":8588,"vy":8589,"rap":8590,"ĠDeswegen":8591,"Ġtitle":8592,"another":8593,"ĠEhren":8594,"Ġ1990":8595,"oking":8596,"Ġcommunity":8597,"etch":8598,"Ġaussieht":8599,"should":8600,"Ġmessage":8601,"Ġmistake":8602,"ikel":8603,"Ġimagine":8604,"ĠOnce":8605,"Ġfemale":8606,"Ġtiger":8607,"Ġwatches":8608,"jen":8609,"ĠFlie":8610,"Ġtells":8611,"ÃĥÅĴr":8612,"ĠGefallen":8613,"ĠDazu":8614,"ĠHas":8615,"ĠKarten":8616,"ĠAnwalt":8617,"----------------":8618,"Ġamb":8619,"Ġappar":8620,"ĠKo":8621,"fahrt":8622,"dings":8623,"ĠschlieÃŁlich":8624,"hallo":8625,"Ġoil":8626,"Ġverraten":8627,"sver":8628,"ĠThose":8629,"rr":8630,"Ġdouble":8631,"Ġverschiedene":8632,"Ġclaim":8633,"Ġteil":8634,"ĠAngriff":8635,"ĠGeschichten":8636,"ĠZuhause":8637,"ieht":8638,"ĠHA":8639,"Ġpropert":8640,"feren":8641,"ĠTed":8642,"ĠAndy":8643,"Ġvert":8644,"zeigt":8645,"Ġbatter":8646,"ĠGÃ¤ste":8647,"ophie":8648,"ĠSchmerz":8649,"endes":8650,"iano":8651,"ĠFlorida":8652,"ĠMick":8653,"Ġfellows":8654,"his":8655,"sn":8656,"ĠSchweiz":8657,"Ġchanges":8658,"ockey":8659,"Ġunseres":8660,"Ġverschwunden":8661,"adow":8662,"gency":8663,"Ġchoose":8664,"Ġsurround":8665,"aham":8666,"ologie":8667,"Ġprotest":8668,"Ġenter":8669,"Ġmouse":8670,"ĠFÃ¤":8671,"oben":8672,"ĠHeimat":8673,"Ġshown":8674,"ĠgroÃŁartig":8675,"Ġfreuen":8676,"getan":8677,"make":8678,"ĠEben":8679,"ĠSekunde":8680,"stre":8681,"kon":8682,"ĠVER":8683,"Ġwalks":8684,"Ã¤hle":8685,"ented":8686,"Ġaufgeh":8687,"ĠmÃ¶chtest":8688,"setz":8689,"ademy":8690,"ĠTodes":8691,"Ġmale":8692,"Ġacqu":8693,"ĠSyl":8694,"ĠRepublic":8695,"ĠElizabeth":8696,"Ġfiel":8697,"ĠZahn":8698,"Ġbowl":8699,"gewÃ¶hn":8700,"ĠHan":8701,"ĠungefÃ¤hr":8702,"Ġ2005":8703,"osta":8704,"Se":8705,"Ġweight":8706,"ĠSpain":8707,"ĠKreuz":8708,"sing":8709,"ĠPosition":8710,"bly":8711,"weder":8712,"ĠOst":8713,"Ġbutton":8714,"Ġbenutzt":8715,"Ġ[?":8716,"known":8717,"Ġeducation":8718,"ĠVergangenheit":8719,"ĠMeinst":8720,"Ġorders":8721,"Ġstehe":8722,"blings":8723,"Ġmovement":8724,"Ġemot":8725,"Ġmeal":8726,"Ġwitzig":8727,"VAL":8728,"ĠLok":8729,"innt":8730,"ĠWa":8731,"aling":8732,"ĠKath":8733,"oned":8734,"Ġnewsp":8735,"ĠVergnÃ¼gen":8736,"Ġremained":8737,"Ġmeth":8738,"ĠMami":8739,"ĠEIN":8740,"Ġdesp":8741,"ĠPrince":8742,"Ġdirector":8743,"ĠâĮĪ":8744,"CAT":8745,"Ġstairs":8746,"Ġbedroom":8747,"Ġlies":8748,"unnel":8749,"ĠWerk":8750,"Ġerkennen":8751,"Ġtrade":8752,"ĠRespekt":8753,"ĠCat":8754,"ĠstÃ¼r":8755,"Ġletzter":8756,"Ġhello":8757,"âĮī.":8758,"Ġlauter":8759,"ĠFernseh":8760,"blue":8761,"Ġunterst":8762,"ĠChampionship":8763,"Ġrange":8764,"ĠBear":8765,"Ġgenerally":8766,"ativ":8767,"Ġlon":8768,"ĠDE":8769,"ĠMas":8770,"ĠHeld":8771,"ĠBrian":8772,"ĠSchok":8773,"ĠBauern":8774,"ĠTaxi":8775,"ĠWall":8776,"Ġcloser":8777,"ĠWozu":8778,"ĠMur":8779,"Ġsurface":8780,"Ġcelebr":8781,"ĠSofort":8782,"ĠLove":8783,"Ġrapid":8784,"ĠStopp":8785,"utlich":8786,"Ġbenutzen":8787,"ĠhÃ¶ch":8788,"ittee":8789,"ipl":8790,"ĠKuchen":8791,"othy":8792,"gern":8793,"irate":8794,"ĠblÃ¶d":8795,"Ġassoci":8796,"ĠGefÃ¼hle":8797,"Ġmitten":8798,"Ġmanaged":8799,"ĠTHAT":8800,"Ġprincip":8801,"Ġslide":8802,"umer":8803,"ĠHÃ¶rst":8804,"JEN":8805,"Ġgingen":8806,"Ġuner":8807,"quar":8808,"Ġerwischt":8809,"tes":8810,"ĠCha":8811,"ĠRE":8812,"going":8813,"kind":8814,"ĠWestern":8815,"ĠAL":8816,"ĠEndlich":8817,"urb":8818,"Ġhero":8819,"Ġzweiten":8820,"âĮĬ":8821,"ares":8822,"Ġgrat":8823,"Ġ189":8824,"Ġemer":8825,"Ġheat":8826,"Ġprepared":8827,"Ġcalm":8828,"Ġschwarz":8829,"Ġfirm":8830,"ĠGn":8831,"Ġangeb":8832,"Ġrocks":8833,"Ġavail":8834,"fest":8835,"Ã¤usch":8836,"Ġgentleman":8837,"ellent":8838,"ĠAlbert":8839,"Ġdauer":8840,"ĠPatient":8841,"Ġbal":8842,"omer":8843,"ani":8844,"ĠIS":8845,"ĠJenn":8846,"Ġseuf":8847,"Ġ2004":8848,"ĠBetr":8849,"ĠCO":8850,"selbe":8851,"ieÃŁt":8852,"Ġklapp":8853,"Ġcalls":8854,"zeugen":8855,"ĠVerantwort":8856,"Ġpause":8857,"ĠOrgan":8858,"Ġ90":8859,"ĠBrazil":8860,"Ġash":8861,"Ġaged":8862,"Ġ70":8863,"Ġreaches":8864,"ĠJahrhundert":8865,"every":8866,"ĠPoliz":8867,"Ġdetermin":8868,"Ġworried":8869,"ĠGroÃŁvater":8870,"ĠArmy":8871,"Ã¼hlt":8872,"ĠLieblings":8873,"Ġwoo":8874,"ĠFriday":8875,"herr":8876,"icated":8877,"ĠStau":8878,"schlagen":8879,"Ġjumped":8880,"isn":8881,"gegen":8882,"ĠJake":8883,"âĮĭ.":8884,"via":8885,"Ġ186":8886,"Ġinner":8887,"aches":8888,"Ġbene":8889,"ĠBir":8890,"Ġmitgebracht":8891,"Ġaddress":8892,"ĠKÃ¤mp":8893,"ĠSteven":8894,"Ġ2001":8895,"Ġbuck":8896,"Ġdancing":8897,"Ġseconds":8898,"gedacht":8899,"Ġtries":8900,"Ġevident":8901,"ĠCare":8902,"Ġstecken":8903,"Ġsuggested":8904,"Ġox":8905,"ĠOliver":8906,"Ġerledigt":8907,"Ġcases":8908,"ĠKÃ¼nstler":8909,"ĠDanny":8910,"iat":8911,"ohle":8912,"Ã¶lker":8913,"adel":8914,"Nin":8915,"Ġneither":8916,"Ġfrem":8917,"Come":8918,"ishment":8919,"Ġbegins":8920,"Ġinqu":8921,"Ġtraining":8922,"Ġprovince":8923,"ĠSub":8924,"ĠWartet":8925,"Ġmagst":8926,"ĠStern":8927,"teilt":8928,"ĠPau":8929,"ĠNee":8930,"Ġbrave":8931,"endent":8932,"verstÃ¤ndlich":8933,"Ġevents":8934,"Ġqual":8935,"Ġtour":8936,"Ã¼ste":8937,"Ġleiden":8938,"Ã¤ufer":8939,"win":8940,"ĠAward":8941,"ĠGlÃ¼ckwunsch":8942,"amber":8943,"whisper":8944,"Ġwillkommen":8945,"Ġliebst":8946,"Ġfixed":8947,"Ġkannte":8948,"Ġ45":8949,"ĠVe":8950,"Ġrow":8951,"ĠenttÃ¤us":8952,"ĠSqu":8953,"ĠLager":8954,"allt":8955,"afen":8956,"Ġkinds":8957,"ĠlÃ¤ngst":8958,"ĠEinige":8959,"Ã¤hlen":8960,"Ġverboten":8961,"Ġpil":8962,"ĠBa":8963,"unting":8964,"ĠRod":8965,"ĠStuhl":8966,"iament":8967,"igten":8968,"logen":8969,"gewirr":8970,"Ġbloody":8971,"ĠKate":8972,"Ġumgebracht":8973,"teilung":8974,"ĠMesser":8975,"Ġsevent":8976,"ĠGrab":8977,"ĠSteuer":8978,"ĠTiger":8979,"ennst":8980,"Ġerfolg":8981,"vi":8982,"ili":8983,"pel":8984,"heast":8985,"Ġboo":8986,"Ġgewusst":8987,"ĠBrie":8988,"gegangen":8989,"zum":8990,"ĠRÃ¶":8991,"oughs":8992,"Ġtrail":8993,"ĠStory":8994,"ĠSetzen":8995,"ĠSollen":8996,"ĠMÃ¶rder":8997,"Ã¼tte":8998,"ĠÃ¼bel":8999,"Ġpill":9000,"oma":9001,"icer":9002,"Ġleading":9003,"ĠbeschÃ¤ftigt":9004,"zo":9005,"Ġcards":9006,"olfen":9007,"ĠInformationen":9008,"Und":9009,"Ġkrieg":9010,"ading":9011,"Ġdeveloped":9012,"ĠJub":9013,"Ġ188":9014,"Ġprice":9015,"itted":9016,"Ġpool":9017,"ĠFÃ¼ÃŁe":9018,"Ġdownstairs":9019,"bow":9020,"Ġvac":9021,"ĠAnother":9022,"Ġresearch":9023,"ĠRick":9024,"SCH":9025,"Ġzus":9026,"pet":9027,"ĠCool":9028,"riest":9029,"verstanden":9030,"ĠFreunden":9031,"ĠPaar":9032,"uns":9033,"Ġgleichen":9034,"Ġshowing":9035,"Ġpurple":9036,"ĠAngeles":9037,"ĠMone":9038,"Ġcousin":9039,"Ġrelationship":9040,"ĠBang":9041,"Ġoccasion":9042,"azine":9043,"ĠEddie":9044,"nde":9045,"Ġ...(":9046,"Ġshouted":9047,"Ġtelephone":9048,"ĠBost":9049,"ĠGi":9050,"Ġexec":9051,"ĠStimmengewirr":9052,"Ġsalt":9053,"Ġzeige":9054,"ĠLong":9055,"Ġimpossible":9056,"ĠTermin":9057,"ceeded":9058,"ĠdrÃ¼ber":9059,"ssen":9060,"Ġgep":9061,"bleiben":9062,"ĠÃ¤lter":9063,"note":9064,"Ġappre":9065,"Ġga":9066,"Ġfourth":9067,"ĠGas":9068,"Ã¶ffnet":9069,"Ġfaces":9070,"ĠfÃ¤hrst":9071,"ĠAgent":9072,"ĠnervÃ¶s":9073,"ĠMÃ¼n":9074,"Ġcarrying":9075,"ĠWochenende":9076,"Ġelectric":9077,"40":9078,"ĠBow":9079,"ĠNeues":9080,"Ġkre":9081,"ĠBast":9082,"Ġtongue":9083,"onse":9084,"Ã¼m":9085,"Ġerreicht":9086,"Let":9087,"ĠToten":9088,"Ġerz":9089,"Ġhelfe":9090,"Ġinteressant":9091,"ĠStreit":9092,"Ġforgotten":9093,"Mr":9094,"ĠBessie":9095,"ĠPlaneten":9096,"ĠIll":9097,"istr":9098,"Ġuses":9099,"ĠBarbar":9100,"worth":9101,"ĠReden":9102,"babbles":9103,"Ġeingesch":9104,"ĠBrand":9105,"Ġ31":9106,"Ġirre":9107,"Ġbedeuten":9108,"Ġinvestig":9109,"ĠHill":9110,"ĠKas":9111,"Ġneuer":9112,"ective":9113,"Ġ;":9114,"ĠFeder":9115,"ĠRud":9116,"ĠWÃ¤":9117,"ĠAlf":9118,"ĠPhilipp":9119,"Ġincluded":9120,"wend":9121,"Ã¼hen":9122,"ij":9123,"Ã¤glich":9124,"ĠSchrift":9125,"wechsel":9126,"Ġabsolutely":9127,"Ġpercent":9128,"bal":9129,"ĠBevor":9130,"ential":9131,"ĠgrÃ¶ÃŁten":9132,"nach":9133,"ELL":9134,"Ġabgeh":9135,"Ġmedicine":9136,"ware":9137,"ĠVirgin":9138,"Ġeverywhere":9139,"ĠInstit":9140,"Ġbeginnen":9141,"Ġnimmst":9142,"Ġtrifft":9143,"Ġansch":9144,"Ġniemandem":9145,"Ġrules":9146,"Ġstates":9147,"Ġplans":9148,"Ã¶rung":9149,"Ġmotion":9150,"Ġclimb":9151,"Ġweak":9152,"rett":9153,"Ġfashion":9154,"icles":9155,"Ġloves":9156,"ĠJess":9157,"Ġdaraus":9158,"ĠTrink":9159,"ĠGreek":9160,"Ġpoet":9161,"ĠObwohl":9162,"Ġdescri":9163,"erlich":9164,"ĠGordon":9165,"ĠWid":9166,"Ġindem":9167,"ĠLake":9168,"Ġfinding":9169,"kung":9170,"iene":9171,"Ġcomplete":9172,"Ġcities":9173,"ĠHÃ¼hn":9174,"Ġbits":9175,"ĠSchÃ¶nheit":9176,"Ġfifteen":9177,"Ġrights":9178,"ĠAllah":9179,"ĠRh":9180,"Ġschlechte":9181,"oto":9182,"ĠKamer":9183,"icket":9184,"Ġangefangen":9185,"Ġihres":9186,"Ġpractice":9187,"suchen":9188,"ĠEind":9189,"Ġrepla":9190,"ĠfÃ¤ngt":9191,"ification":9192,"Ġnachts":9193,"Ġspeech":9194,"eteen":9195,"Ġopportunity":9196,"Ġdrag":9197,"ĠRichter":9198,"arily":9199,"ĠCall":9200,"ighter":9201,"ĠNorden":9202,"ĠRon":9203,"ĠYoung":9204,"laut":9205,"Ġgeredet":9206,"ĠSusan":9207,"Ġ32":9208,"ĠhieÃŁ":9209,"Ġwheels":9210,"lein":9211,"phe":9212,"ichert":9213,"amas":9214,"Ġlanguages":9215,"ĠSn":9216,"Ġgrade":9217,"glÃ¼ck":9218,"Ġships":9219,"bout":9220,"ussy":9221,"Ġschreibt":9222,"ĠStu":9223,"fig":9224,"Ġwider":9225,"illed":9226,"Ġentschieden":9227,"ĠAf":9228,"Ġaufre":9229,"ĠVerf":9230,"Ġgefangen":9231,"iao":9232,"Ġgemeint":9233,"Ġactress":9234,"nete":9235,"Ġrund":9236,"Ġbisher":9237,"Ġfreut":9238,"Ġstayed":9239,"ighs":9240,"ĠMaul":9241,"ota":9242,"Ġschmeckt":9243,"ĠgrÃ¼":9244,"ĠBox":9245,"Ġmalen":9246,"ĠHoffentlich":9247,"eta":9248,"Ġsteh":9249,"ĠAlk":9250,"ĠGefangen":9251,"ĠWahrscheinlich":9252,"ĠReihe":9253,"ĠKart":9254,"izing":9255,"Ġdavor":9256,"Ġgeschlossen":9257,"aries":9258,"ĠTrans":9259,"could":9260,"ĠGro":9261,"ilden":9262,"Ġoffered":9263,"Ã¼ndet":9264,"ĠDoc":9265,"ĠRobin":9266,"Ġmountains":9267,"Ġcraw":9268,"ĠLife":9269,"werden":9270,"Ġgewartet":9271,"Ġtar":9272,"Ġgall":9273,"umn":9274,"Ġ1980":9275,"ĠKeep":9276,"Ġbomb":9277,"bew":9278,"',":9279,"ĠFahren":9280,"Ġbrothers":9281,"Ġwei":9282,"Ġopin":9283,"ĠSow":9284,"Ġscrew":9285,"ĠEmpire":9286,"ĠGriff":9287,"Ġalarm":9288,"Ġstyle":9289,"anchol":9290,"fish":9291,"Ġeingeladen":9292,"ĠSchwer":9293,"ocrat":9294,"Ġaddition":9295,"Ġgesp":9296,"Ġlaun":9297,"Ġtent":9298,"ĠCorn":9299,"hemat":9300,"Ġmodel":9301,"Ġpin":9302,"Ġhilf":9303,"Ġcentre":9304,"bast":9305,"mission":9306,"eme":9307,"Ġ00":9308,"think":9309,"Ġverantwort":9310,"Ġexpen":9311,"ĠFrÃ¼her":9312,"Ġcondition":9313,"otten":9314,"Ġstruct":9315,"Ġwalls":9316,"ĠÅ¸":9317,"Ġdrinking":9318,"ĠCla":9319,"aki":9320,"Ġweinen":9321,"aron":9322,"alie":9323,"ĠUND":9324,"ressen":9325,"Ġopposite":9326,"ĠKuss":9327,"ĠWÃ¼rde":9328,"Ġlasst":9329,"Ġkur":9330,"Ġknee":9331,"Ġlangweil":9332,"viron":9333,"ĠHad":9334,"Ġcookie":9335,"Ġaver":9336,"ĠGreg":9337,"Ã¶lf":9338,"lan":9339,"oÃŁ":9340,"ĠGE":9341,"anzt":9342,"à¥":9343,"Ġdreht":9344,"Ġshake":9345,"Ġfliegt":9346,"Ġcorrect":9347,"mein":9348,"ĠKurz":9349,"Ġappearance":9350,"ĠHÃ¤tte":9351,"Ã¤st":9352,"arts":9353,"Ġgeheim":9354,"ĠNerven":9355,"kam":9356,"Ġdunkel":9357,"genau":9358,"De":9359,"ĠFast":9360,"Ġremind":9361,"Ġgeblieben":9362,"ĠHoll":9363,"ĠIns":9364,"Ġblieb":9365,"altet":9366,"Ste":9367,"ĠZucker":9368,"ĠDeb":9369,"Ġadop":9370,"Ġwelcher":9371,"ĠMatt":9372,"Ġheaven":9373,"Ġseht":9374,"Ġdoc":9375,"Ġsuccessful":9376,"Ġeuren":9377,"Ġremain":9378,"gezogen":9379,"anzÃ¶s":9380,"Ġstands":9381,"ĠLeider":9382,"ĠSonntag":9383,"weet":9384,"rif":9385,"Ġsmiled":9386,"Ġeigenes":9387,"isher":9388,"Ġcontinues":9389,"losen":9390,"ĠEverything":9391,"ĠBonnet":9392,"ĠBoston":9393,"Ġschwimmen":9394,"ension":9395,"ifel":9396,"Ġrecover":9397,"vels":9398,"Ġhonor":9399,"ĠLen":9400,"ĠGehirn":9401,"ADULT":9402,"ĠPie":9403,"Ġnem":9404,"Ġkitty":9405,"ĠCra":9406,"Ġzuvor":9407,"ĠKennst":9408,"Ġstudents":9409,"ĠMand":9410,"Ġarme":9411,"Ġsuc":9412,"Ġprevent":9413,"Ġaward":9414,"hee":9415,"arbeiter":9416,"ĠAlthough":9417,"uchten":9418,"ĠEric":9419,"ĠschwÃ¶re":9420,"Ġnomin":9421,"Ġconv":9422,"ĠMaschine":9423,"Ġmud":9424,"ilde":9425,"ĠBesonder":9426,"iber":9427,"ira":9428,"Ġmonster":9429,"Ġdoors":9430,"ĠVertrauen":9431,"BE":9432,"Ġfund":9433,"icans":9434,"Ġdecision":9435,"Ġneighbor":9436,"GER":9437,"inson":9438,"ols":9439,"Ġshell":9440,"vere":9441,"Ġcott":9442,"ĠExper":9443,"zzz":9444,"Ġbesche":9445,"ram":9446,"Ġpants":9447,"inct":9448,"Ġlern":9449,"Ġideas":9450,"Ġdevelopment":9451,"ĠFuÃŁball":9452,"ĠSieg":9453,"zeichen":9454,"obile":9455,"ĠRoyal":9456,"ĠSid":9457,"ĠTitel":9458,"ĠZigaret":9459,"Ġphil":9460,"ĠNE":9461,"Ġourselves":9462,"ĠRunter":9463,"Ġtransport":9464,"atherine":9465,"Ġquietly":9466,"Ġmarriage":9467,"Ġstudio":9468,"ĠStrand":9469,"heben":9470,"Ġgelassen":9471,"ĠKleider":9472,"ĠMah":9473,"Ġechte":9474,"Ġroten":9475,"Where":9476,"aning":9477,"Ġcy":9478,"erecht":9479,"umst":9480,"ĠHÃ¤user":9481,"Ġboss":9482,"ĠLy":9483,"ĠStaaten":9484,"ĠEmma":9485,"Ã¤sent":9486,"ggy":9487,"onds":9488,"ĠSteh":9489,"Ġteilen":9490,"Ġflag":9491,"Ġcrime":9492,"ĠKriegs":9493,"ĠMuseum":9494,"Ġbegeg":9495,"Ġthroat":9496,"etwas":9497,"uls":9498,"Ġboats":9499,"Ġteuer":9500,"Ġeasier":9501,"Ġaufpassen":9502,"ĠWin":9503,"ĠKommun":9504,"ĠerwÃ¤":9505,"ĠJohann":9506,"ĠgrÃ¼n":9507,"plant":9508,"Ġobviously":9509,"Ġcontinue":9510,"Ġlhre":9511,"Ġakzept":9512,"anst":9513,"Ġreing":9514,"ĠTrÃ¤ume":9515,"ological":9516,"Ġcouncil":9517,"erc":9518,"ĠPunk":9519,"uchte":9520,"Ġhighest":9521,"ĠDanach":9522,"!'":9523,"Ġrope":9524,"ĠDenken":9525,"Ġsake":9526,"Ġ2003":9527,"Ġwahnsinn":9528,"Br":9529,"Ġbike":9530,"ĠVern":9531,"Ġresc":9532,"bad":9533,"Ġpurs":9534,"Ġrang":9535,"Ġvorn":9536,"Ġverwendet":9537,"ĠSea":9538,"Ġbeweisen":9539,"Ġbeeindruck":9540,"Ġnarrow":9541,"Ġgebrochen":9542,"Ġhelping":9543,"Ġyounger":9544,"Ġninety":9545,"eared":9546,"Man":9547,"Ġeinigen":9548,"ĠWert":9549,"ĠClau":9550,"awa":9551,"Ġverdammte":9552,"ystem":9553,"steht":9554,"Ġflight":9555,"Ġcontact":9556,"ispers":9557,"hyth":9558,"Ġsuspect":9559,"ĠDun":9560,"ĠBuck":9561,"Ġschools":9562,"ĠWesten":9563,"cream":9564,"icient":9565,"Ġletztes":9566,"ĠBÃ¼hne":9567,"ĠTar":9568,"Das":9569,"pill":9570,"Ġtoast":9571,"Ġmarry":9572,"Ġmail":9573,"ĠMadam":9574,"zess":9575,"Ġeaten":9576,"ĠSalz":9577,"eut":9578,"Ġlap":9579,"ĠER":9580,"add":9581,"ĠZuerst":9582,"Ġpapers":9583,"ĠFÃ¼hrer":9584,"sure":9585,"ĠMake":9586,"Ġknowledge":9587,"Ġwhispered":9588,"ĠCharlotte":9589,"Ġpour":9590,"uhuh":9591,"bet":9592,"ĠDO":9593,"ĠBat":9594,"ĠFire":9595,"ĠschlÃ¤gt":9596,"Ã¤usche":9597,"ĠfranzÃ¶s":9598,"Ġtelefon":9599,"Ġevil":9600,"Ġretired":9601,"ĠSchritte":9602,"Ġshook":9603,"ups":9604,"Ġbiggest":9605,"ĠÃ¶ffnen":9606,"uits":9607,"ĠSheriff":9608,"little":9609,"Ġzoo":9610,"ĠAmerikaner":9611,"Ġreck":9612,"Ġgesam":9613,"innie":9614,"ĠTele":9615,"ĠÃ¼brigens":9616,"Ġforced":9617,"ringen":9618,"ĠFOR":9619,"Ġnurse":9620,"ĠOlympics":9621,"ĠHmm":9622,"Ġ36":9623,"Ġwussten":9624,"Ġconcl":9625,"ĠRec":9626,"Ġflew":9627,"Ġparticularly":9628,"Ġeleven":9629,"craft":9630,"Ġnu":9631,"mittag":9632,"Ġlarger":9633,"Ġverstecken":9634,"Sp":9635,"elled":9636,"arbeiten":9637,"Ġmentioned":9638,"ĠWes":9639,"Ġlab":9640,"ĠTok":9641,"ĠKam":9642,"Ġgeg":9643,"ĠJawohl":9644,"Ġdirectly":9645,"Ġseufzt":9646,"ĠPause":9647,"Ġgreatest":9648,"Ġerinnert":9649,"ganz":9650,"abet":9651,"Ġprim":9652,"ĠKÃ¶nnte":9653,"25":9654,"Ġhug":9655,"Ã¤chst":9656,"Ġsettled":9657,"orthin":9658,"Ġfrightened":9659,"filler":9660,"sery":9661,"baum":9662,"oute":9663,"rak":9664,"sters":9665,"ĠAcademy":9666,"mack":9667,"ĠVertrag":9668,"Ġsits":9669,"Ġstudied":9670,"ĠDIE":9671,"Ġloss":9672,"ĠDiv":9673,"Ã¶pf":9674,"ĠÃ¼berw":9675,"Ġscience":9676,"Ġexplained":9677,"ĠImp":9678,"Ġvocal":9679,"ipping":9680,"ĠMcC":9681,"ĠVerbindung":9682,"ĠwÃ¼nschen":9683,"Ġbub":9684,"ehmt":9685,"rock":9686,"ingend":9687,"isieren":9688,"ĠFore":9689,"ĠZw":9690,"Ġmehrere":9691,"ĠPrem":9692,"Ġmetal":9693,"ĠConf":9694,"Ġbau":9695,"garten":9696,"END":9697,"ĠDaten":9698,"ĠMaus":9699,"ĠPot":9700,"Ġsociety":9701,"ĠHappy":9702,"vely":9703,"walt":9704,"oves":9705,"Ġpossibly":9706,"ĠLÃ¤ch":9707,"nods":9708,"Ġsomewhat":9709,"ĠDreck":9710,"Chi":9711,"ĠSitz":9712,"kehren":9713,"lungen":9714,"Ġbenef":9715,"Ġzog":9716,"Ġschwanger":9717,"wasser":9718,"Ġpor":9719,"ĠWeib":9720,"Ġgezeigt":9721,"ques":9722,"burger":9723,"Ġinterrupt":9724,"Ġbetrunken":9725,"Ġbewegt":9726,"rence":9727,"Ġreply":9728,"agger":9729,"ĠCentral":9730,"Ġwerfen":9731,"ĠMexico":9732,"uments":9733,"yellow":9734,"iring":9735,"Ġkeeps":9736,"iner":9737,"ĠMarkt":9738,"Ġpred":9739,"actually":9740,"ĠLÃ¶sung":9741,"Ġabend":9742,"ĠStÃ¤d":9743,"Ġwine":9744,"unehmen":9745,"ĠUnternehmen":9746,"Ġaunt":9747,"Ã¤dchen":9748,"ĠGirl":9749,"plane":9750,"Ġplayers":9751,"199":9752,"anie":9753,"ĠGelegenheit":9754,"ĠDrachen":9755,"wiesen":9756,"ped":9757,"ĠSogar":9758,"Ġ2002":9759,"Ġdozen":9760,"Ġresol":9761,"iraffe":9762,"Ġsahen":9763,"green":9764,"ĠBringt":9765,"ĠAben":9766,"Ġtowel":9767,"ĠGroÃŁmutter":9768,"kwÃ¼rd":9769,"ĠWay":9770,"ĠKa":9771,"ĠErf":9772,"Ġdesert":9773,"Ġsixty":9774,"fung":9775,"Ġgibst":9776,"ĠOx":9777,"Ġbeauty":9778,"Ġtrou":9779,"ĠwÃ¼nsche":9780,"icy":9781,"schule":9782,"Ġimm":9783,"Ġdramat":9784,"ĠTab":9785,"ĠFox":9786,"Ġexcuse":9787,"cture":9788,"ĠSomething":9789,"Ġwilling":9790,"Ġwindows":9791,"sorry":9792,"usik":9793,"ĠUk":9794,"weisen":9795,"ĠJackson":9796,"ĠJournal":9797,"Er":9798,"Ġfragt":9799,"ĠKnochen":9800,"lehr":9801,"ĠUng":9802,"Ġwaited":9803,"ĠTime":9804,"ĠApplaus":9805,"Ġrelated":9806,"Ġanxious":9807,"ĠEarly":9808,"Ġpages":9809,"Ġtask":9810,"ĠHuh":9811,"ĠEhrlich":9812,"edom":9813,"ĠZwischen":9814,"Ġholiday":9815,"ĠerklÃ¤rt":9816,"san":9817,"Ġfressen":9818,"innst":9819,"Ġgeschlagen":9820,"Ġbringing":9821,"ĠAtt":9822,"Ġwriter":9823,"silence":9824,"ulous":9825,"zeuge":9826,"ĠzerstÃ¶ren":9827,"BER":9828,"ĠVis":9829,"Ã¼ckt":9830,"ati":9831,"ĠHard":9832,"Ġattra":9833,"ĠDave":9834,"uly":9835,"ĠSchatten":9836,"Ġcomfortable":9837,"Ġbare":9838,"Ġgehalten":9839,"Bl":9840,"zeugt":9841,"ĠSÃ¼den":9842,"ĠLE":9843,"icate":9844,"ĠPerfe":9845,"ĠFilme":9846,"ĠHind":9847,"ĠAye":9848,"ĠzufÃ¤llig":9849,"Ġsport":9850,"werfen":9851,"Ġavailable":9852,"erstood":9853,"bus":9854,"Ġweint":9855,"iell":9856,"Ġforces":9857,"Ġpatient":9858,"âĢ":9859,"ĠWÃ¼rden":9860,"schnitt":9861,"May":9862,"cut":9863,"ĠProf":9864,"vironment":9865,"sucht":9866,"OTH":9867,"Ġjunger":9868,"Ġinflu":9869,"ĠVerantwortung":9870,"Ã¼hren":9871,"opft":9872,"Ã¼lt":9873,"Ġblauen":9874,"Ġholt":9875,"Ġballs":9876,"Ġinvent":9877,"ekt":9878,"Ġmill":9879,"ĠAbst":9880,"Ġerwachsen":9881,"bury":9882,"undheit":9883,"ĠAndere":9884,"Ġsymbol":9885,"aschine":9886,"Ġmission":9887,"ĠHoheit":9888,"Ġrefle":9889,"Ġrepeated":9890,"pull":9891,"ĠSuche":9892,"ĠCaroline":9893,"reht":9894,"Ġpowerful":9895,"Ġcontain":9896,"Ġmemory":9897,"SE":9898,"Ġhom":9899,"weit":9900,"Ġerstmal":9901,"Ġ1970":9902,"press":9903,"acke":9904,"ĠVerstand":9905,"dienst":9906,"ĠJenny":9907,"Ġfairly":9908,"rÃ¤n":9909,"ĠSturm":9910,"okrat":9911,"Ġballoon":9912,"Ġclown":9913,"ĠWÃ¤r":9914,"Ġzieh":9915,"Ġbark":9916,"Ġpump":9917,"agner":9918,"strument":9919,"Ġabsolut":9920,"Ġsav":9921,"ĠLeiden":9922,"Ġattend":9923,"anks":9924,"zusehen":9925,"ILL":9926,"ede":9927,"ĠCa":9928,"Ġafterwards":9929,"stoff":9930,"ĠToil":9931,"Ġdecide":9932,"cho":9933,"ucken":9934,"\"?":9935,"Ġbunny":9936,"Ġgeholfen":9937,"ĠSoldat":9938,"Good":9939,"ĠFunk":9940,"Ġgefe":9941,"ĠhÃ¶her":9942,"Ġsigned":9943,"igan":9944,"Ġteams":9945,"Ġsang":9946,"zes":9947,"Ġreichen":9948,"Ġwaste":9949,"Ġbump":9950,"Ġpitch":9951,"Ġgetrunken":9952,"ĠFlugh":9953,"zukommen":9954,"kes":9955,"ingham":9956,"Ġdisease":9957,"Ġshopping":9958,"ĠÃ¼berleben":9959,"kling":9960,"Ġcit":9961,"ĠElef":9962,"Ġservices":9963,"Ġverze":9964,"happy":9965,"ĠPakistan":9966,"Ġfurn":9967,"ĠGrenze":9968,"cely":9969,"ĠSergeant":9970,"ĠWett":9971,"ĠHalten":9972,"alled":9973,"Ġdistrib":9974,"hÃ¶":9975,"ĠBan":9976,"ĠsaÃŁ":9977,"ĠRussia":9978,"ĠPortug":9979,"imate":9980,"ĠAnruf":9981,"plan":9982,"ĠTen":9983,"umpf":9984,"viet":9985,"Ġbarn":9986,"ĠSix":9987,"Ġfuhr":9988,"Ġce":9989,"ĠschÃ¼tzen":9990,"ĠFahrt":9991,"ĠIre":9992,"Ġverwir":9993,"year":9994,"Ġbathroom":9995,"ĠSaint":9996,"Ġtrunk":9997,"cont":9998,"ctors":9999,"Ġtrib":10000,"ĠSecret":10001,"Ġdoin":10002,"ifers":10003,"ĠEleanor":10004,"IV":10005,"ĠDrink":10006,"Ġrust":10007,"Ġabsch":10008,"ĠSchwier":10009,"ĠBleiben":10010,"ĠNancy":10011,"Ġkeinem":10012,"Ġwedding":10013,"ĠFair":10014,"ĠNetz":10015,"Ġperfectly":10016,"Ġtoil":10017,"Ġsilent":10018,"ĠMilitÃ¤r":10019,"Ġwachsen":10020,"Ġdrum":10021,"Ġtraf":10022,"Ġborder":10023,"ĠKino":10024,"ĠjÃ¼ng":10025,"umps":10026,"ifen":10027,"ritt":10028,"Ġsees":10029,"ĠSchild":10030,"Ġveget":10031,"Ġhalbe":10032,"Ġavo":10033,"ĠFische":10034,"ĠConn":10035,"Ġnineteen":10036,"ĠBoth":10037,"ĠListe":10038,"Ġrings":10039,"Ġdesk":10040,"Ġdamn":10041,"willst":10042,"Ġwahnsinnig":10043,"izier":10044,"Ġà¤":10045,"Ġeigh":10046,"ĠÃĸsterreich":10047,"ĠAlkohol":10048,"Ġallerdings":10049,"ĠEnglisch":10050,"Ġfought":10051,"Ġupset":10052,"mpath":10053,"riegt":10054,"Ġelected":10055,"ĠSally":10056,"ĠEinsatz":10057,"Ġspreche":10058,"Ġdiesmal":10059,"ĠMi":10060,"Ġchest":10061,"ĠÃ¤hm":10062,"Ġmeist":10063,"aign":10064,"hard":10065,"Ġstro":10066,"Ġproperly":10067,"ĠUnterschied":10068,"Ġsafety":10069,"ĠSchauspieler":10070,"Ġplus":10071,"Ġ187":10072,"Ġberuh":10073,"ĠPublikum":10074,"mes":10075,"Ġnursery":10076,"ĠTreffen":10077,"aterpill":10078,"lic":10079,"igte":10080,"ĠZahl":10081,"ĠBrust":10082,"Ġdaher":10083,"yo":10084,"ĠKunden":10085,"Ġerlebt":10086,"Ġstring":10087,"Ġkontroll":10088,"Ġbisc":10089,"rist":10090,"adian":10091,"ĠAli":10092,"Ġwow":10093,"ĠErste":10094,"Ġprove":10095,"ifle":10096,"ĠAngebot":10097,"ĠwÃ¼sste":10098,"ĠAndre":10099,"Ele":10100,"Ġtv":10101,"ulty":10102,"ĠDah":10103,"Ġvote":10104,"ĠSpiegel":10105,"Ã¤llig":10106,"Ġwarn":10107,"FAD":10108,"ĠSÃ¼ÃŁe":10109,"Ġremarked":10110,"asy":10111,"Ġcomb":10112,"ĠHoward":10113,"ĠPflicht":10114,"?'":10115,"iverse":10116,"ĠStep":10117,"ĠDirektor":10118,"Ġverfl":10119,"Ġaccording":10120,"Ġdorthin":10121,"ĠWaren":10122,"ĠMannes":10123,"Ã¤nn":10124,"Ġwohn":10125,"lyn":10126,"ummie":10127,"Ġinno":10128,"ĠSchmerzen":10129,"eilt":10130,"ocht":10131,"Ġgleiche":10132,"Ġriding":10133,"Ġsprang":10134,"tau":10135,"Ġhanging":10136,"Ġglasses":10137,"Ġmethod":10138,"Ġfence":10139,"fluss":10140,"ĠJuden":10141,"ĠSagt":10142,"Ã¤chen":10143,"Ġbod":10144,"Ġabh":10145,"ĠVerstehe":10146,"ĠAbsol":10147,"uar":10148,"ĠHein":10149,"Ġbutt":10150,"ĠTrotzdem":10151,"aval":10152,"Ġjedenfalls":10153,"Ġnamens":10154,"fortun":10155,"Ġfalsche":10156,"ĠJam":10157,"Ġknowing":10158,"ĠRunde":10159,"ĠPrime":10160,"ĠGutes":10161,"ietet":10162,"ĠRachel":10163,"Ġaufhalten":10164,"Ġthoughts":10165,"Ġswim":10166,"Who":10167,"itsch":10168,"uba":10169,"ĠSchlimm":10170,"Ġvertrauen":10171,"lege":10172,"krieg":10173,"Ġfoc":10174,"ĠMun":10175,"ehow":10176,"Ġbesonder":10177,"Ġmoch":10178,"ĠDol":10179,"ĠGrad":10180,"Ġschien":10181,"Ġbegr":10182,"ĠChin":10183,"Ġwander":10184,"Ġmate":10185,"ĠverÃ¶ff":10186,"Ġerlaubt":10187,"ĠFreit":10188,"ĠMedizin":10189,"Ġtim":10190,"ĠRestaurant":10191,"Ġmanager":10192,"sag":10193,"aunt":10194,"aman":10195,"ĠWhoa":10196,"Ġnorthern":10197,"Ġlawyer":10198,"Ġdanken":10199,"ĠFertig":10200,"Ġvalue":10201,"Ġaufw":10202,"Ġtheory":10203,"olic":10204,"Ġcastle":10205,"ĠAfrican":10206,"ĠFootball":10207,"ching":10208,"ĠLegen":10209,"Ġ1960":10210,"ĠPrivat":10211,"Ġentr":10212,"Ġfavour":10213,"elst":10214,"ehme":10215,"stron":10216,"Ġbekomme":10217,"ĠRak":10218,"Ġtroops":10219,"mosph":10220,"ĠBenn":10221,"Ġmut":10222,"Ġnation":10223,"ĠExpl":10224,"ĠHÃ¶he":10225,"ĠhÃ¤ss":10226,"ĠCourt":10227,"dis":10228,"kÃ¶n":10229,"Ġdachten":10230,"Ġverteid":10231,"Ġmanage":10232,"peror":10233,"Ġmagn":10234,"ashing":10235,"Ġnirgend":10236,"ĠschlieÃŁen":10237,"throw":10238,"Ġcentral":10239,"Ġresponse":10240,"Ġhurried":10241,"Ġwhist":10242,"Ġblanket":10243,"Ġcloth":10244,"Ġlatter":10245,"Ġremembered":10246,"Ġpainting":10247,"ming":10248,"ĠEink":10249,"Ġcancer":10250,"ĠJen":10251,"Ġnap":10252,"ĠKennen":10253,"Ġprec":10254,"ĠSara":10255,"acks":10256,"ĠAndrew":10257,"aku":10258,"eldet":10259,"ĠBÃ¤r":10260,"ĠZÃ¤hne":10261,"ondere":10262,"Ġhorn":10263,"ĠAnnie":10264,"lers":10265,"Ġcute":10266,"ANT":10267,"place":10268,"ĠÃ¤r":10269,"Ġexam":10270,"ynam":10271,"Ġreag":10272,"ĠColl":10273,"abil":10274,"ĠKreis":10275,"ĠStellen":10276,"ĠNiemals":10277,"Ġhy":10278,"ĠSÃ¤":10279,"Ġworst":10280,"anzig":10281,"Ġeighty":10282,"arte":10283,"ĠStone":10284,"ĠFrag":10285,"ĠErinnerung":10286,"ĠNan":10287,"ĠSoviet":10288,"Ġprefer":10289,"Ġdefinitely":10290,"Ġnative":10291,"ĠNap":10292,"Ġschla":10293,"oli":10294,"Ġshock":10295,"agn":10296,"road":10297,"Ġfeels":10298,"ĠbeschÃ¼tzen":10299,"abend":10300,"istisch":10301,"Ġaverage":10302,"acker":10303,"angel":10304,"ĠKevin":10305,"ĠMonday":10306,"Ġerster":10307,"Ġpeas":10308,"Ġcontract":10309,"Ġserve":10310,"ĠArbeits":10311,"Ġgentlemen":10312,"Ġwings":10313,"ĠDown":10314,"icked":10315,"Ġpassing":10316,"ĠIndians":10317,"ĠIreland":10318,"oln":10319,"ĠSpÃ¤ter":10320,"ĠInteresse":10321,"Ġpushed":10322,"ĠRis":10323,"ĠSobald":10324,"karte":10325,"cat":10326,"ĠJohnson":10327,"Ġtypes":10328,"ĠTop":10329,"gelassen":10330,"Ġeffort":10331,"Ġconcerned":10332,"idi":10333,"Ġappreci":10334,"IGHT":10335,"Ġgebeten":10336,"Ġneat":10337,"Ġburst":10338,"ĠKeller":10339,"Ġgreater":10340,"Ġhearing":10341,"Ġsoldier":10342,"ĠHitler":10343,"ĠBringen":10344,"ĠPac":10345,"Ġhook":10346,"oter":10347,"olen":10348,"antage":10349,"_.":10350,"Ġsite":10351,"Ã¤te":10352,"ĠAlright":10353,"Ġincludes":10354,"Ġthrown":10355,"Ġmoder":10356,"show":10357,"ĠBahnhof":10358,"making":10359,"Ġtip":10360,"ĠVen":10361,"ĠAccording":10362,"ĠÃ¼berlegen":10363,"ĠGesundheit":10364,"ĠAbendessen":10365,"Ġschaffst":10366,"Ġille":10367,"Ġlegal":10368,"ĠEinmal":10369,"Ġpencil":10370,"ĠPete":10371,"Ġwirkt":10372,"Ġpresence":10373,"ĠAlt":10374,"ĠGras":10375,"ĠAT":10376,"ĠkÃ¼mmert":10377,"ansas":10378,"Ġgay":10379,"Ġkochen":10380,"teile":10381,"anton":10382,"ript":10383,"Ġinterview":10384,"Ġdurcheinander":10385,"Ġdisappeared":10386,"Ġsamm":10387,"osion":10388,"Ġpressure":10389,"low":10390,"Ġtor":10391,"Ġrare":10392,"ĠVom":10393,"Ġwoher":10394,"Ġdescribed":10395,"Ġtid":10396,"eping":10397,"ĠNight":10398,"ĠIdeen":10399,"Ġwashing":10400,"JES":10401,"draw":10402,"ients":10403,"ĠSab":10404,"ĠEing":10405,"ĠAfrika":10406,"Ġdump":10407,"Ġschafft":10408,"Ġmagnet":10409,"Ġfailed":10410,"Ġther":10411,"Ġthin":10412,"ĠStreich":10413,"ju":10414,"chnung":10415,"Ġdebut":10416,"bastian":10417,"rog":10418,"Ġvermisst":10419,"ĠEach":10420,"ĠSchweine":10421,"ĠEva":10422,"morrow":10423,"telligen":10424,"Ġpein":10425,"ĠNeben":10426,"lieder":10427,"ĠDonald":10428,"ĠDorothy":10429,"rison":10430,"ĠFloren":10431,"ĠPflanzen":10432,"klÃ¤rung":10433,"reise":10434,"Ġverspreche":10435,"Ġanziehen":10436,"Ġmatters":10437,"ĠTerror":10438,"Ġfrequ":10439,"Ġwelchem":10440,"ĠKrankheit":10441,"daddy":10442,"eat":10443,"Ġrealize":10444,"Ġknees":10445,"ĠPatrick":10446,"uckt":10447,"Ġstelle":10448,"Ã©e":10449,"Ġdeser":10450,"hil":10451,"Ġfired":10452,"raine":10453,"Ġeinsam":10454,"ĠOs":10455,"Ġfeelings":10456,"Ġreported":10457,"zweif":10458,"atory":10459,"reck":10460,"ĠWater":10461,"Ġsem":10462,"ĠThor":10463,"Ġdringend":10464,"from":10465,"ĠscheiÃŁe":10466,"Ġknapp":10467,"ĠFine":10468,"Ġeinst":10469,"ĠPolly":10470,"ahle":10471,"Ġproperty":10472,"angers":10473,"Ġsmiling":10474,"Ġwished":10475,"Ġschrieb":10476,"Ġbitter":10477,"ffic":10478,"ĠDarauf":10479,"Ġmhm":10480,"osse":10481,"ĠGrace":10482,"ĠJedes":10483,"Ġknocked":10484,"orf":10485,"ural":10486,"Ġmile":10487,"sache":10488,"Ġmummy":10489,"Ġforms":10490,"seit":10491,"ĠToday":10492,"Ã¤ub":10493,"ĠGrie":10494,"Ġrote":10495,"ĠNieder":10496,"Ġfully":10497,"school":10498,"ĠSchade":10499,"ĠMÃ¤us":10500,"ĠKauf":10501,"Ġfancy":10502,"welche":10503,"uses":10504,"ĠGep":10505,"ĠGil":10506,"ĠIsn":10507,"Ġobjects":10508,"iken":10509,"Ġschreien":10510,"Ġdankbar":10511,"schrau":10512,"Ġjudge":10513,"ĠErfahrung":10514,"ĠKlopfen":10515,"walk":10516,"ĠWollt":10517,"yup":10518,"Ã¼sst":10519,"Ġentdeckt":10520,"pret":10521,"Ġpizza":10522,"Ġignor":10523,"Ġbrechen":10524,"ĠGefÃ¤llt":10525,"Ġverantwortlich":10526,"ĠSom":10527,"drehen":10528,"ĠIslam":10529,"lieÃŁt":10530,"Ġopinion":10531,"six":10532,"Ġerfolgreich":10533,"Ġunterhalten":10534,"ĠDenkst":10535,"ĠKnie":10536,"Ġgestellt":10537,"reift":10538,"har":10539,"Ã¤me":10540,"ĠKatzen":10541,"ĠRelig":10542,"ĠstÃ¶ren":10543,"Ġbringst":10544,"ĠRosen":10545,"ĠEllen":10546,"ĠNice":10547,"cod":10548,"Ġcats":10549,"Ġmanche":10550,"Ġvoraus":10551,"ĠMA":10552,"Ġvessel":10553,"Ġrelease":10554,"ĠAustralian":10555,"ĠEi":10556,"ĠRebe":10557,"Ġerledigen":10558,"Ġscratch":10559,"ĠLater":10560,"obby":10561,"ĠLuke":10562,"Ġfishing":10563,"ĠÃ¼bernehmen":10564,"ĠBeat":10565,"teln":10566,"ĠBez":10567,"ĠerzÃ¤hlte":10568,"ĠMÃ¶chten":10569,"stru":10570,"bling":10571,"ĠBeth":10572,"wollen":10573,"Ġmicrophone":10574,"sein":10575,"Ġwan":10576,"angle":10577,"odie":10578,"aging":10579,"Ġtext":10580,"ĠPra":10581,"aufe":10582,"Ã¤gst":10583,"ĠFrancisco":10584,"ĠLab":10585,"ĠMeinen":10586,"Ġdrawn":10587,"\"]":10588,"ĠWisst":10589,"ĠLinda":10590,"Ġruss":10591,"Ġprevious":10592,"ĠÃ¼berrascht":10593,"ĠKugel":10594,"issa":10595,"Ġafford":10596,"ĠgÃ¤":10597,"opper":10598,"Ġtied":10599,"ĠJahres":10600,"ĠBesonderes":10601,"à®":10602,"ĠHot":10603,"ĠzÃ¤hlt":10604,"ĠMÃ¤dels":10605,"Ġgross":10606,"ĠLog":10607,"Ã¶m":10608,"Ġexpress":10609,"Ġkosten":10610,"ero":10611,"ĠSO":10612,"ĠGraf":10613,"ĠStich":10614,"apes":10615,"BC":10616,"etwegen":10617,"Ġwechsel":10618,"ĠWirtschaft":10619,"ĠSchokol":10620,"NE":10621,"atoes":10622,"ĠElekt":10623,"Ġdicht":10624,"rey":10625,"ĠSem":10626,"eting":10627,"Ġwondering":10628,"Chr":10629,"ĠLetzte":10630,"Ġkinda":10631,"Ġbehav":10632,"UST":10633,"Ã¼ten":10634,"Ġgeschieht":10635,"Ġsouthern":10636,"usten":10637,"kor":10638,"Ġmitkommen":10639,"ooth":10640,"Ġestablished":10641,"del":10642,"ĠBlau":10643,"ĠOsten":10644,"ĠViet":10645,"ĠBrook":10646,"zusch":10647,"23":10648,"ĠHaufen":10649,"Ġshoulders":10650,"ouds":10651,"Ġstaff":10652,"ĠGerade":10653,"Ġclearly":10654,"Ġcharacters":10655,"ĠLew":10656,"ildet":10657,"ĠÃ¤uÃŁ":10658,"ĠAffen":10659,"Ġdrove":10660,"ĠBarbara":10661,"rose":10662,"ĠVerschwinde":10663,"ĠAlan":10664,"Ġthroughout":10665,"Ġ1999":10666,"Ġbecoming":10667,"ĠMaxe":10668,"Ġocean":10669,"Ġausges":10670,"ĠMaschinen":10671,"Ġbekommst":10672,"ĠHER":10673,"Ġfreundlich":10674,"ĠWalk":10675,"Ġartist":10676,"pfl":10677,"Ġfamilies":10678,"ropical":10679,"try":10680,"aming":10681,"ĠJagd":10682,"CT":10683,"ĠEth":10684,"Ġrealized":10685,"incoln":10686,"ĠRyan":10687,"Ġvollkommen":10688,"Ġ2023":10689,"ĠNobody":10690,"weiÃŁ":10691,"ĠAkt":10692,"ĠProjekt":10693,"Ã¼mmere":10694,"arzt":10695,"ĠArbeiter":10696,"ĠIran":10697,"ĠDeutschen":10698,"Ġbeast":10699,"ĠRett":10700,"iance":10701,"rom":10702,"ĠPurdie":10703,"ĠKent":10704,"ĠAlte":10705,"Ġacting":10706,"ĠEp":10707,"Ġvorhin":10708,"ĠMÃ¶chtest":10709,"Ġliber":10710,"ĠNachmittag":10711,"ĠPresse":10712,"ĠStoff":10713,"ĠHintergrund":10714,"ckst":10715,"ffer":10716,"Ġlanger":10717,"Ġrequest":10718,"bot":10719,"ĠNag":10720,"ĠHintern":10721,"Papa":10722,"ĠKlÃ¤nge":10723,"ĠScotland":10724,"Ġdetermined":10725,"Ġdread":10726,"Ġdeutlich":10727,"Ġaufgew":10728,"ĠZehn":10729,"rible":10730,"Ġfigures":10731,"Ġsoftly":10732,"ador":10733,"baren":10734,"ei":10735,"Ġobt":10736,"ĠAutor":10737,"kraft":10738,"nie":10739,"Ġmelden":10740,"Ġweird":10741,"Ġotherwise":10742,"really":10743,"CHEN":10744,"Ġheav":10745,"uto":10746,"markt":10747,"Ġqueen":10748,"Ġwestern":10749,"Ġklug":10750,"ĠButter":10751,"ĠBÃ¤ume":10752,"ĠVerr":10753,"ĠDamals":10754,"ĠPrÃ¤sidenten":10755,"ĠFlughafen":10756,"stest":10757,"Ġversteh":10758,"Ġburied":10759,"pie":10760,"Ġswing":10761,"Ġbewusst":10762,"enken":10763,"ulations":10764,"Ġboots":10765,"arten":10766,"igent":10767,"ehre":10768,"ĠTunnel":10769,"seite":10770,"ĠweiÃŁen":10771,"Ġmachten":10772,"Ġdrinnen":10773,"Ġsinn":10774,"itory":10775,"Ġetc":10776,"ĠSchlacht":10777,"Ġindep":10778,"à°":10779,"las":10780,"aud":10781,"Ã¼tter":10782,"ached":10783,"ĠLock":10784,"ultural":10785,"Ġphilos":10786,"Ã¼p":10787,"ĠFass":10788,"ĠNest":10789,"ĠfrÃ¶h":10790,"Ġfriendly":10791,"ocratic":10792,"bauen":10793,"Ġaft":10794,"IER":10795,"ĠBrother":10796,"ĠIdioten":10797,"ĠJedenfalls":10798,"ĠAbente":10799,"Ġsobald":10800,"ĠZoo":10801,"ĠStÃ¤r":10802,"WE":10803,"Ġwise":10804,"Ġcooking":10805,"ĠHaw":10806,"ĠkÃ¼mmere":10807,"Ġnovel":10808,"opter":10809,"hafte":10810,"ĠFreitag":10811,"Ġfanden":10812,"ĠkÃ¼ssen":10813,"Ġends":10814,"Ġexpression":10815,"Ġgn":10816,"Ġfalschen":10817,"uckles":10818,"Ġentirely":10819,"ĠKurs":10820,"ĠPor":10821,"Ġtravell":10822,"Ġveh":10823,"Ġschna":10824,"atsy":10825,"Ġkauf":10826,"ĠBudd":10827,"loÃŁ":10828,"Ġfac":10829,"Ġgarage":10830,"Ġjoke":10831,"Ġsposta":10832,"Ġforever":10833,"ĠRoad":10834,"zel":10835,"igned":10836,"ĠHaltet":10837,"Ġdolly":10838,"ĠRichtige":10839,"Ġstehst":10840,"Ġpositive":10841,"Ġdying":10842,"ĠZwer":10843,"ieber":10844,"Ġobserved":10845,"ĠGentlemen":10846,"ĠHammer":10847,"ĠUnglaublich":10848,"AB":10849,"Ġtouched":10850,"ĠLatin":10851,"Ġunw":10852,"Ġlibr":10853,"ĠstÃ¤rker":10854,"Ġtummy":10855,"Ġsink":10856,"ĠPersonal":10857,"ĠVerkehr":10858,"ĠEinzel":10859,"Ġuniversity":10860,"GEN":10861,"Ġepisode":10862,"Ġschuldig":10863,"22":10864,"nothing":10865,"ĠXX":10866,"Ġ[$":10867,"brecher":10868,"kaufen":10869,"ĠAsh":10870,"Ġbein":10871,"ĠAri":10872,"olo":10873,"Ġwoanders":10874,"Ġscreen":10875,"ĠEhemann":10876,"Ġspiele":10877,"Ġgeheiratet":10878,"pert":10879,"ĠApfel":10880,"Ġeinzel":10881,"Ġtrem":10882,"ĠSpring":10883,"reden":10884,"Ġgoal":10885,"Pro":10886,"chenkt":10887,"etts":10888,"ĠPeggy":10889,"ĠFlucht":10890,"Ġtalks":10891,"sung":10892,"ĠMÃ¼he":10893,"ĠAle":10894,"Ġthrowing":10895,"Ġfaster":10896,"Ġdiam":10897,"utsche":10898,"ĠPip":10899,"ĠAdresse":10900,"Ġsignal":10901,"Ġwitness":10902,"about":10903,"reme":10904,"Ġdisk":10905,"ormally":10906,"haltung":10907,"erdings":10908,"Ġmixed":10909,"nungen":10910,"itÃ¤ten":10911,"spect":10912,"Ġadmir":10913,"ÃľR":10914,"Ġhammer":10915,"Ġprepar":10916,"bitte":10917,"ĠKitty":10918,"Ġtur":10919,"Ġeinf":10920,"gehe":10921,"rige":10922,"INE":10923,"rit":10924,"Ġreasons":10925,"Ġbug":10926,"Ġverpasst":10927,"Ġprot":10928,"Ġrespond":10929,"Ġwichtiger":10930,"ĠDonner":10931,"ĠPist":10932,"ĠJonathan":10933,"hÉĻ":10934,"ĠBÃ¼rgermeister":10935,"zed":10936,"Ġnick":10937,"Ġproduction":10938,"abhÃ¤ng":10939,"ĠFord":10940,"ĠLincoln":10941,"Ġklappt":10942,"Ġfried":10943,"Ġstones":10944,"ĠKarriere":10945,"Ġdeutschen":10946,"ayed":10947,"ĠProgramm":10948,"Ġterror":10949,"Ġprakt":10950,"Ġmeas":10951,"ĠAld":10952,"ĠGO":10953,"Ġcampaign":10954,"ĠOpen":10955,"Ġsports":10956,"ĠÃĸl":10957,"ĠJubel":10958,"Ġexerc":10959,"Ġdamage":10960,"Ġswitch":10961,"ĠTreppe":10962,"ĠMeth":10963,"Ġplanet":10964,"ĠFive":10965,"whoa":10966,"ĠlÃ¤cherlich":10967,"ĠSack":10968,"ĠAmen":10969,"ĠSchÃ¤tzchen":10970,"Ġebenfalls":10971,"UG":10972,"Ġsozial":10973,"ĠSchrei":10974,"ĠArtikel":10975,"ĠLÃ¤ndern":10976,"ĠCanadian":10977,"ĠHub":10978,"only":10979,"Ã¼chte":10980,"ĠVerdamm":10981,"Ġinstant":10982,"Ġstreng":10983,"bildung":10984,"nel":10985,"passt":10986,"Ġweht":10987,"Ġanzu":10988,"zert":10989,"andal":10990,"thew":10991,"ĠIndianer":10992,"ĠVirginia":10993,"ĠGovernor":10994,"Ã¼hre":10995,"ĠTay":10996,"ĠWillen":10997,"Ġpointed":10998,"lings":10999,"haften":11000,"Ġexcit":11001,"Ġengl":11002,"gefahren":11003,"ĠÂ·":11004,"ĠfÃ¼hlte":11005,"Ġbast":11006,"Ġpfe":11007,"ĠLiter":11008,"stitution":11009,"Ġghost":11010,"ĠWork":11011,"ĠVideo":11012,"ghan":11013,"ĠFelix":11014,"ender":11015,"Ġeinander":11016,"Ġbrilliant":11017,"erie":11018,"stant":11019,"ishop":11020,"icted":11021,"Ġgelaufen":11022,"ĠHelp":11023,"Ġdarkness":11024,"Ġwahre":11025,"ĠDisk":11026,"Ġyard":11027,"ĠSchwierigkeiten":11028,"bÃ¼":11029,"ĠJason":11030,"Ġatmet":11031,"ĠDavon":11032,"John":11033,"ĠWitze":11034,"ĠLara":11035,"Ġerle":11036,"Ġfamiliar":11037,"ĠBelg":11038,"Ġrise":11039,"Ġopens":11040,"Ġconfirm":11041,"ĠMargaret":11042,"ĠHay":11043,"ĠHelden":11044,"Ġformula":11045,"Ġkeys":11046,"Ġbunch":11047,"ĠDistrict":11048,"Ġsoup":11049,"Ġidi":11050,"ĠSophie":11051,"Ġwenige":11052,"ĠLippen":11053,"Ġboxes":11054,"Ġdegree":11055,"Ġsatt":11056,"ĠMem":11057,"Ġmirror":11058,"ANN":11059,"Ã¤hig":11060,"ĠLangsam":11061,"Ġboun":11062,"Ġcommunic":11063,"Ġpriest":11064,"Ġunderstood":11065,"otty":11066,"ilig":11067,"ĠBruce":11068,"ĠSÃ¼ÃŁ":11069,"Ġpolicy":11070,"flich":11071,"ĠâĢ¢":11072,"Ġinhab":11073,"Ġaccomp":11074,"ĠJede":11075,"ĠFranzÃ¶s":11076,"Ġgiant":11077,"Ġlocker":11078,"ĠHass":11079,"keln":11080,"ĠNehmt":11081,"etzung":11082,"Ġfeather":11083,"Ġpointing":11084,"ĠSamstag":11085,"ĠLouise":11086,"Ġfond":11087,"ĠRussland":11088,"Ġbranch":11089,"Ġseparate":11090,"ĠAllerdings":11091,"ĠSolange":11092,"det":11093,"raben":11094,"Ġgathered":11095,"arian":11096,"Ġentertain":11097,"ĠWomen":11098,"ĠLabor":11099,"Ġcrown":11100,"ĠHolt":11101,"Ġpulling":11102,"Ġdivided":11103,"ĠNext":11104,"Ġ1992":11105,"Ġmainly":11106,"Ġwaves":11107,"aboo":11108,"Ġhunt":11109,"Ġrat":11110,"adem":11111,"Ġexamin":11112,"Ġpartner":11113,"Ġvoices":11114,"mÃ¶gen":11115,"ĠKÃ¶nigs":11116,"Ġmechan":11117,"ĠFahrrad":11118,"Ġbor":11119,"ĠKultur":11120,"ĠAgain":11121,"Ã§":11122,"Ġreink":11123,"ĠLeiche":11124,"ĠSeien":11125,"ĠMusl":11126,"ĠWilhel":11127,"Ġeffects":11128,"ĠGanze":11129,"ĠBabys":11130,"kle":11131,"Ġwore":11132,"ĠEst":11133,"ĠZahlen":11134,"tragen":11135,"Ġsignific":11136,"ĠClaire":11137,"Did":11138,"ĠMolly":11139,"Ġtreten":11140,"Ġcarriage":11141,"Ġcrash":11142,"ĠHong":11143,"idents":11144,"Ġdrops":11145,"obil":11146,"ĠweiÃŁe":11147,"Ġenvironment":11148,"ĠbestÃ¤t":11149,"ĠPierre":11150,"Ã¤tter":11151,"aterpillar":11152,"âĮĪ":11153,"ĠWovon":11154,"eding":11155,"ĠYet":11156,"gucken":11157,"ĠErinnerst":11158,"auto":11159,"Ġplastic":11160,"kehrt":11161,"Ġshooting":11162,"miss":11163,"nitten":11164,"ĠWAS":11165,"ĠGegenteil":11166,"ĠFlorence":11167,"gelt":11168,"uries":11169,"berries":11170,"Ġmorgens":11171,"ufig":11172,"Ġstaying":11173,"ĠWich":11174,"Ġthumb":11175,"Ġca":11176,"ĠHart":11177,"Ġbuildings":11178,"ALL":11179,"ĠHollywood":11180,"ĠSah":11181,"Ġaccess":11182,"igsaw":11183,"Ġapartment":11184,"Ġhopp":11185,"Ġjetz":11186,"ĠBaron":11187,"Ġcoin":11188,"ĠAff":11189,"ĠDecke":11190,"fÃ¼hrt":11191,"riester":11192,"playing":11193,"uelle":11194,"oving":11195,"ĠBritain":11196,"Ġwichtige":11197,"Ġanges":11198,"gefallen":11199,"Ġere":11200,"Ġprogress":11201,"Ġsecurity":11202,"Ġactivity":11203,"Ġenth":11204,"ĠAmericans":11205,"Ġcircumst":11206,"Ġinfluence":11207,"lauben":11208,"Ġ1996":11209,"ĠrÃ¼ck":11210,"tends":11211,"ĠzwÃ¶lf":11212,"ammy":11213,"Ġbrand":11214,"ĠKÃ¤se":11215,"Ġandern":11216,"urop":11217,"ĠKohle":11218,"ĠTeile":11219,"ĠWilson":11220,"Ġwelt":11221,"Ġ1998":11222,"Ġpulls":11223,"Ġstranger":11224,"Ġdestroyed":11225,"bi":11226,"iro":11227,"ĠLiz":11228,"ĠBecky":11229,"pick":11230,"Ġopt":11231,"ĠInn":11232,"steller":11233,"star":11234,"ĠCow":11235,"Ġeinzigen":11236,"ĠScherz":11237,"80":11238,"ente":11239,"ĠThink":11240,"Ġsteigen":11241,"Ġreceive":11242,"ĠGift":11243,"aghet":11244,"Ġrib":11245,"Ġmagazine":11246,"Ġtractor":11247,"Ġhundert":11248,"Ġlangweilig":11249,"ĠStad":11250,"Ġverlangt":11251,"ĠGesang":11252,"wert":11253,"whispers":11254,"oster":11255,"Ġkennenl":11256,"Ġtransl":11257,"Ġperformed":11258,".)":11259,"On":11260,"iev":11261,"BI":11262,"Bahn":11263,"Ġbesorgt":11264,"dsinn":11265,"ĠGestern":11266,"ĠZustand":11267,"aah":11268,"Ġdenk":11269,"sper":11270,"arnt":11271,"Ġfold":11272,"Ġaside":11273,"Ġbrauchte":11274,"ĠRun":11275,"ĠTrÃ¤nen":11276,"iggles":11277,"ancholische":11278,"When":11279,"pher":11280,"ĠTalent":11281,"owder":11282,"Ġmindest":11283,"Ġadvice":11284,"ĠKid":11285,"Ġlack":11286,"arest":11287,"ĠPhilip":11288,"Ġdata":11289,"omach":11290,"bewer":11291,"Ġdesire":11292,"Here":11293,"phy":11294,"Ġtrains":11295,"gliche":11296,"Ġverbringen":11297,"ĠBereit":11298,"ners":11299,"ĠOsc":11300,"ĠFang":11301,"Ġlegt":11302,"ĠShit":11303,"ĠCommander":11304,"Ġcurrently":11305,"ĠPuppe":11306,"ĠUmstÃ¤nd":11307,"anches":11308,"ĠMontag":11309,"Ġfeatures":11310,"elten":11311,"asted":11312,"Ã¼l":11313,"Ġactive":11314,"ĠSpannende":11315,"Ġ[.":11316,"ĠgeÃ¤ndert":11317,"Ġrecorded":11318,"ĠPersonen":11319,"Ġgleichzeitig":11320,"rifft":11321,"arks":11322,"sex":11323,"bey":11324,"ĠSebastian":11325,"Ġcopy":11326,"Ġpaying":11327,"ĠDisney":11328,"Ġnewspaper":11329,"ali":11330,"Ġfolks":11331,"ĠChair":11332,"ROZ":11333,"Ġwave":11334,"ĠWesen":11335,"aktion":11336,"Ġsowas":11337,"cca":11338,"Ġcompanion":11339,"ĠKÃ¶nnten":11340,"21":11341,"gert":11342,"ĠWed":11343,"ĠBase":11344,"Ġsocks":11345,"Ġlaws":11346,"Amer":11347,"Ġfassen":11348,"ĠHell":11349,"ĠStief":11350,"Ġ400":11351,"Ġslept":11352,"Ġwrest":11353,"ĠMars":11354,"Ġauseinander":11355,"ĠGroup":11356,"Ġcock":11357,"Ġslightly":11358,"ĠBade":11359,"schutz":11360,"iÃŁchen":11361,"ĠBeide":11362,"istent":11363,"Ġtoes":11364,"Ġverschiedenen":11365,"Ġhidden":11366,"Ġexcitement":11367,"Ġcommun":11368,"Ġbum":11369,"olz":11370,"Ġums":11371,"Ġanderem":11372,"Ã¤mpft":11373,"hum":11374,"ĠNina":11375,"Ã¼hlen":11376,"ĠVerbrechen":11377,"ĠBook":11378,"Ġfairy":11379,"Ġdish":11380,"ichi":11381,"Ġhinterher":11382,"Ġtough":11383,"Ġloose":11384,"Ġkilling":11385,"Ġyo":11386,"ĠZufall":11387,"Me":11388,"ĠMusic":11389,"Ġmedical":11390,"ĠTenn":11391,"ĠCas":11392,"Ġtrug":11393,"eech":11394,"Ġgrave":11395,"Ġirgendein":11396,"ĠErwachsen":11397,"inky":11398,"Ġ1995":11399,"ĠWilliams":11400,"voc":11401,"Ġyards":11402,"ĠShut":11403,"Ġziehe":11404,"Ġissue":11405,"ĠMeilen":11406,"Ġmerken":11407,"Ġsword":11408,"forder":11409,"Ġwag":11410,"ĠEre":11411,"ĠLot":11412,"lÃ¶":11413,"ĠCongress":11414,"Ġscharf":11415,"ellt":11416,"ĠVerwand":11417,"Ġbrennt":11418,"ancing":11419,"ĠBerge":11420,"Ġpeinlich":11421,"Ġgeschenkt":11422,"Ġwondered":11423,"Ġcups":11424,"fÃ¼hrung":11425,"Ġreinge":11426,"Ġmitt":11427,"Ġowned":11428,"AG":11429,"ĠTown":11430,"Ġschlau":11431,"Ġumsonst":11432,"perrt":11433,"ĠSchneller":11434,"Ge":11435,"ompl":11436,"ĠVerteid":11437,"Ġ1994":11438,"ĠBurg":11439,"zwei":11440,"gly":11441,"Ġcreate":11442,"Ġdadurch":11443,"kannst":11444,"Ġvir":11445,"jahr":11446,"Ġapparently":11447,"Ġhandelt":11448,"AK":11449,"ĠIndust":11450,"azieren":11451,"enth":11452,"ategory":11453,"Ġuseful":11454,"enz":11455,"Ġnachgedacht":11456,"Ġaware":11457,"Ġbehandelt":11458,"45":11459,"arat":11460,"amme":11461,"ĠFlÃ¼gel":11462,"Ġanal":11463,"Ġmeasure":11464,"ĠSpur":11465,"Ġadmin":11466,"ĠMoo":11467,"Ġx":11468,"Ġschreibe":11469,"Ġproved":11470,"ĠSH":11471,"Ġdesper":11472,"ordan":11473,"Ġcourage":11474,"Ġattract":11475,"Ġladder":11476,"Ġmatches":11477,"muss":11478,"nic":11479,"Ġspielte":11480,"ĠMittag":11481,"ĠLarry":11482,"Te":11483,"Ġrecently":11484,"Ġlocked":11485,"Ġschwarze":11486,"itive":11487,"Ġfier":11488,"Ġschade":11489,"sprechen":11490,"pton":11491,"Ġencour":11492,"Ġsurely":11493,"talk":11494,"ĠMess":11495,"Ã¤ss":11496,"locke":11497,"Ġwooden":11498,"Ġschwach":11499,"Ġculture":11500,"Ġgekriegt":11501,"ĠSterne":11502,"ehmer":11503,"ĠEisenbahn":11504,"Ġmamma":11505,"Ġpic":11506,"Ġowner":11507,"III":11508,"ĠSecond":11509,"ĠvernÃ¼nft":11510,"Ġcompanies":11511,"kiss":11512,"Ġsagtest":11513,"schrauber":11514,"Ġmindestens":11515,"Per":11516,"ĠNaz":11517,"Ġdreams":11518,"cow":11519,"oria":11520,"ĠTurm":11521,"Ġspecific":11522,"dat":11523,"ĠWatch":11524,"aland":11525,"Ġvorbereitet":11526,"ĠDomin":11527,"ĠUnglÃ¼ck":11528,"anche":11529,"ĠVerlo":11530,"ĠAsia":11531,"ĠInteress":11532,"choo":11533,"Ġgle":11534,"ĠDÃ¤":11535,"ĠKlingt":11536,"ĠRap":11537,"Ġstreets":11538,"Ġreiten":11539,"ĠWege":11540,"Ġ1997":11541,"LI":11542,"Ġaufmachen":11543,"Ġstubs":11544,"ĠAssoci":11545,"ĠGebiet":11546,"Ġcrayons":11547,"jan":11548,"Ġbeleid":11549,"Ġcolour":11550,"stone":11551,"eline":11552,"ĠFreundschaft":11553,"Ġtotally":11554,"Ġverdammten":11555,"bef":11556,"erstin":11557,"mil":11558,"Ġremoved":11559,"Ġriecht":11560,"ĠTank":11561,"Ġbessere":11562,"Ġgently":11563,"ĠWales":11564,"Ġamazing":11565,"vocalize":11566,"IND":11567,"ĠKollegen":11568,"Ġnutzen":11569,"ĠStation":11570,"otted":11571,"Ġbodies":11572,"Ġholes":11573,"ĠDidn":11574,"ĠLeib":11575,"Of":11576,"ĠVorwÃ¤rts":11577,"OP":11578,"Ġshame":11579,"akter":11580,"Ġarmen":11581,"Ġburning":11582,"ĠErk":11583,"Ġentgegen":11584,"heil":11585,"ĠKomp":11586,"Ġperformance":11587,"ĠAbr":11588,"ĠRennen":11589,"Ġschickt":11590,"Ġbecomes":11591,"ĠGrÃ¶ÃŁe":11592,"ĠtÃ¤glich":11593,"Ġzweimal":11594,"Ġcutting":11595,"Ġdesto":11596,"nice":11597,"ĠverÃ¤ndern":11598,"Ġ33":11599,"Ġlebte":11600,"anen":11601,"aua":11602,"ĠDiana":11603,"ĠFinn":11604,"illing":11605,"ĠBomb":11606,"Ġaufgeben":11607,"Ġchallen":11608,"ĠPfarr":11609,"Ġjumping":11610,"case":11611,"Ġsore":11612,"venue":11613,"ĠIII":11614,"ĠÃ¼bers":11615,"ĠâĮĬ":11616,"Ġgrie":11617,"Ġcash":11618,"ĠErgeb":11619,"alty":11620,"kommst":11621,"Ġlistened":11622,"Ġgezogen":11623,"Ġdauern":11624,"ĠViertel":11625,"Ġcloud":11626,"ĠClark":11627,"remember":11628,"Ġlifted":11629,"Ġbitch":11630,"itzerland":11631,"ĠKilometer":11632,"ĠVorstellung":11633,"Ġstops":11634,"Ġstepped":11635,"igator":11636,"Ġzurecht":11637,"wohnt":11638,"ĠbiÃŁchen":11639,"Ã¼rzt":11640,"ĠUni":11641,"haftet":11642,"Ġschief":11643,"Ġhorrible":11644,"ĠGÃ¶tter":11645,"nope":11646,"ĠHug":11647,"ĠUnder":11648,"Ġgewalt":11649,"Ġgewinnt":11650,"Ġta":11651,"ĠIhres":11652,"ĠNO":11653,"Ġ1991":11654,"Der":11655,"Ġfields":11656,"ĠPin":11657,"Ġfehlen":11658,"ottel":11659,"Ġzahl":11660,"Ġstatistics":11661,"ĠGeschÃ¤fts":11662,"echen":11663,"Ġupper":11664,"Ġkor":11665,"iences":11666,"Ġgray":11667,"Ã¤mt":11668,"Ġpure":11669,"Ġreview":11670,"sense":11671,"Ġspite":11672,"Ġrespekt":11673,"Ġcurious":11674,"Ġindividual":11675,"emon":11676,"rien":11677,"Ġclouds":11678,"sind":11679,"were":11680,"Ġairplane":11681,"mut":11682,"onders":11683,"Ġvent":11684,"ĠKoch":11685,"ava":11686,"Ġcurt":11687,"ĠBericht":11688,"gefÃ¼hrt":11689,"Ġreligion":11690,"arren":11691,"istry":11692,"ĠÃ¼berlegt":11693,"oked":11694,"erneath":11695,"gebung":11696,"ĠmerkwÃ¼rd":11697,"Fras":11698,"Ã´":11699,"Ġwette":11700,"ĠÃ¶fter":11701,"Ġcraft":11702,"urtle":11703,"Eleanor":11704,"Ġangesch":11705,"Ġreve":11706,"ĠProt":11707,"ĠZweifel":11708,"Ġforeign":11709,"Ġequal":11710,"ĠBlÃ¶dsinn":11711,"onne":11712,"ĠSpielen":11713,"Ġodd":11714,"Ġzumindest":11715,"Ġhelps":11716,"ichter":11717,"ĠBedeut":11718,"boo":11719,"Ġsympath":11720,"ĠGovernment":11721,"ĠzÃ¤hlen":11722,"Ġstomach":11723,"komme":11724,"ĠSwitzerland":11725,"bird":11726,"Ġentkommen":11727,"Ġweekend":11728,"Ġschwarzen":11729,"Ġweapons":11730,"ĠGlaub":11731,"Ġunschuld":11732,"ĠBeweise":11733,"umed":11734,"mÃ¤ÃŁig":11735,"alo":11736,"Ã¤hm":11737,"laubnis":11738,"ĠLim":11739,"ĠZusch":11740,"...\"":11741,"Ġpapa":11742,"glas":11743,"ĠDuke":11744,"Ġbefindet":11745,"Ġcreature":11746,"Ġsisters":11747,"uesday":11748,"Ġindependent":11749,"ĠAy":11750,"Ġerr":11751,"Ġoffiz":11752,"Ġprisoners":11753,"Ġreligious":11754,"bank":11755,"ĠAwards":11756,"umph":11757,"aska":11758,"tritt":11759,"Ġenjoyed":11760,"Fraser":11761,"ĠWÃ¼ste":11762,"ĠClar":11763,"ĠSenator":11764,"Ġfaint":11765,"ĠKÃ¶":11766,"Ġtrink":11767,"nur":11768,"Ġexplod":11769,"ĠDra":11770,"ĠWhe":11771,"Ġnervous":11772,"mouth":11773,"urance":11774,"ĠAnzug":11775,"ubs":11776,"ĠgeÃ¶ffnet":11777,"ĠZentr":11778,"quis":11779,"Ġverhindern":11780,"ĠBotschaft":11781,"ĠBird":11782,"ĠamÃ¼s":11783,"shine":11784,"Ġstudent":11785,"Ġcouch":11786,"Ġsque":11787,"asped":11788,"Ã¼chtern":11789,"kampf":11790,"ouver":11791,"orte":11792,"ĠAz":11793,"Ġtooth":11794,"Ġliebte":11795,"ĠBleibt":11796,"Ġstrike":11797,"ĠSchauen":11798,"ĠKompl":11799,"aghetti":11800,"Ġlord":11801,"vÃ¶lker":11802,"ĠgewÃ¶hn":11803,"Ġdreck":11804,"Ġwelches":11805,"Ġindustry":11806,"ĠUs":11807,"Ġsection":11808,"Ġwounded":11809,"Ġlat":11810,"agne":11811,"ĠCompany":11812,"ĠUnterst":11813,"Ġschlechter":11814,"Ġintroduced":11815,"ĠLÃ¤nder":11816,"Ġoblig":11817,"chair":11818,"ĠSicht":11819,"weiÃŁt":11820,"riet":11821,"ĠschÃ¤tze":11822,"beg":11823,"change":11824,"Ġfrisch":11825,"Ġcombin":11826,"dlich":11827,"ĠFreut":11828,"Ġgradu":11829,"Ġqueer":11830,"ĠOrigin":11831,"Ġjagen":11832,"Ġkonzentr":11833,"ĠSozial":11834,"Ġprima":11835,"Ġlearning":11836,"Ġerschossen":11837,"Ġleaders":11838,"using":11839,"Ġaufzu":11840,"Ġpicking":11841,"mi":11842,"wers":11843,"Ġelimin":11844,"untary":11845,"ĠMorgan":11846,"ĠTaschen":11847,"ĠStamm":11848,"Ġsorts":11849,"etzten":11850,"Ġdrama":11851,"jemand":11852,"dence":11853,"gewalt":11854,"fire":11855,"Ġï¿½ï¿½ï¿½ï¿½":11856,"ĠÃľbr":11857,"ĠRub":11858,"Ġnetwork":11859,"zustellen":11860,"ĠSchande":11861,"osten":11862,"ĠSchwarz":11863,"ĠOw":11864,"Ġ1000":11865,"ĠFalle":11866,"ĠLÃ¤cheln":11867,"ĠNett":11868,"astrop":11869,"ĠColumb":11870,"osen":11871,"Ġober":11872,"ĠCass":11873,"ammlung":11874,"Ġfrogs":11875,"Ġinvited":11876,"ĠEindruck":11877,"ĠSum":11878,"oses":11879,"Ġclosely":11880,"Ġsomehow":11881,"24":11882,"ĠWÃ¼n":11883,"Ġherunter":11884,"ĠSteine":11885,"soft":11886,"Ġbranches":11887,"ION":11888,"otes":11889,"ĠLÃ¼g":11890,"Ġconfess":11891,"Ġrapidly":11892,"HR":11893,"ĠGames":11894,"Ġlanded":11895,"Ġauto":11896,"last":11897,"ĠBarry":11898,"Ġintellig":11899,"Ġerschre":11900,"mans":11901,"ĠDate":11902,"Ġgaz":11903,"ĠAren":11904,"urren":11905,"Ġbreaking":11906,"ĠParad":11907,"Ġresist":11908,"Ġfox":11909,"ĠBlock":11910,"Ġtraffic":11911,"Ġ150":11912,"Ġreplaced":11913,"Ġhunting":11914,"Ġdifficulty":11915,"Ġmort":11916,"ĠkÃ¶nne":11917,"Ġgebraucht":11918,"ĠVerhalten":11919,"ĠFeinde":11920,"Ġresponsible":11921,"Ġtarget":11922,"Tr":11923,"ĠNahr":11924,"ĠRal":11925,"Ġleichter":11926,"AI":11927,"ZT":11928,"Ġendet":11929,"Ġresults":11930,"glÃ¼cklich":11931,"find":11932,"ehold":11933,"iley":11934,"ĠExt":11935,"Ġjigsaw":11936,"Ġoriginally":11937,"Ġrequired":11938,"Ġgeglaubt":11939,"ĠFan":11940,"Ġgreatly":11941,"ĠFeier":11942,"izieren":11943,"Ġbieten":11944,"atic":11945,"ĠPack":11946,"Ġgez":11947,"ĠProst":11948,"Ġpuppy":11949,"deck":11950,"Ġchick":11951,"Ġparticip":11952,"Ġtausend":11953,"Ġhills":11954,"Ġgoat":11955,"Ġstanden":11956,"ĠIrish":11957,"ursday":11958,"Ġbeneath":11959,"Ġexcellent":11960,"aneben":11961,"ĠHannah":11962,"groÃŁ":11963,"ĠdÃ¼n":11964,"ollo":11965,"raut":11966,"Ġdepart":11967,"together":11968,"ĠWÃ¼rdest":11969,"ĠTschÃ¼s":11970,"ĠLewis":11971,"ĠDum":11972,"ĠSchlampe":11973,"Ġtrial":11974,"ĠSyd":11975,"Ġyyy":11976,"Ġeinsch":11977,"unts":11978,"500":11979,"Was":11980,"Ġstamp":11981,"Ġwra":11982,"Musik":11983,"Ġbelt":11984,"Ġspare":11985,"yay":11986,"Ġcookies":11987,"siehst":11988,"ĠHome":11989,"Ġrush":11990,"ĠRitter":11991,"Ġhesit":11992,"Ġblame":11993,"Ġsweetheart":11994,"ĠGitar":11995,"Ã¶te":11996,"iki":11997,"Ġmap":11998,"jamin":11999,"Ġcredit":12000,"ĠfÃ¼hrte":12001,"holds":12002,"ĠCatholic":12003,"ĠFigur":12004,"hle":12005,"gelaufen":12006,"Ġebenso":12007,"Ein":12008,"ahe":12009,"Ġchairs":12010,"ĠFolgen":12011,"Ġtoilet":12012,"ability":12013,"Ġschmutz":12014,"Ġmama":12015,"ĠWend":12016,"ĠSprich":12017,"Ġoffenbar":12018,"ĠKorea":12019,"ĠWarst":12020,"ĠWerden":12021,"Ġadvantage":12022,"Ġhorsie":12023,"Ġscarcely":12024,"ilty":12025,"Ġunus":12026,"Ġhabit":12027,"ĠGenug":12028,"ĠMoses":12029,"gelernt":12030,"ĠnÃ¤chstes":12031,"ĠAlten":12032,"Ġsterbe":12033,"MED":12034,"ĠYe":12035,"ĠwÃ¤hlen":12036,"ĠFeig":12037,"Are":12038,"Ġgang":12039,"lax":12040,"Ġbesides":12041,"ĠSchwestern":12042,"ĠEnkel":12043,"Ġnormally":12044,"Ġgrant":12045,"Ġneighbour":12046,"ĠHup":12047,"ĠKab":12048,"Ġreact":12049,"Ġerleben":12050,"folge":12051,"Ġillegal":12052,"Ex":12053,"bir":12054,"ĠWofÃ¼r":12055,"TH":12056,"rees":12057,"ĠFR":12058,"Ġ(;":12059,"Ġdrunk":12060,"Ġunterschied":12061,"Ġnut":12062,"ĠUnt":12063,"run":12064,"ĠMust":12065,"Ġelekt":12066,"60":12067,"à³":12068,"Ġrooms":12069,"geregt":12070,"ening":12071,"Ġmurm":12072,"ĠLeave":12073,"Ġcontrib":12074,"ausende":12075,"keys":12076,"ĠStay":12077,"Ġsystems":12078,"Ġtreated":12079,"ĠmÃ¼ssten":12080,"ailed":12081,"Ġbags":12082,"Ġvictory":12083,"ĠGeduld":12084,"steckt":12085,"ĠNachbarn":12086,"ĠNation":12087,"Ġwaschen":12088,"Ġmole":12089,"unte":12090,"ĠCross":12091,"bridge":12092,"Ã¶ffel":12093,"riften":12094,"ĠAlarm":12095,"Ġpale":12096,"ousers":12097,"Ġcontent":12098,"Ġevidently":12099,"gebaut":12100,"Ġlonely":12101,"hu":12102,"Ġaer":12103,"ĠPrÃ¼":12104,"ception":12105,"alien":12106,"quem":12107,"Ġsupply":12108,"Ġsoweit":12109,"utions":12110,"Ġglance":12111,"schlÃ¤ge":12112,"ĠKelly":12113,"organ":12114,"Ġabholen":12115,"Ġlegend":12116,"ĠÃ¼bert":12117,"Ġremains":12118,"ĠKN":12119,"istin":12120,"Ġ1950":12121,"Ġsplend":12122,"ĠSklaven":12123,"zeiten":12124,"Ġroy":12125,"ĠShould":12126,"ĠAnyway":12127,"Ġschaffe":12128,"Ġverhaftet":12129,"Ġ1989":12130,"cha":12131,"Ġchannel":12132,"Ġbesorgen":12133,"Ġpalace":12134,"ĠKartoff":12135,"ĠWirst":12136,"ĠDavis":12137,"ĠSchlange":12138,"Ġshelter":12139,"Fl":12140,"ĠDau":12141,"Ġdemonstr":12142,"ĠJulie":12143,"ĠGebt":12144,"aves":12145,"ĠSpezial":12146,"Ġaccepted":12147,"Ġcompeted":12148,"una":12149,"ĠCher":12150,"ĠCousin":12151,"Ġwashed":12152,"wÃ¤":12153,"ĠInvest":12154,"Ġlosing":12155,"rufe":12156,"Ġplanning":12157,"merksamkeit":12158,"omi":12159,"ĠPlÃ¤ne":12160,"Ġbelief":12161,"Ġminister":12162,"Ġsplit":12163,"jet":12164,"Ġverliert":12165,"Ġspringen":12166,"ĠGewissen":12167,"ĠPfund":12168,"Ġprize":12169,"zellen":12170,"eling":12171,"ĠErinnerungen":12172,"mord":12173,"schne":12174,"ĠAuÃŁen":12175,"Ġnearer":12176,"ĠMenschheit":12177,"ĠSchreck":12178,"ĠHexe":12179,"Ġtin":12180,"Ġaim":12181,"Ġawake":12182,"CA":12183,"maschine":12184,"Ġeinzig":12185,"Ġordinary":12186,"care":12187,"Ġbeenden":12188,"Ġraise":12189,"turns":12190,"ori":12191,"rene":12192,"ĠMartha":12193,"ĠClara":12194,"ĠPriester":12195,"ĠRache":12196,"ĠSechs":12197,"ordin":12198,"letzt":12199,"spielen":12200,"alds":12201,"Ġengaged":12202,"Ġrecording":12203,"ĠEverybody":12204,"Ġmochte":12205,"27":12206,"Ġwipe":12207,"Ġbones":12208,"ĠHead":12209,"ĠGrant":12210,"ĠGeschmack":12211,"Ġcaptured":12212,"ĠSylvia":12213,"Ġfantastisch":12214,"Ġsource":12215,"Ġhasst":12216,"Ġ34":12217,"lesen":12218,"Ġhandsome":12219,"Ġsaus":12220,"held":12221,"ĠNachdem":12222,"Ġkennengelernt":12223,"weile":12224,"artment":12225,"Ġcommer":12226,"Ġliest":12227,"gebrochen":12228,"Ġrecognized":12229,"Ġchew":12230,"nesday":12231,"Ġsets":12232,"isions":12233,"ĠSchuh":12234,"pointing":12235,"Ġtrocken":12236,"chant":12237,"Ãº":12238,"Ġhind":12239,"ĠBol":12240,"Ġdoggie":12241,"ĠFeuerwehr":12242,"Pl":12243,"ilities":12244,"ĠAllen":12245,"ĠChem":12246,"ĠNorthern":12247,"ĠIrgendwann":12248,"ĠDog":12249,"Ġdrug":12250,"ĠParliament":12251,"dies":12252,"uous":12253,"Ġborrow":12254,"adition":12255,"Ġax":12256,"rative":12257,"ĠNÃ¤chste":12258,"ĠBombe":12259,"bÃ¤r":12260,"Ġzun":12261,"Ġrushed":12262,"Ġext":12263,"ĠÃ¶ffentlich":12264,"Ġlibrary":12265,"Ġsticks":12266,"ĠCenter":12267,"bers":12268,"Ġgeplant":12269,"Ġselben":12270,"Ġprovided":12271,"hÃ¤":12272,"Ġdus":12273,"schuss":12274,"ĠWorauf":12275,"ELS":12276,"ĠOtto":12277,"ĠEw":12278,"ĠverrÃ¼ck":12279,"Ġeats":12280,"Ġpresently":12281,"ESS":12282,"Ġeurer":12283,"Ġschaut":12284,"Ġliqu":12285,"Ġmusical":12286,"ahhah":12287,"ĠCook":12288,"ĠAufmerksamkeit":12289,"ĠauÃŁerdem":12290,"ĠNormal":12291,"Ġdeutsche":12292,"Ġwire":12293,"schÃ¼ss":12294,"Ġshower":12295,"ĠSchÃ¶ne":12296,"Ġseventy":12297,"Ġstructure":12298,"Ġjail":12299,"spir":12300,"Ġaltern":12301,"Ġexciting":12302,"ĠJimmie":12303,"ĠStephen":12304,"Ġjobs":12305,"Ġpurse":12306,"Ġgetrennt":12307,"nold":12308,"ĠSollte":12309,"ella":12310,"Ġaufstehen":12311,"rÃ¤umen":12312,"anas":12313,"rip":12314,"Ġrefused":12315,"ĠLÃ¶wen":12316,"ĠPartei":12317,"Ġwelchen":12318,"Ġ1993":12319,"Ã¡n":12320,"ĠSav":12321,"ierend":12322,"ĠVol":12323,"ungslos":12324,"ĠHalb":12325,"OME":12326,"ymn":12327,"ĠverÃ¶ffent":12328,"inent":12329,"ĠWasch":12330,"ĠWissenschaftler":12331,"Just":12332,"KAR":12333,"Ġwoke":12334,"Ġsigns":12335,"haha":12336,"Ġbricks":12337,"Ġrecorder":12338,"geschichte":12339,"ĠLud":12340,"uggle":12341,"ĠTrick":12342,"ĠOperation":12343,"Ma":12344,"lies":12345,"ĠInf":12346,"rial":12347,"sst":12348,"Ġwein":12349,"Ġhomes":12350,"aler":12351,"rok":12352,"Ġleaf":12353,"Ġ37":12354,"ĠgÃ¤be":12355,"Ġirgendetwas":12356,"ITH":12357,"ĠFahrer":12358,"Ġwolf":12359,"Ġdecor":12360,"Ġattacked":12361,"Ġthousands":12362,"Ġcritic":12363,"ĠChaos":12364,"Ġyell":12365,"Ġerl":12366,"zip":12367,"ĠBeweis":12368,"Ġversuchte":12369,"lav":12370,"flÃ¤che":12371,"Ġtreasure":12372,"Ġ1988":12373,"ĠGall":12374,"Ġcounter":12375,"Ġtemperature":12376,"iation":12377,"ĠMagen":12378,"ĠTs":12379,"ĠLeiter":12380,"ĠAns":12381,"Ã¶rter":12382,"ĠGroÃŁe":12383,"omy":12384,"Ġechter":12385,"Ġours":12386,"ĠCy":12387,"phabet":12388,"Ġchosen":12389,"Ġconditions":12390,"Ver":12391,"ĠfÃ¼hlst":12392,"Ġfortune":12393,"CHE":12394,"ĠEU":12395,"Ġslipped":12396,"Ġcompetition":12397,"Ġprobieren":12398,"Ġprincess":12399,"Ne":12400,"corn":12401,"As":12402,"oi":12403,"ĠSteig":12404,"ĠSandy":12405,"ĠAbenteuer":12406,"aria":12407,"ardo":12408,"ungsvolle":12409,"ĠAtem":12410,"Ġdesigned":12411,"ĠBriefe":12412,"Ġthor":12413,"Ġess":12414,"ĠViv":12415,"Ġrolling":12416,"ĠTaylor":12417,"Ġscore":12418,"holt":12419,"orie":12420,"Ġarrow":12421,"ĠLois":12422,"âĢķ":12423,"Ġstellte":12424,"Ġfifth":12425,"Ġnucle":12426,"enk":12427,"Ġnass":12428,"Ġbrings":12429,"ĠMachst":12430,"ĠKrieger":12431,"straÃŁe":12432,"Ġbid":12433,"Ġ75":12434,"Ah":12435,"Ġbone":12436,"ĠBesides":12437,"Mom":12438,"ĠGeister":12439,"ELA":12440,"ĠSpieler":12441,"zugehen":12442,"Ġinzwischen":12443,"ĠKy":12444,"Ġprof":12445,"Ġstandard":12446,"ĠEmily":12447,"agan":12448,"ĠCatherine":12449,"schwe":12450,"Ġprovide":12451,"long":12452,"ĠJoy":12453,"Ġned":12454,"ĠHorn":12455,"Ġbeant":12456,"Ġausz":12457,"ĠPick":12458,"Ġermord":12459,"ĠKleidung":12460,"To":12461,"ichern":12462,"Ġpoo":12463,"Ġshift":12464,"foot":12465,"Ġappointed":12466,"Ġproduce":12467,"ĠenttÃ¤uscht":12468,"Ġbears":12469,"ĠRegel":12470,"ĠOscar":12471,"Ġnannte":12472,"ĠVinc":12473,"ĠFerien":12474,"rum":12475,"Â°":12476,"ĠMs":12477,"Ġreisen":12478,"Ġsprichst":12479,"anut":12480,"reif":12481,"ĠViol":12482,"non":12483,"Ġpony":12484,"Ġward":12485,"Ġhath":12486,"Ġreckon":12487,"Ġou":12488,"ĠArgent":12489,"Ġhearts":12490,"Ġpattern":12491,"ĠGelÃ¤chter":12492,"ĠTeller":12493,"ĠPanik":12494,"Ġentwickelt":12495,"ĠRemember":12496,"Ġuniform":12497,"Ġsmooth":12498,"ĠEntwick":12499,"Ġincreased":12500,"stic":12501,"oco":12502,"gte":12503,"ĠGern":12504,"ĠMedik":12505,"ĠUK":12506,"Ġrelief":12507,"ennung":12508,"ĠHafen":12509,"ĠAbsicht":12510,"aucht":12511,"inkel":12512,"Ġbadly":12513,"35":12514,"ĠRum":12515,"ĠKrÃ¤":12516,"Ġtowns":12517,"Will":12518,"chnen":12519,"Ġrising":12520,"ĠGolden":12521,"For":12522,"lecht":12523,"],":12524,"ĠDunkel":12525,"Ġuntersch":12526,"reiche":12527,"Ġeventually":12528,"ĠJordan":12529,"Ġfunction":12530,"Ġquality":12531,"ĠMatthew":12532,"Ġlebendig":12533,"Ġdunno":12534,"Ġintended":12535,"Ġanno":12536,"Ġdeer":12537,"Ġexcl":12538,"eres":12539,"Ġwaters":12540,"hmhm":12541,"Ġdrown":12542,"freund":12543,"dessen":12544,"recher":12545,"Ġunderneath":12546,"ĠOd":12547,"ĠSchwach":12548,"Ġbutterfly":12549,"pool":12550,"Ġaktiv":12551,"Ġpile":12552,"Ġbreast":12553,"Ġcandid":12554,"ĠKiste":12555,"Ġerfunden":12556,"ĠBesonders":12557,"Ġfer":12558,"toys":12559,"Ġappears":12560,"Ġwinning":12561,"ĠNether":12562,"een":12563,"wurf":12564,"Ġlod":12565,"ĠLight":12566,"ĠZunge":12567,"ĠZealand":12568,"ĠService":12569,"MEDIA":12570,"Ġlink":12571,"gehalten":12572,"aned":12573,"ĠTrinken":12574,"Ġconcert":12575,"ĠToilette":12576,"ĠVietnam":12577,"Ġlorry":12578,"speech":12579,"acle":12580,"Ġbesprechen":12581,"ĠFliegen":12582,"iped":12583,"ekaboo":12584,"Ġchanging":12585,"uan":12586,"Ġdial":12587,"ĠJacke":12588,"Ġmultip":12589,"mom":12590,"sque":12591,"Ġmerry":12592,"aya":12593,"ĠJosh":12594,"coughs":12595,"gust":12596,"Ġgained":12597,"ĠCop":12598,"Ġpity":12599,"Ġconqu":12600,"Ġcoal":12601,"istert":12602,"ĠgewÃ¤hlt":12603,"ĠTÃ¼ren":12604,"Ã¤men":12605,"ĠFun":12606,"Ġpoison":12607,"Ġcandy":12608,"Ġvergangen":12609,"ĠUnterricht":12610,"Ġdolls":12611,"ĠBÃ¶se":12612,"ĠReis":12613,"ĠerfÃ¼llt":12614,"ĠGuy":12615,"Ġjacket":12616,"Ġplanned":12617,"ĠZivil":12618,"ippi":12619,"Ġinhabit":12620,"Ġeiniges":12621,"Ġgewiss":12622,"ĠHimmels":12623,"Ġnackt":12624,"ĠMY":12625,"Ġconcentr":12626,"At":12627,"ĠSatz":12628,"ems":12629,"ĠDeath":12630,"ĠlÃ¶sen":12631,"ĠBullen":12632,"Ġkonntest":12633,"Ġpresents":12634,"Ġangekommen":12635,"ĠCD":12636,"Ġschwier":12637,"Ġicecream":12638,"ĠErdbe":12639,"ĠDok":12640,"ielten":12641,"Ġmighty":12642,"ĠMichel":12643,"Ġrode":12644,"Ġcircumstances":12645,"stick":12646,"gery":12647,"ĠIndien":12648,"erkt":12649,"Ġaid":12650,"Ġspazieren":12651,"Ġverbunden":12652,"help":12653,"adesh":12654,"ĠAD":12655,"Ġsteam":12656,"Ġprisoner":12657,"stuhl":12658,"ĠFlÃ¼cht":12659,"Ã³n":12660,"ĠPatsy":12661,"Ġesse":12662,"Ġseg":12663,"ĠWHAT":12664,"Ã¼che":12665,"Ġavoid":12666,"chest":12667,"ĠDall":12668,"Ġparties":12669,"ĠLiber":12670,"Ġdemanded":12671,"ĠFÃ¤h":12672,"Ġvergeben":12673,"ĠerzÃ¤hle":12674,"ĠTats":12675,"udd":12676,"ĠMilliar":12677,"igst":12678,"Ġduh":12679,"ĠgetrÃ¤umt":12680,"ĠHemd":12681,"too":12682,"Ġwes":12683,"Ġlads":12684,"besch":12685,"inal":12686,"Ġdoo":12687,"Ġcows":12688,"ĠBR":12689,"ĠLÃ¼gen":12690,"Ġwundervoll":12691,"Ġoldest":12692,"ĠVerzeihen":12693,"Ġchain":12694,"Ġtrennen":12695,"ktur":12696,"Ġrolled":12697,"iminal":12698,"fÃ¤lle":12699,"Look":12700,"artige":12701,"Ġcrossed":12702,"mehr":12703,"Ġlanden":12704,"Ġ48":12705,"Ġmiser":12706,".--":12707,"26":12708,"bid":12709,"Ġdiss":12710,"front":12711,"ĠgehÃ¶rte":12712,"Um":12713,"ĠLux":12714,"Ġliebsten":12715,".[":12716,"ĠStehen":12717,"Ġincrease":12718,"Ġnoble":12719,"Ġprofessor":12720,"Ġmast":12721,"ĠSÃ¶":12722,"ĠAUF":12723,"ĠSomeone":12724,"ettel":12725,"Ġgegr":12726,"frage":12727,"Ġgrandmother":12728,"Ġtransfer":12729,"ĠVergessen":12730,"ĠOxford":12731,"ĠstÃ¶rt":12732,"ĠAllein":12733,"Ġguitar":12734,"Ġanti":12735,"ĠDingen":12736,"ĠcHffff":12737,"Ġbaseball":12738,"ĠSoon":12739,"inned":12740,"Ġapolog":12741,"atre":12742,"ĠPull":12743,"ĠdrÃ¼cken":12744,"ekte":12745,"ĠBedeutung":12746,"Ġsne":12747,"essert":12748,"onny":12749,"know":12750,"vard":12751,"ĠBelle":12752,"Ġexperiment":12753,"Ġhoping":12754,"ointment":12755,"KF":12756,"ĠVersprechen":12757,"sighs":12758,"ĠAv":12759,"Ġangen":12760,"ĠProzess":12761,"Ġsquee":12762,"Ġsacri":12763,"ĠAnth":12764,"ĠArten":12765,"Ġabends":12766,"ĠÃ¼berprÃ¼":12767,"Ġkomplett":12768,"ĠSchokolade":12769,"Ġlas":12770,"Ã¼rt":12771,"Ġfinanz":12772,"vention":12773,"Ġmann":12774,"ĠIl":12775,"ĠPic":12776,"ĠCiao":12777,"kap":12778,"Ã¤fer":12779,"Ġnotes":12780,"ĠEntsp":12781,"Ġ185":12782,"COL":12783,"dri":12784,"ĠHim":12785,"enna":12786,"ĠFolge":12787,"push":12788,"ĠMauer":12789,"ĠKong":12790,"ĠEveryone":12791,"ulk":12792,"ĠAnst":12793,"Ġguilty":12794,"Ġexpensive":12795,"Ġbeer":12796,"ĠJay":12797,"log":12798,"Ġfarther":12799,"ĠPatienten":12800,"Cal":12801,"ĠÃ¼berzeugt":12802,"ĠFarben":12803,"Es":12804,"embly":12805,"ĠGroÃŁer":12806,"Ġhingehen":12807,"ĠÃ¤ndert":12808,"Ġbay":12809,"Ġpipe":12810,"ĠBO":12811,"ĠInhalt":12812,"ĠWhatever":12813,"Ġdishes":12814,"ĠRegion":12815,"Ġescaped":12816,"Ġidiot":12817,"DR":12818,"Ġlamp":12819,"ppelt":12820,"Ġlecker":12821,"Ġstrugg":12822,"Ġsolid":12823,"Ġbeschissen":12824,"Ġhumans":12825,"Ġrug":12826,"Ġconce":12827,"Ġconnected":12828,"ĠLÃ¤":12829,"sichtlich":12830,"Ġhoped":12831,"door":12832,"Ġactual":12833,"ĠSecretary":12834,"ĠGree":12835,"Ġ38":12836,"este":12837,"ĠStrafe":12838,"ĠDamn":12839,"Ġmedia":12840,"Ġoccurred":12841,"Ġpilot":12842,"orange":12843,"wirtschaft":12844,"ĠJersey":12845,"urd":12846,"schm":12847,"Ġhurts":12848,"ideos":12849,"ĠChampagner":12850,"ĠSicherheits":12851,"ĠChap":12852,"ĠKrÃ¤fte":12853,"ĠBenjamin":12854,"Ġkidding":12855,"aup":12856,"Ġausger":12857,"ĠJacob":12858,"Ġvermutlich":12859,"Ġgrandfather":12860,"Ġsetzte":12861,"sweise":12862,"ĠPas":12863,"Ġadmit":12864,"ĠHarold":12865,"ĠWelcher":12866,"Ġrecords":12867,"uther":12868,"umin":12869,"ĠUniversitÃ¤t":12870,"ĠVerrÃ¤ter":12871,"ĠLil":12872,"Ġtrousers":12873,"Ġtender":12874,"ĠverÃ¶ffentlicht":12875,"28":12876,"Ġverur":12877,"ĠAbschied":12878,"ĠPremier":12879,"Ġsteigt":12880,"Ġclimbed":12881,"Ġstreiten":12882,"ĠFran":12883,"Ġfunktionieren":12884,"DER":12885,"Max":12886,"ankt":12887,"Ġseriously":12888,"Ġhighly":12889,"Ġmeistens":12890,"Ġplatform":12891,"mÃ¤dchen":12892,"ollt":12893,"ĠverlÃ¤sst":12894,"ences":12895,"ĠWon":12896,"ĠMiller":12897,"spl":12898,"Ġhinauf":12899,"Ġkompliziert":12900,"ĠBach":12901,"usal":12902,"bereit":12903,"Ġweapon":12904,"ĠMoon":12905,"alous":12906,"Ġvolle":12907,"Ġheft":12908,"Can":12909,"iht":12910,"ĠkÃ¼r":12911,"ĠDiam":12912,"otion":12913,"gelegt":12914,"Ġislands":12915,"ME":12916,"Ġwovon":12917,"Ġmoral":12918,"Ġintelligent":12919,"37":12920,"Ġmisch":12921,"undet":12922,"Ġ1984":12923,"Ã¤uber":12924,"ĠLawrence":12925,"Ã¼se":12926,"Ġeinfacher":12927,"Go":12928,"ĠEy":12929,"ĠKh":12930,"ĠFrÃ¼hl":12931,"Ġdritten":12932,"ĠGeorgia":12933,"ĠAssociation":12934,"wau":12935,"Ġdawn":12936,"assung":12937,"ĠZeitpunkt":12938,"Ġhyd":12939,"ione":12940,"Ġcomment":12941,"ippen":12942,"Ġwealth":12943,"ĠAtlantic":12944,"Ġbegegnet":12945,"Ġerne":12946,"Ġmyth":12947,"ĠMarion":12948,"ĠAustria":12949,"ĠSchÃ¼sse":12950,"ĠÃ¼berlebt":12951,"Ġcode":12952,"ĠKrebs":12953,"ĠBoo":12954,"Ġshadow":12955,"ĠSchnau":12956,"Ġconsequ":12957,"bring":12958,"irrt":12959,"Ġfinds":12960,"Ġdoggy":12961,"ĠGrenzen":12962,"ĠNeuigkeiten":12963,"Ġbegleiten":12964,"ĠLÃ¼gner":12965,"ĠTatsÃ¤chlich":12966,"ĠLind":12967,"Ġcomedy":12968,"Ġpicnic":12969,"pack":12970,"Ġtalent":12971,"Ġpiano":12972,"ĠBrille":12973,"acon":12974,"ĠSignal":12975,"urg":12976,"ĠSweden":12977,"writer":12978,"emies":12979,"Ġpron":12980,"Ġload":12981,"Ġfoll":12982,"Ġcave":12983,"ĠValley":12984,"Ġgesetzt":12985,"Ġmoments":12986,"Ġsatisfied":12987,"Ġsons":12988,"Ġwagon":12989,"asi":12990,"Ġwillen":12991,"hmm":12992,"angs":12993,"ĠGewehr":12994,"ĠHosen":12995,"Ġsexy":12996,"Ġauthority":12997,"ington":12998,"ĠMak":12999,"ĠTradition":13000,"Ġspielst":13001,"SC":13002,"ĠBag":13003,"oland":13004,"Ġwiedersehen":13005,"ĠMikro":13006,"wendig":13007,"ĠUkraine":13008,"Ġatmen":13009,"Ġkissed":13010,"Ġtale":13011,"Ġdere":13012,"Ġsitze":13013,"Ġhoffen":13014,"zubringen":13015,"Ġthorough":13016,"ĠRabb":13017,"ĠChristopher":13018,"real":13019,"Ġkil":13020,"ĠSchme":13021,"Ġslave":13022,"ĠAth":13023,"umper":13024,"ĠWirklichkeit":13025,"Ġextremely":13026,"irrel":13027,"Ġzuh":13028,"ĠStil":13029,"ĠThursday":13030,"warte":13031,"ultan":13032,"Ġdivor":13033,"Ġpassage":13034,"Ġcolon":13035,"Ġgrace":13036,"Ġsacrif":13037,"ĠLange":13038,"Ġfragst":13039,"uste":13040,"still":13041,"Ġreiz":13042,"Ġausgel":13043,"lÃ¤ss":13044,"irts":13045,"Ġangesehen":13046,"ĠÃĦg":13047,"KAT":13048,"ova":13049,"ĠTrottel":13050,"ĠEntweder":13051,"ĠDur":13052,"ĠBeute":13053,"----\"":13054,"Ġverfolgt":13055,"Ġhohen":13056,"schrank":13057,"Ġentrance":13058,"ĠNad":13059,"emann":13060,"ĠEve":13061,"Ġspect":13062,"Ġsentence":13063,"ĠDiener":13064,"Ġearnest":13065,"Ġeagerly":13066,"47":13067,"umes":13068,"Ġhalben":13069,"Ġeastern":13070,"ĠDaher":13071,"iture":13072,"Ġeifers":13073,"cement":13074,"Ġbatt":13075,"Ġugly":13076,"merzen":13077,"Ġordentlich":13078,"FT":13079,"leist":13080,"Ġaufgeregt":13081,"Ġprofit":13082,"Ġhasta":13083,"Ã¼ÃŁt":13084,"Pr":13085,"aro":13086,"erehr":13087,"ĠPasst":13088,"ĠPenny":13089,"ĠSpider":13090,"Ġschlug":13091,"ĠHauptstadt":13092,"ĠTuesday":13093,"Ġtrage":13094,"Ġrecomm":13095,"Ġneulich":13096,"Ã¤chtigen":13097,"ĠTie":13098,"ĠVerw":13099,"ĠRechte":13100,"gefunden":13101,"Ġfolgt":13102,"ĠMistkerl":13103,"ockt":13104,"ĠMickey":13105,"lar":13106,"ĠBrig":13107,"produ":13108,"Ġsetting":13109,"ĠAfghan":13110,"ĠWunderbar":13111,"ĠGelieb":13112,"ĠHeilige":13113,"ĠSnow":13114,"istischen":13115,"olas":13116,"iÃŁig":13117,"Ġblaue":13118,"Ġdurfte":13119,"ĠHou":13120,"ĠHig":13121,"Ġbestehen":13122,"spruch":13123,"ĠblÃ¶de":13124,"Ġselected":13125,"ĠKÃ¼hl":13126,"ĠEllie":13127,"ĠFarm":13128,"quet":13129,"ĠPhys":13130,"ĠUntersuch":13131,"ĠTHIS":13132,"Ġlessons":13133,"Ġrear":13134,"Ã¼nder":13135,"ĠEdu":13136,"ĠFantas":13137,"\").":13138,"Ġyum":13139,"eller":13140,"ĠLeb":13141,"ĠFu":13142,"ĠDoppel":13143,"first":13144,"tw":13145,"irteen":13146,"Ġonline":13147,"Ġkingdom":13148,"El":13149,"gibt":13150,"Ġstammt":13151,"Ġrechten":13152,"Ġscheinen":13153,"Ġmarks":13154,"worte":13155,"ĠSydney":13156,"Ġdrugs":13157,"Ġelder":13158,"Ġdivision":13159,"Ġcommander":13160,"ĠOberst":13161,"Ġtreatment":13162,"ĠFurcht":13163,"Ġleague":13164,"Ġguide":13165,"Ġmathemat":13166,"agle":13167,"Ġshed":13168,"Ġbricht":13169,"Ġwunderbare":13170,"ĠAlfred":13171,"ctic":13172,"ippe":13173,"ĠMedien":13174,"ĠMartine":13175,"ĠNetherlands":13176,"Ġrevolution":13177,"ongrat":13178,"ĠTurk":13179,"Ġtoss":13180,"Ġgelebt":13181,"Ġscen":13182,"Ġfreedom":13183,"Ġsweetie":13184,"Ġbelongs":13185,"Ġdomin":13186,"ĠDemocratic":13187,"Ġautomat":13188,"ĠALL":13189,"ĠSieben":13190,"willig":13191,"ĠPersÃ¶n":13192,"ichts":13193,"ema":13194,"andid":13195,"ĠOffen":13196,"ĠMain":13197,"Ġsuffered":13198,"Ġcells":13199,"reisen":13200,"illes":13201,"ĠHoly":13202,"ĠWednesday":13203,"Ġdienen":13204,"leichen":13205,"Ġgovernor":13206,"Ġbefreien":13207,"iler":13208,"Ġsoap":13209,"ĠPalast":13210,"giggles":13211,"rd":13212,"Ġvieles":13213,"ĠGuter":13214,"Ġverbre":13215,"Ġclimate":13216,"Ġceased":13217,"ĠImm":13218,"ehlen":13219,"Ġcrocod":13220,"UB":13221,"Ġtank":13222,"isl":13223,"ĠBil":13224,"ĠEh":13225,"uliere":13226,"Ġtrinkt":13227,"ĠPech":13228,"197":13229,"HL":13230,"Ġthrows":13231,"Ġairport":13232,"Ġsuffer":13233,"ĠTimes":13234,"ĠGeschw":13235,"Ã¼tzung":13236,"bach":13237,"griffen":13238,"uder":13239,"etit":13240,"ession":13241,"isha":13242,"vielleicht":13243,"Ġdreh":13244,"ĠHoney":13245,"Ġumgehen":13246,"ĠIrgendwas":13247,"Ġsogen":13248,"Okay":13249,"ĠTel":13250,"belt":13251,"ĠPed":13252,"Ġjournal":13253,"Ġantwort":13254,"Ġbanana":13255,"Ġaye":13256,"esc":13257,"ĠFernseher":13258,"ĠCole":13259,"Ġenemies":13260,"ĠApollo":13261,"Ġvictim":13262,"ĠÃľbrigens":13263,"mag":13264,"Ã¤ll":13265,"Ġzuletzt":13266,"Ġtruly":13267,"loyd":13268,"Ġaltes":13269,"Ġtreiben":13270,"ĠBefehle":13271,"MEL":13272,"Ġcaterpillar":13273,"Ġseated":13274,"Ġroles":13275,"atze":13276,"ĠMabel":13277,"grÃ¶":13278,"Ġlesson":13279,"rolled":13280,"Ġcollection":13281,"IK":13282,"ĠBurt":13283,"Ġspan":13284,"Ġcomplex":13285,"zulernen":13286,"vÃ¶lkerung":13287,"ĠÉĻ":13288,"ĠGrau":13289,"ĠRenn":13290,"Ġvorgestellt":13291,"Ġuseta":13292,"Ġnumer":13293,"wald":13294,"Ã¤fst":13295,"ĠRuhig":13296,"Ġforgive":13297,"Ġwarning":13298,"Ġsuchst":13299,"kuchen":13300,"ĠMantel":13301,"ĠÃľberleben":13302,"Ġgrandma":13303,"ĠSouthern":13304,"ĠActually":13305,"ĠFootnote":13306,"bee":13307,"Ġshining":13308,"ĠSeÃ±":13309,"Ġacquaint":13310,"ĠGau":13311,"ĠDiesmal":13312,"Ġmarked":13313,"mpt":13314,"ĠMaterial":13315,"Ġbester":13316,"ĠJas":13317,"ĠYo":13318,"boden":13319,"ammed":13320,"Ġpaus":13321,"Ġstets":13322,"uded":13323,"retÃ¤r":13324,"Ġsufficient":13325,"girl":13326,"rass":13327,"ĠMmm":13328,"Ġprem":13329,"Ġtunnel":13330,"ĠAbschluss":13331,"Ġbesondere":13332,"ĠWelches":13333,"cies":13334,"Ġbla":13335,"Ġspider":13336,"ĠOfficer":13337,"ĠChairman":13338,"gÃ¼lt":13339,"Ġhinzu":13340,"ĠBeding":13341,"gner":13342,"Ġwhenever":13343,"Ġhousehold":13344,"ĠRisiko":13345,"onia":13346,"ĠSuppe":13347,"ĠMÃ¤rchen":13348,"ĠNathan":13349,"ĠJere":13350,"Ġsequ":13351,"ĠKosten":13352,"irkus":13353,"ĠDÃ¼r":13354,"Ġbucket":13355,"Ġinfe":13356,"ĠMaur":13357,"Ġchips":13358,"Ġdocument":13359,"igel":13360,"Ġgeschah":13361,"gemein":13362,"Ġreparieren":13363,"Ġoven":13364,"ĠJos":13365,"shouts":13366,"ĠAufhÃ¶ren":13367,"ĠKaren":13368,"sprache":13369,"izenz":13370,"29":13371,"Ã¼ger":13372,"ĠKok":13373,"Ġgrate":13374,"ĠKleinen":13375,"gerechnet":13376,"ĠReicht":13377,"Ġrecent":13378,"ĠSilber":13379,"ĠJuan":13380,"ĠEastern":13381,"Ġaston":13382,"ĠPast":13383,"okes":13384,"ĠRechnung":13385,"ĠMove":13386,"ĠFaith":13387,"istische":13388,"Ġgelegt":13389,"Ġlick":13390,"Ġbrit":13391,"gucke":13392,"ĠÃĦgyp":13393,"ĠAma":13394,"Ġcarr":13395,"Ã¤nz":13396,"cribed":13397,"ĠPooh":13398,"ammelt":13399,"drÃ¼cken":13400,"Ġsorrow":13401,"ĠGeor":13402,"Ġweiteren":13403,"scheinend":13404,"Ã¼stung":13405,"ĠNicole":13406,"ĠFabrik":13407,"ĠEreign":13408,"ahm":13409,"Ġproceed":13410,"ĠCarter":13411,"ĠEnte":13412,"ĠFach":13413,"ipment":13414,"ĠHerzog":13415,"Ġelement":13416,"Ġrequire":13417,"Ġgesamte":13418,"boot":13419,"sec":13420,"ĠPizza":13421,"Ġracing":13422,"Ġrescue":13423,"Mone":13424,"ĠFront":13425,"Ġweiterhin":13426,"ropol":13427,"ladung":13428,"Ġinhabitants":13429,"UL":13430,"Ã¶nt":13431,"Ġsteal":13432,"Ġerstes":13433,"ĠEigen":13434,"ĠBergen":13435,"Ġ1985":13436,"ĠNÃ¤chstes":13437,"Ã¼nkt":13438,"Ã¼stere":13439,"Ġheight":13440,"anges":13441,"ĠBesitz":13442,"ĠTode":13443,"ĠSimone":13444,"Ġloy":13445,"iments":13446,"ĠPardon":13447,"ĠDrecks":13448,"33":13449,"Ġtum":13450,"ĠAM":13451,"Ġunit":13452,"ĠGran":13453,"IP":13454,"ws":13455,"ĠPict":13456,"pha":13457,"irs":13458,"Ġupside":13459,"ivity":13460,"Ġswear":13461,"Ġmaint":13462,"Ġfate":13463,"Ġertragen":13464,"something":13465,"Ġermordet":13466,"Ġcam":13467,"ĠFat":13468,"ĠRoboter":13469,"ĠEver":13470,"ĠFritz":13471,"Ġproposed":13472,"ĠAR":13473,"ĠMoh":13474,"Ġdieselbe":13475,"Ġbeans":13476,"uri":13477,"Ġgrey":13478,"Ġ1987":13479,"ĠKnast":13480,"ITT":13481,"Ġtiss":13482,"Ġwww":13483,"utschen":13484,"Ġentlassen":13485,"ĠGray":13486,"ĠSet":13487,"Ġew":13488,"Ġune":13489,"ĠProtest":13490,"Ġoperation":13491,"Ġburned":13492,"Ġselling":13493,"Ġschicke":13494,"Ġstern":13495,"Ġcher":13496,"Ġstatement":13497,"ĠDeal":13498,"ĠFBI":13499,"icherung":13500,"ĠEtwa":13501,"izz":13502,"Ġ1986":13503,"Ġpresented":13504,"ĠerklÃ¤r":13505,"ĠHurry":13506,"icing":13507,"ĠDieb":13508,"Ġdeb":13509,"VID":13510,"Ġhyp":13511,"ĠWit":13512,"gekehrt":13513,"Ġseats":13514,"Ġkennenzulernen":13515,"Ġpoliceman":13516,"ĠPunkte":13517,"fisch":13518,"omma":13519,"Ã¤del":13520,"ĠKirchen":13521,"à¤¾":13522,"ĠPfarrer":13523,"cup":13524,"Ġzweit":13525,"Ġmedal":13526,"Ġdunk":13527,"Ġlover":13528,"Ġgotten":13529,"ĠGeschÃ¤fte":13530,"Ġdahinter":13531,"Ġrecognize":13532,"Ġbeherr":13533,"ĠEinwohner":13534,"Ġcompos":13535,"Ġdelicious":13536,"ĠSpanien":13537,"coming":13538,"su":13539,"Ġpregn":13540,"Ġteaching":13541,"Ġsplendid":13542,"ĠJeann":13543,"Ġharder":13544,"ĠBesseres":13545,"ĠHÃ¼b":13546,"ĠRauch":13547,"Ġshops":13548,"ĠVermÃ¶gen":13549,"Ġwohne":13550,"Ġeinkaufen":13551,"Ġmitgenommen":13552,"ĠWeit":13553,"ĠDramat":13554,"ĠSchiffe":13555,"ĠWolken":13556,"gro":13557,"akte":13558,"Car":13559,"ĠwofÃ¼r":13560,"Ġsooner":13561,"kannt":13562,"samen":13563,"ĠCarolina":13564,"Ġklasse":13565,"laces":13566,"Ġslip":13567,"ĠJuli":13568,"Ġchemical":13569,"dah":13570,"ĠFanny":13571,"lets":13572,"prob":13573,"ĠSchreib":13574,"Ġpitcher":13575,"quarters":13576,"Ġsin":13577,"Ġfan":13578,"Ġfile":13579,"ĠJunior":13580,"ĠAmanda":13581,"Ġ1972":13582,"ĠSolche":13583,"frei":13584,"ĠIdent":13585,"Ġpushing":13586,"Ġverspr":13587,"ĠStÃ¶hnen":13588,"Ġtrag":13589,"ĠSchreie":13590,"Ġmi":13591,"ĠschÃ¤tzen":13592,"ouri":13593,"chtet":13594,"ĠDarÃ¼ber":13595,"Ġvalley":13596,"elia":13597,"Ġlebst":13598,"Ġagent":13599,"Ġprofession":13600,"kont":13601,"ĠWy":13602,"ĠJÃ¤ger":13603,"ĠReisen":13604,"ĠRobinson":13605,"Ġrauchen":13606,"June":13607,"ieÃŁe":13608,"ahnen":13609,"boat":13610,"inik":13611,"Ġdim":13612,"Ġchose":13613,"Ġstehlen":13614,"Ġsending":13615,"ĠDeckung":13616,"ĠEsel":13617,"Ġsexual":13618,"BY":13619,"ĠDro":13620,"Ġpowers":13621,"Ġaltogether":13622,"Ġscary":13623,"invol":13624,"Ġbent":13625,"ĠIM":13626,"ĠFrances":13627,"ĠUmwelt":13628,"ĠSchrank":13629,"SP":13630,"giving":13631,"inchen":13632,"Ġthirst":13633,"Ġeinges":13634,";\"":13635,"ĠKÃ¶r":13636,"Ġphysical":13637,"ĠLily":13638,"Ġglaubte":13639,"ĠVictoria":13640,"ĠTraining":13641,"Ġbemerkt":13642,"Ġjun":13643,"essa":13644,"Ġdistant":13645,"Ġcompleted":13646,"listen":13647,"Ã¤b":13648,"Ġeilig":13649,"Ġarbeitete":13650,"Or":13651,"ĠHom":13652,"ĠHang":13653,"ĠPower":13654,"schuhe":13655,"Ġkindly":13656,"Ġadvance":13657,"Ġpussy":13658,"ĠHalte":13659,"Ġgoods":13660,"Ġissues":13661,"Ġgebrauchen":13662,"imum":13663,"ĠProvince":13664,"Ġverar":13665,"ĠStift":13666,"Ġdetails":13667,"Ġbeendet":13668,"Ġseek":13669,"ĠgefÃ¼hrt":13670,"Ġbeschlossen":13671,"Ġdelighted":13672,"Ġslaves":13673,"Ġarrested":13674,"BA":13675,"Ġtoller":13676,"Ġenden":13677,"ĠGrÃ¼n":13678,"ĠGrÃ¼ÃŁ":13679,"Ġsucceeded":13680,"iegt":13681,"ĠSi":13682,"ĠNeue":13683,"Ġhonour":13684,"ĠSchulden":13685,"ĠErlaubnis":13686,"Ġnic":13687,"Ġshapes":13688,"ĠFrÃ¼h":13689,"Ġenorm":13690,"ĠwÃ¤chst":13691,"ĠScheid":13692,"ĠArbeiten":13693,"ĠÃĦrzte":13694,"Ã¶ten":13695,"imo":13696,"ferd":13697,"ĠPoor":13698,"IST":13699,"utive":13700,"ĠZeugen":13701,"Ġpassengers":13702,"BS":13703,"ĠGerecht":13704,"Ġdurchs":13705,"Ġflood":13706,"Ġspirits":13707,"uy":13708,"ĠBÃ¤ren":13709,"Ġwarf":13710,"Ġentscheid":13711,"Ġbetrifft":13712,"Ġvertraut":13713,"orted":13714,"Ġworn":13715,"ĠHÃ¼hner":13716,"hÃ¤ngen":13717,"ĠPrincess":13718,"oos":13719,"Ġjustice":13720,"Ġclimbing":13721,"Ġheutigen":13722,"Ġfed":13723,"ĠLena":13724,"imeter":13725,"ĠKop":13726,"ĠSpiele":13727,"ĠFrosch":13728,"ĠJungfrau":13729,"ĠNavy":13730,"again":13731,"ĠVerfl":13732,"Ã¤tsel":13733,"Ġdritte":13734,"scream":13735,"ĠspÃ¼ren":13736,"ĠFindest":13737,"Ġarranged":13738,"ĠGerÃ¤usch":13739,"Ġpainted":13740,"ĠNam":13741,"elyn":13742,"away":13743,"pop":13744,"ĠFace":13745,"Ġaufgenommen":13746,"ĠChanc":13747,"Ġdauernd":13748,"Ġhassen":13749,"IES":13750,"mod":13751,"Ġooh":13752,"ulance":13753,"Ġplates":13754,"ĠOkt":13755,"ĠVON":13756,"ĠZit":13757,"nochmal":13758,"etta":13759,"Ġgeraten":13760,"Ġaffair":13761,"ĠGemeinde":13762,"Ġbestellt":13763,"ĠBroad":13764,"ĠLÃ¤rm":13765,"Ġpoorly":13766,"Ġpowder":13767,"Ġauss":13768,"Ġrelax":13769,"Ġunable":13770,"osis":13771,"ACH":13772,"Lau":13773,"Ġtracks":13774,"198":13775,"ĠWichser":13776,"Ġability":13777,"Ġchrist":13778,"ĠMusch":13779,"hot":13780,"rant":13781,"Ġaccompl":13782,"ĠBernard":13783,"ĠBruno":13784,"ĠICH":13785,"Ġhadta":13786,"arre":13787,"arson":13788,"Ġarchite":13789,"achtung":13790,"Ġproducer":13791,"Ã¤chtnis":13792,"ĠHirn":13793,"ichtlich":13794,"Ġschol":13795,"ĠRufen":13796,"ĠDallas":13797,"Ġtort":13798,"Ġpant":13799,"Ġchim":13800,"Ġzeigte":13801,"ĠLeslie":13802,"Ġadventure":13803,"Ġhaste":13804,"iders":13805,"iffs":13806,"ĠMeg":13807,"ĠPhilos":13808,"vania":13809,"ĠBoris":13810,"ĠYear":13811,"Ġbrut":13812,"involuntary":13813,"Ġgodd":13814,"cles":13815,"ĠWut":13816,"ĠAnfÃ¼hrer":13817,"Ġanstren":13818,"Ġbuttons":13819,"Ġfas":13820,"gegeben":13821,"oiselle":13822,"ĠHÃ¼tte":13823,"ĠVi":13824,"JO":13825,"ĠVerrÃ¼ck":13826,"Ġapples":13827,"Ġowl":13828,"Ġinnocent":13829,"Åį":13830,"ario":13831,"Ġven":13832,"Ġaufget":13833,"ĠStolz":13834,"Ġausgehen":13835,"Ġbesucht":13836,"Ġspeaks":13837,"ATION":13838,"American":13839,"Ġwing":13840,"ĠKansas":13841,"ĠFri":13842,"Ġnachdenken":13843,"ĠSeven":13844,"ĠImper":13845,"Ġ1979":13846,"ĠeifersÃ¼chtig":13847,"Ġwitch":13848,"Ġrice":13849,"Ġkeen":13850,"Bob":13851,"Miss":13852,"Ġdaily":13853,"Ġmustn":13854,"richtung":13855,"Ġstudies":13856,"Ġ1976":13857,"ulate":13858,"akers":13859,"Ġdriven":13860,"ĠVersuchen":13861,"ĠBestimmt":13862,"Ġorganization":13863,"hole":13864,"pson":13865,"keeper":13866,"ĠManager":13867,"attered":13868,"geworfen":13869,"ĠINV":13870,"uing":13871,"Ġsum":13872,"ĠSad":13873,"oret":13874,"ĠSCHRE":13875,"Ġtraditional":13876,"Ġfo":13877,"Ġannehmen":13878,"Ġbefinden":13879,"Ġ1981":13880,"ĠFÃ¼ÃŁen":13881,"hythm":13882,"Ġspots":13883,"seven":13884,"ĠZeich":13885,"ĠSchluck":13886,"doesn":13887,"Ġpillow":13888,"ĠPok":13889,"ĠBeerd":13890,"goes":13891,"ĠHerzlichen":13892,"seitig":13893,"ĠNut":13894,"Ġstole":13895,"Ġconfl":13896,"Ġapplic":13897,"Ġdaneben":13898,"ĠCur":13899,"Ġpride":13900,"zwungen":13901,"ĠGerechtigkeit":13902,"Ġdisplay":13903,"48":13904,"ran":13905,"inte":13906,"ĠBalk":13907,"burgh":13908,"Ġarmed":13909,"ĠGrandpa":13910,"Ġroyal":13911,"gonna":13912,"llie":13913,"Ġjelly":13914,"ĠGrat":13915,"Ġguests":13916,"comm":13917,"ĠNah":13918,"ĠGary":13919,"verse":13920,"chung":13921,"Ġcontains":13922,"chuckles":13923,"rein":13924,"esa":13925,"utn":13926,"Ġlege":13927,"zeits":13928,"ĠUnterstÃ¼tzung":13929,"ĠlÃ¶":13930,"Ġeighteen":13931,"brochen":13932,"ĠDal":13933,"oline":13934,"Ġauftau":13935,"shakes":13936,"Ġteachers":13937,"ĠVerstehen":13938,"Ġadvis":13939,"bogen":13940,"Ġerkannt":13941,"ĠTief":13942,"ĠKommand":13943,"Ġschlafe":13944,"Ġsofa":13945,"ĠOcean":13946,"ĠLeichen":13947,"Ġgelogen":13948,"touch":13949,"Ġlernt":13950,"ĠUt":13951,"ĠWenig":13952,"poor":13953,"whispered":13954,"ĠCode":13955,"ufact":13956,"Ġschwere":13957,"ĠToo":13958,"outheast":13959,"ĠDiesen":13960,"Ġchines":13961,"Ġrichtiger":13962,"Ġcauses":13963,"Ġwinz":13964,"Ġmelt":13965,"Ġpardon":13966,"ĠEff":13967,"nappt":13968,"Ã¶pft":13969,"ĠReligion":13970,"Ġunknown":13971,"ĠMiddle":13972,"Mother":13973,"chern":13974,"Ġlauf":13975,"Ġabges":13976,"Ġhay":13977,"Ġunfortun":13978,"Ġgods":13979,"udding":13980,"Ġentz":13981,"Ġpraktisch":13982,"ĠGor":13983,"Ġnights":13984,"Ġlamb":13985,"ĠunglÃ¼cklich":13986,"elig":13987,"ppich":13988,"ophy":13989,"Ġtrinke":13990,"ĠShall":13991,"Ġcircus":13992,"Ġbestimmte":13993,"zÃ¼g":13994,"adet":13995,"ĠSchaf":13996,"Ġproduct":13997,"ĠmuÃŁte":13998,"Ġbot":13999,"ĠBauer":14000,"Ġhanded":14001,"Ġflu":14002,"Ġminor":14003,"ĠPapiere":14004,"MS":14005,"chor":14006,"Ġprecious":14007,"ĠMosk":14008,"Ġcompanions":14009,"Ġmessen":14010,"icide":14011,"Ġtritt":14012,"elson":14013,"ĠKennedy":14014,"morgen":14015,"ĠMari":14016,"Ġfliehen":14017,"windigkeit":14018,"ĠÃ¼berraschen":14019,"ĠHopp":14020,"text":14021,"ĠErklÃ¤rung":14022,"Ġschenken":14023,"Ġgal":14024,"ĠSlo":14025,"Ġcries":14026,"ands":14027,"Ġleans":14028,"Ġschwul":14029,"Wh":14030,"gor":14031,"ĠBattle":14032,"herz":14033,"ĠDaran":14034,"umming":14035,"LICH":14036,"ulated":14037,"etty":14038,"Ġvolume":14039,"ĠFranzÃ¶sisch":14040,"yard":14041,"ĠHeraus":14042,"ĠHarris":14043,"Ġkennenlernen":14044,"ĠAst":14045,"ĠAbe":14046,"ĠKna":14047,"ĠMagst":14048,"Ġlegte":14049,"ĠAlexand":14050,"Ġgros":14051,"Ġpigs":14052,"ĠPolice":14053,"Ġcheap":14054,"ĠKonzert":14055,"ĠBour":14056,"Ġverteidigen":14057,"pur":14058,"ĠPeters":14059,"ĠDivision":14060,"Ġtools":14061,"Ġunheim":14062,"Ġboyfriend":14063,"Ġregret":14064,"ktionen":14065,"ĠHochzeits":14066,"Ġadvanced":14067,"richtig":14068,"ĠPy":14069,"Ġaussch":14070,"ĠvorÃ¼ber":14071,"ĠKlassen":14072,"Ġcris":14073,"Ġba":14074,"ĠHure":14075,"Ġweig":14076,"Ġdragon":14077,"Ġquant":14078,"Ġbeten":14079,"Ġgestr":14080,"eton":14081,"ĠStark":14082,"ĠGruppen":14083,"ĠProbe":14084,"ĠGleiche":14085,"Ġhut":14086,"ĠfÃĥÅĴr":14087,"Ġsecure":14088,"ĠAusdruck":14089,"kriegen":14090,"ĠMitglied":14091,"istration":14092,"ĠHubschrauber":14093,"Ġerober":14094,"resp":14095,"ĠHerrgott":14096,"syl":14097,"Ġehren":14098,"Ġphotograph":14099,"Ġexhib":14100,"ĠWiderstand":14101,"ĠGepÃ¤ck":14102,"ĠSchreiben":14103,"ĠprÃ¼":14104,"musst":14105,"Ġfailure":14106,"Ġbuying":14107,"ĠAdmir":14108,"ĠSendung":14109,"ĠKek":14110,"Ġabst":14111,"ĠWhit":14112,"ĠTransport":14113,"ĠHamburg":14114,"Ġhappiness":14115,"oppen":14116,"omot":14117,"ĠRah":14118,"zieht":14119,"ĠDepartment":14120,"ĠStaub":14121,"danke":14122,"wide":14123,"geber":14124,"Ġforg":14125,"ĠStille":14126,"Ġbold":14127,"ĠWITH":14128,"ĠKredit":14129,"ĠHeb":14130,"ĠEmil":14131,"ĠMetall":14132,"Ġcheeks":14133,"Ġtourn":14134,"Ġ39":14135,"ĠJackie":14136,"ĠHope":14137,"Ġ\"_":14138,"ĠDÃ¤mon":14139,"Ġ]":14140,"Ġtorn":14141,"Ġseized":14142,"brush":14143,"ĠDev":14144,"Ġbeobachtet":14145,"Ġmood":14146,"ĠEich":14147,"Ġprince":14148,"ĠPercy":14149,"Ġstronger":14150,"Ġcreatures":14151,"ĠWeiÃŁen":14152,"sometimes":14153,"ĠVincent":14154,"ĠRealitÃ¤t":14155,"ĠApple":14156,"Ã¶stlich":14157,"nina":14158,"ĠLÃ¼ge":14159,"ĠSchaut":14160,"apple":14161,"ĠHÃ¶hle":14162,"Cause":14163,"Ġgirlfriend":14164,"Ġsounded":14165,"Ġsixteen":14166,"ĠXV":14167,"Ġconfidence":14168,"Ġlautet":14169,"iga":14170,"ĠGegner":14171,"Ġbushes":14172,"Ã¼ff":14173,"ulieren":14174,"Ġantworten":14175,"Ã¼gung":14176,"Ġoccupied":14177,"Ġlit":14178,"ĠKay":14179,"Ġsteady":14180,"Ġelf":14181,"Ġbehaupt":14182,"Ġ180":14183,"Ġswall":14184,"astrophe":14185,"ĠKritik":14186,"Ġinteressieren":14187,"ĠStudio":14188,"ĠDON":14189,"ĠFree":14190,"Ġdisgust":14191,"Ġefforts":14192,"ĠMajesty":14193,"Ġridic":14194,"BEN":14195,"TV":14196,"ĠlÃ¼gen":14197,"Ã¼ht":14198,"Ġschmer":14199,"cake":14200,"mund":14201,"pers":14202,"Ġvermisse":14203,"Ġcaut":14204,"ĠEarl":14205,"ĠVo":14206,"Ġblowing":14207,"Ġscare":14208,"ĠIrgendwie":14209,"Ġtechnology":14210,"ĠPolizist":14211,"kleid":14212,"Ġpine":14213,"ĠFell":14214,"emoiselle":14215,"ĠProp":14216,"Ġeurem":14217,"station":14218,"Ġpurch":14219,"ĠClass":14220,"ĠWindows":14221,"Ġfleet":14222,"Ġunusual":14223,"ĠDAS":14224,"ĠRalph":14225,"ĠSeth":14226,"reng":14227,"Ã¤tzt":14228,"ĠBlatt":14229,"gruppe":14230,"Ġswift":14231,"Ġmerkt":14232,"ĠPauline":14233,"Ġsurrounded":14234,"ĠPerfekt":14235,"Ġpond":14236,"Ġbuddy":14237,"rer":14238,"Ġtend":14239,"ĠFind":14240,"Ġausgesch":14241,"Ġtrotz":14242,"ĠGrÃ¤":14243,"ĠAufnahme":14244,"Ġbasically":14245,"Ġath":14246,"Ġwagen":14247,"refer":14248,"ĠSelbstmord":14249,"ĠNell":14250,"Ġ42":14251,"Ġterrif":14252,"Ġincred":14253,"ĠInstitute":14254,"Ġappreciate":14255,"Ġmutter":14256,"ĠAction":14257,"ĠLizenz":14258,"Ġgeholt":14259,"ĠLiebst":14260,"Ġverlor":14261,"Ġacid":14262,"utscht":14263,"ĠNorman":14264,"ridge":14265,"Ġbom":14266,"ĠBC":14267,"Ġrais":14268,"necess":14269,"Ġdetect":14270,"ĠPacific":14271,"Ġlach":14272,"Ġchase":14273,"Ġgeschossen":14274,"Ġangeht":14275,"Ġprotection":14276,"Ġwirken":14277,"ĠMiles":14278,"Ġhundreds":14279,"auern":14280,"ĠVar":14281,"ĠSeelen":14282,"Ġgeschw":14283,"Ġgain":14284,"Ġwebs":14285,"Ġadmitted":14286,"Ġequipment":14287,"Ġconstruction":14288,"ĠGle":14289,"Ġsuchte":14290,"Ġchampionship":14291,"ĠGriechen":14292,"apie":14293,"ango":14294,"iva":14295,"ĠmuÃŁt":14296,"ĠStanley":14297,"Wir":14298,"tan":14299,"emen":14300,"Ġ1974":14301,"ĠWant":14302,"ĠLeist":14303,"ĠâĢİ":14304,"Ġfollows":14305,"Ġvirt":14306,"ĠauÃŁerhalb":14307,"oles":14308,"Ġwenigen":14309,"Ġbush":14310,"Ġshouting":14311,"ĠMÃ¶glichkeiten":14312,"fan":14313,"park":14314,"ĠOrder":14315,"ĠChristus":14316,"umente":14317,"ĠIslands":14318,"PS":14319,"irren":14320,"Ġpenny":14321,"Ġspin":14322,"Ġ47":14323,"Ġsunshine":14324,"ĠReifen":14325,"sollen":14326,"irates":14327,"Ġquit":14328,"pens":14329,"ĠerfÃ¼llen":14330,"ĠHeiligen":14331,"Ġeconomic":14332,"ĠGlocken":14333,"Ġaudience":14334,"ingo":14335,"Ġweib":14336,"Ġhinterlassen":14337,"Ġ1983":14338,"ĠberÃ¼hmt":14339,"uals":14340,"ĠIhm":14341,"Ġrevol":14342,"ĠRocky":14343,"zusagen":14344,"ĠGolf":14345,"ĠKne":14346,"cest":14347,"Ġhinunter":14348,"ancial":14349,"ĠVorschlag":14350,"ĠSilver":14351,"Ġenthus":14352,"bish":14353,"reib":14354,"reiÃŁen":14355,"Ġlabor":14356,"Ġerlauben":14357,"ĠMaÃŁ":14358,"Ġfourteen":14359,"system":14360,"Ġrailway":14361,"bewerb":14362,"aver":14363,"iy":14364,"ĠBos":14365,"schmerzen":14366,"ĠGrunde":14367,"ĠSteht":14368,"ĠGnade":14369,"ĠSIE":14370,"ĠNOT":14371,"ĠSchÃ¶nes":14372,"Ġcovers":14373,"Ġangetan":14374,"Ġbegraben":14375,"ĠKÃ¶nigreich":14376,"Ġmajority":14377,"dded":14378,"ĠDeutsche":14379,"Ġfuss":14380,"Ġkitten":14381,"ĠFAT":14382,"ĠSchaden":14383,"Ġgewisse":14384,"Ġembar":14385,"GLO":14386,"ikes":14387,"ĠSocial":14388,"ĠSpitze":14389,"ĠNapole":14390,"Mann":14391,"kas":14392,"waschen":14393,"zieren":14394,"Ġ+":14395,"ĠTalk":14396,"ĠMittern":14397,"Ġ1969":14398,"ĠlieÃŁen":14399,"Ġstruggle":14400,"ĠCheck":14401,"ĠLinie":14402,"ieve":14403,"Ġeinverstanden":14404,"ĠNotfall":14405,"Ġstudiert":14406,"Thank":14407,"hetic":14408,"film":14409,"Ġcult":14410,"Ġstiff":14411,"ĠMario":14412,"Ġbeobachten":14413,"wohin":14414,"ĠMitch":14415,"Ġbehandeln":14416,"bart":14417,"ĠDuck":14418,"ĠTrump":14419,"Ġschlage":14420,"ĠDennis":14421,"Ġcage":14422,"ĠZirkus":14423,"ĠProb":14424,"Ġechten":14425,"Ġausziehen":14426,"Ġentsch":14427,"ĠGesetze":14428,"Ġtiefer":14429,"ĠhÃ¤sslich":14430,"aux":14431,"ĠFick":14432,"ĠÃł":14433,"phia":14434,"ĠlÃ¤ng":14435,"Ġneug":14436,"underte":14437,"Ġresour":14438,"Ġdefend":14439,"Ġweich":14440,"ĠdÃ¼rfte":14441,"ĠAntworten":14442,"ĠFinanz":14443,"onie":14444,"ĠErsch":14445,"Ġbackwards":14446,"gets":14447,"ĠForce":14448,"ĠBeeilung":14449,"ĠWur":14450,"ĠWache":14451,"Ġhandeln":14452,"prom":14453,"ĠDemokrat":14454,"beln":14455,"ĠKreat":14456,"ordnung":14457,"werke":14458,"ĠkrÃ¤ft":14459,"Ġexistiert":14460,"Ġgewohnt":14461,"Ġchamber":14462,"hlt":14463,"ĠAnti":14464,"Ġpad":14465,"ĠKos":14466,"ĠFif":14467,"ĠStall":14468,"ilda":14469,"ĠAgn":14470,"utage":14471,"andet":14472,"lde":14473,"Ġimit":14474,"ĠMcG":14475,"ĠStÃ¤dte":14476,"ĠDNA":14477,"Ġfork":14478,"ĠTruppen":14479,"Ġ1968":14480,"utti":14481,"break":14482,"ĠBangl":14483,"ĠSultan":14484,"Ġreser":14485,"ĠFelsen":14486,"beep":14487,"ielle":14488,"Ġpup":14489,"ĠBub":14490,"ĠAua":14491,"ĠTromm":14492,"ĠMai":14493,"Ġdistinct":14494,"ĠWem":14495,"Ġowe":14496,"ĠThus":14497,"Ġgemerkt":14498,"Ġbarrel":14499,"Ġsuffering":14500,"Ġbreathing":14501,"ĠLehrerin":14502,"Ġbriefly":14503,"ĠtÃ¼r":14504,"Ġbree":14505,"schriften":14506,"Ġ1945":14507,"gewÃ¶hnlich":14508,"Ġexercise":14509,"tered":14510,"ĠGenie":14511,"Ġbrav":14512,"ĠGeneration":14513,"cia":14514,"oard":14515,"Ġroute":14516,"inkle":14517,"Ġfever":14518,"Ġ1975":14519,"Ġhipp":14520,"Ġgiraffe":14521,"ĠTry":14522,"ĠGust":14523,"ierungs":14524,"immst":14525,"udeln":14526,"Ġquack":14527,"Ã¼tig":14528,"ĠLeidenschaft":14529,"Ġbeige":14530,"Ġaua":14531,"ĠbefÃ¼r":14532,"Ġcommittee":14533,"Ġexplan":14534,"lÃ¤nder":14535,"wahl":14536,"ĠPlast":14537,"ĠNews":14538,"Ġ1982":14539,"Ġservant":14540,"Ġinstance":14541,"Ġnuts":14542,"Ġkle":14543,"Ġgeklaut":14544,"ĠSchÃ¶nen":14545,"Ġcough":14546,"Ġunits":14547,"Ġshaking":14548,"Ġobserv":14549,"afel":14550,"Ġlanding":14551,"Ġbalance":14552,"fliegen":14553,"Ã¶ne":14554,"Ġadvert":14555,"ĠMissouri":14556,"Ġexped":14557,"ĠTemper":14558,"Ġult":14559,"ĠKern":14560,"Ġticket":14561,"ĠStÃ¤rke":14562,"99":14563,"whee":14564,"lying":14565,"istence":14566,"ĠHolen":14567,"Ġsettlement":14568,"leute":14569,"Ġcommercial":14570,"ĠBY":14571,"ĠPR":14572,"ĠCategory":14573,"bekommen":14574,"ĠLooks":14575,"ĠSchlafzimmer":14576,"ĠOze":14577,"ĠzurÃ¼ckkommen":14578,"Ġbehaup":14579,"Ġoffensichtlich":14580,"Ġpotatoes":14581,"Ġboot":14582,"Ġbeds":14583,"akespe":14584,"Ġcommonly":14585,"Ġproof":14586,
[...]
